{
  "version": "1.0",
  "truncation": null,
  "padding": null,
  "added_tokens": [
    {
      "id": 0,
      "content": "<unk>",
      "single_word": false,
      "lstrip": false,
      "rstrip": false,
      "normalized": false,
      "special": true
    },
    {
      "id": 1,
      "content": "<pad>",
      "single_word": false,
      "lstrip": false,
      "rstrip": false,
      "normalized": false,
      "special": true
    },
    {
      "id": 2,
      "content": "<bos>",
      "single_word": false,
      "lstrip": false,
      "rstrip": false,
      "normalized": false,
      "special": true
    },
    {
      "id": 3,
      "content": "<eos>",
      "single_word": false,
      "lstrip": false,
      "rstrip": false,
      "normalized": false,
      "special": true
    }
  ],
  "normalizer": null,
  "pre_tokenizer": {
    "type": "Whitespace"
  },
  "post_processor": null,
  "decoder": {
    "type": "BPEDecoder",
    "suffix": "</w>"
  },
  "model": {
    "type": "BPE",
    "dropout": null,
    "unk_token": "<unk>",
    "continuing_subword_prefix": null,
    "end_of_word_suffix": null,
    "fuse_unk": false,
    "byte_fallback": false,
    "ignore_merges": false,
    "vocab": {
      "<unk>": 0,
      "<pad>": 1,
      "<bos>": 2,
      "<eos>": 3,
      "!": 4,
      "\"": 5,
      "#": 6,
      "$": 7,
      "%": 8,
      "&": 9,
      "'": 10,
      "(": 11,
      ")": 12,
      "*": 13,
      "+": 14,
      ",": 15,
      "-": 16,
      ".": 17,
      "/": 18,
      "0": 19,
      "1": 20,
      "2": 21,
      "3": 22,
      "4": 23,
      "5": 24,
      "6": 25,
      "7": 26,
      "8": 27,
      "9": 28,
      ":": 29,
      ";": 30,
      "<": 31,
      "=": 32,
      ">": 33,
      "?": 34,
      "@": 35,
      "A": 36,
      "B": 37,
      "C": 38,
      "D": 39,
      "E": 40,
      "F": 41,
      "G": 42,
      "H": 43,
      "I": 44,
      "J": 45,
      "K": 46,
      "L": 47,
      "M": 48,
      "N": 49,
      "O": 50,
      "P": 51,
      "Q": 52,
      "R": 53,
      "S": 54,
      "T": 55,
      "U": 56,
      "V": 57,
      "W": 58,
      "X": 59,
      "Y": 60,
      "Z": 61,
      "[": 62,
      "\\": 63,
      "]": 64,
      "^": 65,
      "_": 66,
      "`": 67,
      "a": 68,
      "b": 69,
      "c": 70,
      "d": 71,
      "e": 72,
      "f": 73,
      "g": 74,
      "h": 75,
      "i": 76,
      "j": 77,
      "k": 78,
      "l": 79,
      "m": 80,
      "n": 81,
      "o": 82,
      "p": 83,
      "q": 84,
      "r": 85,
      "s": 86,
      "t": 87,
      "u": 88,
      "v": 89,
      "w": 90,
      "x": 91,
      "y": 92,
      "z": 93,
      "{": 94,
      "|": 95,
      "}": 96,
      "~": 97,
      "": 98,
      "¡": 99,
      "¢": 100,
      "£": 101,
      "¥": 102,
      "§": 103,
      "¨": 104,
      "©": 105,
      "«": 106,
      "¬": 107,
      "­": 108,
      "®": 109,
      "¯": 110,
      "°": 111,
      "±": 112,
      "²": 113,
      "³": 114,
      "´": 115,
      "µ": 116,
      "·": 117,
      "¸": 118,
      "¹": 119,
      "º": 120,
      "»": 121,
      "¼": 122,
      "½": 123,
      "¾": 124,
      "À": 125,
      "Á": 126,
      "Â": 127,
      "Ä": 128,
      "Å": 129,
      "Ç": 130,
      "È": 131,
      "É": 132,
      "Ì": 133,
      "Í": 134,
      "Î": 135,
      "Ð": 136,
      "Ó": 137,
      "Ô": 138,
      "Ö": 139,
      "×": 140,
      "Ø": 141,
      "Ú": 142,
      "Û": 143,
      "Ü": 144,
      "ß": 145,
      "à": 146,
      "á": 147,
      "â": 148,
      "ã": 149,
      "ä": 150,
      "å": 151,
      "æ": 152,
      "ç": 153,
      "è": 154,
      "é": 155,
      "ê": 156,
      "ë": 157,
      "ì": 158,
      "í": 159,
      "î": 160,
      "ï": 161,
      "ð": 162,
      "ñ": 163,
      "ò": 164,
      "ó": 165,
      "ô": 166,
      "õ": 167,
      "ö": 168,
      "÷": 169,
      "ø": 170,
      "ù": 171,
      "ú": 172,
      "û": 173,
      "ü": 174,
      "ý": 175,
      "þ": 176,
      "Ā": 177,
      "ā": 178,
      "Ă": 179,
      "ă": 180,
      "ą": 181,
      "Ć": 182,
      "ć": 183,
      "Ĉ": 184,
      "Č": 185,
      "č": 186,
      "ď": 187,
      "Đ": 188,
      "đ": 189,
      "Ē": 190,
      "ē": 191,
      "ĕ": 192,
      "ė": 193,
      "ę": 194,
      "ě": 195,
      "ğ": 196,
      "Ġ": 197,
      "ġ": 198,
      "Ĥ": 199,
      "ħ": 200,
      "ĩ": 201,
      "ī": 202,
      "ĭ": 203,
      "İ": 204,
      "ı": 205,
      "ĵ": 206,
      "ļ": 207,
      "Ł": 208,
      "ł": 209,
      "ń": 210,
      "ň": 211,
      "ŋ": 212,
      "Ō": 213,
      "ō": 214,
      "ŏ": 215,
      "ő": 216,
      "Œ": 217,
      "œ": 218,
      "ŗ": 219,
      "ř": 220,
      "Ś": 221,
      "ś": 222,
      "Ş": 223,
      "ş": 224,
      "Š": 225,
      "š": 226,
      "Ţ": 227,
      "ţ": 228,
      "ť": 229,
      "ũ": 230,
      "Ū": 231,
      "ū": 232,
      "ŭ": 233,
      "ů": 234,
      "ű": 235,
      "Ż": 236,
      "Ž": 237,
      "ž": 238,
      "ƒ": 239,
      "ơ": 240,
      "ƣ": 241,
      "ư": 242,
      "ǀ": 243,
      "ǃ": 244,
      "ǎ": 245,
      "ǐ": 246,
      "ǒ": 247,
      "ǔ": 248,
      "ȁ": 249,
      "Ș": 250,
      "ȟ": 251,
      "Ɍ": 252,
      "ɐ": 253,
      "ɑ": 254,
      "ɒ": 255,
      "ɔ": 256,
      "ɕ": 257,
      "ɘ": 258,
      "ə": 259,
      "ɚ": 260,
      "ɛ": 261,
      "ɜ": 262,
      "ɝ": 263,
      "ɡ": 264,
      "ɣ": 265,
      "ɨ": 266,
      "ɪ": 267,
      "ɫ": 268,
      "ɬ": 269,
      "ɯ": 270,
      "ɰ": 271,
      "ɲ": 272,
      "ɴ": 273,
      "ɵ": 274,
      "ɹ": 275,
      "ɽ": 276,
      "ɾ": 277,
      "ʀ": 278,
      "ʁ": 279,
      "ʂ": 280,
      "ʃ": 281,
      "ʈ": 282,
      "ʊ": 283,
      "ʋ": 284,
      "ʌ": 285,
      "ʎ": 286,
      "ʑ": 287,
      "ʒ": 288,
      "ʔ": 289,
      "ʕ": 290,
      "ʤ": 291,
      "ʥ": 292,
      "ʨ": 293,
      "ʰ": 294,
      "ʲ": 295,
      "ʷ": 296,
      "ʹ": 297,
      "ʻ": 298,
      "ʼ": 299,
      "ʽ": 300,
      "ʾ": 301,
      "ʿ": 302,
      "ˈ": 303,
      "ˌ": 304,
      "ː": 305,
      "˘": 306,
      "˚": 307,
      "ˤ": 308,
      "̀": 309,
      "́": 310,
      "̃": 311,
      "̅": 312,
      "̆": 313,
      "̌": 314,
      "̣": 315,
      "̥": 316,
      "̪": 317,
      "̯": 318,
      "̽": 319,
      "͡": 320,
      "Έ": 321,
      "Ό": 322,
      "ΐ": 323,
      "Α": 324,
      "Β": 325,
      "Γ": 326,
      "Δ": 327,
      "Ε": 328,
      "Ζ": 329,
      "Η": 330,
      "Θ": 331,
      "Ι": 332,
      "Κ": 333,
      "Λ": 334,
      "Μ": 335,
      "Ν": 336,
      "Ξ": 337,
      "Ο": 338,
      "Π": 339,
      "Ρ": 340,
      "Σ": 341,
      "Τ": 342,
      "Υ": 343,
      "Φ": 344,
      "Χ": 345,
      "Ψ": 346,
      "Ω": 347,
      "ά": 348,
      "έ": 349,
      "ή": 350,
      "ί": 351,
      "α": 352,
      "β": 353,
      "γ": 354,
      "δ": 355,
      "ε": 356,
      "ζ": 357,
      "η": 358,
      "θ": 359,
      "ι": 360,
      "κ": 361,
      "λ": 362,
      "μ": 363,
      "ν": 364,
      "ξ": 365,
      "ο": 366,
      "π": 367,
      "ρ": 368,
      "ς": 369,
      "σ": 370,
      "τ": 371,
      "υ": 372,
      "φ": 373,
      "χ": 374,
      "ψ": 375,
      "ω": 376,
      "ϊ": 377,
      "ό": 378,
      "ύ": 379,
      "ώ": 380,
      "ϑ": 381,
      "ϒ": 382,
      "ϛ": 383,
      "Ђ": 384,
      "І": 385,
      "Ї": 386,
      "Ј": 387,
      "А": 388,
      "Б": 389,
      "В": 390,
      "Г": 391,
      "Д": 392,
      "Е": 393,
      "З": 394,
      "И": 395,
      "Й": 396,
      "К": 397,
      "Л": 398,
      "М": 399,
      "Н": 400,
      "О": 401,
      "П": 402,
      "Р": 403,
      "С": 404,
      "Т": 405,
      "У": 406,
      "Ф": 407,
      "Х": 408,
      "Ц": 409,
      "Ч": 410,
      "Ъ": 411,
      "Ь": 412,
      "Ю": 413,
      "Я": 414,
      "а": 415,
      "б": 416,
      "в": 417,
      "г": 418,
      "д": 419,
      "е": 420,
      "ж": 421,
      "з": 422,
      "и": 423,
      "й": 424,
      "к": 425,
      "л": 426,
      "м": 427,
      "н": 428,
      "о": 429,
      "п": 430,
      "р": 431,
      "с": 432,
      "т": 433,
      "у": 434,
      "ф": 435,
      "х": 436,
      "ц": 437,
      "ч": 438,
      "ш": 439,
      "щ": 440,
      "ъ": 441,
      "ы": 442,
      "ь": 443,
      "э": 444,
      "ю": 445,
      "я": 446,
      "ё": 447,
      "є": 448,
      "і": 449,
      "ј": 450,
      "ћ": 451,
      "џ": 452,
      "Ѡ": 453,
      "Ѥ": 454,
      "Ѧ": 455,
      "Ѩ": 456,
      "Ѭ": 457,
      "Ѻ": 458,
      "Ѿ": 459,
      "ғ": 460,
      "ҡ": 461,
      "ң": 462,
      "ұ": 463,
      "ҷ": 464,
      "һ": 465,
      "Ӏ": 466,
      "Ә": 467,
      "ә": 468,
      "ӣ": 469,
      "ӯ": 470,
      "Ա": 471,
      "Դ": 472,
      "Հ": 473,
      "Մ": 474,
      "ա": 475,
      "գ": 476,
      "դ": 477,
      "ե": 478,
      "զ": 479,
      "թ": 480,
      "կ": 481,
      "մ": 482,
      "յ": 483,
      "ն": 484,
      "շ": 485,
      "ո": 486,
      "ս": 487,
      "տ": 488,
      "ր": 489,
      "ւ": 490,
      "ք": 491,
      "֏": 492,
      "ְ": 493,
      "ֱ": 494,
      "ֲ": 495,
      "ִ": 496,
      "ֵ": 497,
      "ֶ": 498,
      "ַ": 499,
      "ָ": 500,
      "ֹ": 501,
      "ּ": 502,
      "־": 503,
      "ׁ": 504,
      "ׂ": 505,
      "א": 506,
      "ב": 507,
      "ג": 508,
      "ד": 509,
      "ה": 510,
      "ו": 511,
      "ז": 512,
      "ח": 513,
      "ט": 514,
      "י": 515,
      "ך": 516,
      "כ": 517,
      "ל": 518,
      "ם": 519,
      "מ": 520,
      "ן": 521,
      "נ": 522,
      "ס": 523,
      "ע": 524,
      "ף": 525,
      "פ": 526,
      "צ": 527,
      "ק": 528,
      "ר": 529,
      "ש": 530,
      "ת": 531,
      "װ": 532,
      "،": 533,
      "ء": 534,
      "آ": 535,
      "أ": 536,
      "ؤ": 537,
      "إ": 538,
      "ئ": 539,
      "ا": 540,
      "ب": 541,
      "ة": 542,
      "ت": 543,
      "ث": 544,
      "ج": 545,
      "ح": 546,
      "خ": 547,
      "د": 548,
      "ذ": 549,
      "ر": 550,
      "ز": 551,
      "س": 552,
      "ش": 553,
      "ص": 554,
      "ض": 555,
      "ط": 556,
      "ظ": 557,
      "ع": 558,
      "غ": 559,
      "ـ": 560,
      "ف": 561,
      "ق": 562,
      "ك": 563,
      "ل": 564,
      "م": 565,
      "ن": 566,
      "ه": 567,
      "و": 568,
      "ى": 569,
      "ي": 570,
      "ً": 571,
      "ٌ": 572,
      "ٍ": 573,
      "َ": 574,
      "ُ": 575,
      "ِ": 576,
      "ّ": 577,
      "ْ": 578,
      "ٔ": 579,
      "ٰ": 580,
      "ٹ": 581,
      "ٽ": 582,
      "پ": 583,
      "ڀ": 584,
      "چ": 585,
      "ڈ": 586,
      "ڌ": 587,
      "ڑ": 588,
      "ژ": 589,
      "ښ": 590,
      "ڠ": 591,
      "ڤ": 592,
      "ک": 593,
      "ګ": 594,
      "ڭ": 595,
      "گ": 596,
      "ں": 597,
      "ھ": 598,
      "ہ": 599,
      "ۆ": 600,
      "ۇ": 601,
      "ۈ": 602,
      "ی": 603,
      "ۍ": 604,
      "ې": 605,
      "ے": 606,
      "ۓ": 607,
      "ە": 608,
      "ݢ": 609,
      "ހ": 610,
      "ނ": 611,
      "ރ": 612,
      "ބ": 613,
      "އ": 614,
      "ވ": 615,
      "މ": 616,
      "ފ": 617,
      "ދ": 618,
      "ތ": 619,
      "ލ": 620,
      "ގ": 621,
      "ޔ": 622,
      "ޝ": 623,
      "ަ": 624,
      "ާ": 625,
      "ި": 626,
      "ީ": 627,
      "ު": 628,
      "ޫ": 629,
      "ް": 630,
      "ँ": 631,
      "ं": 632,
      "ः": 633,
      "अ": 634,
      "आ": 635,
      "इ": 636,
      "ई": 637,
      "उ": 638,
      "ऊ": 639,
      "ऋ": 640,
      "ऌ": 641,
      "ऍ": 642,
      "ऎ": 643,
      "ए": 644,
      "ऒ": 645,
      "ओ": 646,
      "औ": 647,
      "क": 648,
      "ख": 649,
      "ग": 650,
      "घ": 651,
      "ङ": 652,
      "च": 653,
      "छ": 654,
      "ज": 655,
      "झ": 656,
      "ञ": 657,
      "ट": 658,
      "ठ": 659,
      "ड": 660,
      "ढ": 661,
      "ण": 662,
      "त": 663,
      "थ": 664,
      "द": 665,
      "ध": 666,
      "न": 667,
      "प": 668,
      "फ": 669,
      "ब": 670,
      "भ": 671,
      "म": 672,
      "य": 673,
      "र": 674,
      "ल": 675,
      "ळ": 676,
      "व": 677,
      "श": 678,
      "ष": 679,
      "स": 680,
      "ह": 681,
      "़": 682,
      "ा": 683,
      "ि": 684,
      "ी": 685,
      "ु": 686,
      "ू": 687,
      "ृ": 688,
      "ॅ": 689,
      "े": 690,
      "ै": 691,
      "ॉ": 692,
      "ो": 693,
      "ौ": 694,
      "्": 695,
      "ॐ": 696,
      "ॠ": 697,
      "ॡ": 698,
      "३": 699,
      "॰": 700,
      "ঁ": 701,
      "ং": 702,
      "অ": 703,
      "আ": 704,
      "ই": 705,
      "উ": 706,
      "ও": 707,
      "ক": 708,
      "খ": 709,
      "গ": 710,
      "ঘ": 711,
      "ঙ": 712,
      "চ": 713,
      "জ": 714,
      "ঝ": 715,
      "ঞ": 716,
      "ট": 717,
      "ঠ": 718,
      "ড": 719,
      "ণ": 720,
      "ত": 721,
      "থ": 722,
      "দ": 723,
      "ন": 724,
      "প": 725,
      "ফ": 726,
      "ব": 727,
      "ভ": 728,
      "ম": 729,
      "য": 730,
      "র": 731,
      "ল": 732,
      "শ": 733,
      "ষ": 734,
      "স": 735,
      "হ": 736,
      "়": 737,
      "া": 738,
      "ি": 739,
      "ী": 740,
      "ু": 741,
      "ে": 742,
      "ৈ": 743,
      "ো": 744,
      "্": 745,
      "ৎ": 746,
      "ৰ": 747,
      "ਅ": 748,
      "ਆ": 749,
      "ਈ": 750,
      "ਓ": 751,
      "ਕ": 752,
      "ਖ": 753,
      "ਗ": 754,
      "ਘ": 755,
      "ਜ": 756,
      "ਣ": 757,
      "ਤ": 758,
      "ਦ": 759,
      "ਧ": 760,
      "ਨ": 761,
      "ਪ": 762,
      "ਬ": 763,
      "ਭ": 764,
      "ਮ": 765,
      "ਰ": 766,
      "ਲ": 767,
      "ਵ": 768,
      "ਸ": 769,
      "ਹ": 770,
      "਼": 771,
      "ਾ": 772,
      "ਿ": 773,
      "ੀ": 774,
      "ੁ": 775,
      "ੇ": 776,
      "ੈ": 777,
      "ੋ": 778,
      "ੜ": 779,
      "੭": 780,
      "ੰ": 781,
      "ੱ": 782,
      "ં": 783,
      "અ": 784,
      "આ": 785,
      "ઇ": 786,
      "ઈ": 787,
      "ક": 788,
      "ગ": 789,
      "ચ": 790,
      "જ": 791,
      "ટ": 792,
      "ણ": 793,
      "ત": 794,
      "દ": 795,
      "ધ": 796,
      "ન": 797,
      "પ": 798,
      "ફ": 799,
      "બ": 800,
      "ભ": 801,
      "મ": 802,
      "ય": 803,
      "ર": 804,
      "લ": 805,
      "ળ": 806,
      "વ": 807,
      "શ": 808,
      "સ": 809,
      "હ": 810,
      "ા": 811,
      "િ": 812,
      "ી": 813,
      "ુ": 814,
      "ૂ": 815,
      "ે": 816,
      "ૈ": 817,
      "ો": 818,
      "્": 819,
      "କ": 820,
      "ଗ": 821,
      "ଙ": 822,
      "ଟ": 823,
      "ନ": 824,
      "ପ": 825,
      "ବ": 826,
      "ମ": 827,
      "ର": 828,
      "ଲ": 829,
      "ା": 830,
      "ି": 831,
      "ୀ": 832,
      "୍": 833,
      "ୟ": 834,
      "ஂ": 835,
      "ஃ": 836,
      "அ": 837,
      "ஆ": 838,
      "இ": 839,
      "ஈ": 840,
      "உ": 841,
      "ஊ": 842,
      "எ": 843,
      "ஏ": 844,
      "ஐ": 845,
      "ஒ": 846,
      "ஓ": 847,
      "ஔ": 848,
      "க": 849,
      "ங": 850,
      "ச": 851,
      "ஜ": 852,
      "ஞ": 853,
      "ட": 854,
      "஢": 855,
      "ண": 856,
      "த": 857,
      "ந": 858,
      "ன": 859,
      "ப": 860,
      "ம": 861,
      "ய": 862,
      "ர": 863,
      "ற": 864,
      "ல": 865,
      "ள": 866,
      "ழ": 867,
      "வ": 868,
      "ஶ": 869,
      "ஷ": 870,
      "ஸ": 871,
      "ஹ": 872,
      "ா": 873,
      "ி": 874,
      "ீ": 875,
      "ு": 876,
      "ூ": 877,
      "ெ": 878,
      "ே": 879,
      "ை": 880,
      "௉": 881,
      "ொ": 882,
      "ோ": 883,
      "ௌ": 884,
      "்": 885,
      "ௐ": 886,
      "ௗ": 887,
      "௦": 888,
      "௧": 889,
      "௨": 890,
      "௩": 891,
      "௪": 892,
      "௫": 893,
      "௬": 894,
      "௭": 895,
      "௮": 896,
      "௯": 897,
      "௰": 898,
      "௱": 899,
      "௲": 900,
      "௳": 901,
      "௴": 902,
      "௵": 903,
      "௶": 904,
      "௸": 905,
      "௹": 906,
      "ం": 907,
      "అ": 908,
      "ఆ": 909,
      "ఇ": 910,
      "ఉ": 911,
      "ఎ": 912,
      "ఏ": 913,
      "ఒ": 914,
      "క": 915,
      "ఖ": 916,
      "గ": 917,
      "ఘ": 918,
      "చ": 919,
      "ఛ": 920,
      "జ": 921,
      "ఝ": 922,
      "ట": 923,
      "ఠ": 924,
      "డ": 925,
      "ఢ": 926,
      "ణ": 927,
      "త": 928,
      "థ": 929,
      "ద": 930,
      "ధ": 931,
      "న": 932,
      "ప": 933,
      "ఫ": 934,
      "బ": 935,
      "భ": 936,
      "మ": 937,
      "య": 938,
      "ర": 939,
      "ఱ": 940,
      "ల": 941,
      "ళ": 942,
      "వ": 943,
      "శ": 944,
      "ష": 945,
      "స": 946,
      "హ": 947,
      "ా": 948,
      "ి": 949,
      "ీ": 950,
      "ు": 951,
      "ూ": 952,
      "ృ": 953,
      "ె": 954,
      "ే": 955,
      "ై": 956,
      "ొ": 957,
      "ో": 958,
      "్": 959,
      "౼": 960,
      "ಂ": 961,
      "ಃ": 962,
      "ಅ": 963,
      "ಆ": 964,
      "ಇ": 965,
      "ಈ": 966,
      "ಉ": 967,
      "ಊ": 968,
      "ಋ": 969,
      "ಎ": 970,
      "ಏ": 971,
      "ಐ": 972,
      "ಒ": 973,
      "ಓ": 974,
      "ಔ": 975,
      "ಕ": 976,
      "ಖ": 977,
      "ಗ": 978,
      "ಘ": 979,
      "ಚ": 980,
      "ಛ": 981,
      "ಜ": 982,
      "ಝ": 983,
      "ಞ": 984,
      "ಟ": 985,
      "ಠ": 986,
      "ಡ": 987,
      "ಢ": 988,
      "ಣ": 989,
      "ತ": 990,
      "ಥ": 991,
      "ದ": 992,
      "ಧ": 993,
      "ನ": 994,
      "ಪ": 995,
      "ಫ": 996,
      "ಬ": 997,
      "ಭ": 998,
      "ಮ": 999,
      "ಯ": 1000,
      "ರ": 1001,
      "ಱ": 1002,
      "ಲ": 1003,
      "ಳ": 1004,
      "ವ": 1005,
      "ಶ": 1006,
      "ಷ": 1007,
      "ಸ": 1008,
      "ಹ": 1009,
      "ಾ": 1010,
      "ಿ": 1011,
      "ೀ": 1012,
      "ು": 1013,
      "ೂ": 1014,
      "ೆ": 1015,
      "ೇ": 1016,
      "ೈ": 1017,
      "ೊ": 1018,
      "ೋ": 1019,
      "ೌ": 1020,
      "್": 1021,
      "ೞ": 1022,
      "ം": 1023,
      "അ": 1024,
      "ആ": 1025,
      "ഇ": 1026,
      "ഊ": 1027,
      "എ": 1028,
      "ഒ": 1029,
      "ക": 1030,
      "ഖ": 1031,
      "ഗ": 1032,
      "ങ": 1033,
      "ച": 1034,
      "ഛ": 1035,
      "ജ": 1036,
      "ഞ": 1037,
      "ട": 1038,
      "ഠ": 1039,
      "ഡ": 1040,
      "ണ": 1041,
      "ത": 1042,
      "ഥ": 1043,
      "ദ": 1044,
      "ധ": 1045,
      "ന": 1046,
      "പ": 1047,
      "ഫ": 1048,
      "ബ": 1049,
      "ഭ": 1050,
      "മ": 1051,
      "യ": 1052,
      "ര": 1053,
      "റ": 1054,
      "ല": 1055,
      "ള": 1056,
      "ഴ": 1057,
      "വ": 1058,
      "ശ": 1059,
      "ഷ": 1060,
      "സ": 1061,
      "ഹ": 1062,
      "ാ": 1063,
      "ി": 1064,
      "ീ": 1065,
      "ു": 1066,
      "ൂ": 1067,
      "ൃ": 1068,
      "െ": 1069,
      "േ": 1070,
      "ൈ": 1071,
      "ൊ": 1072,
      "ോ": 1073,
      "്": 1074,
      "ൗ": 1075,
      "ൻ": 1076,
      "ർ": 1077,
      "ൾ": 1078,
      "ං": 1079,
      "අ": 1080,
      "ඇ": 1081,
      "උ": 1082,
      "එ": 1083,
      "ඔ": 1084,
      "ක": 1085,
      "ග": 1086,
      "ජ": 1087,
      "ට": 1088,
      "ඩ": 1089,
      "ණ": 1090,
      "ත": 1091,
      "ද": 1092,
      "ධ": 1093,
      "න": 1094,
      "ප": 1095,
      "බ": 1096,
      "ම": 1097,
      "ඹ": 1098,
      "ය": 1099,
      "ර": 1100,
      "ල": 1101,
      "ව": 1102,
      "ශ": 1103,
      "ෂ": 1104,
      "ස": 1105,
      "හ": 1106,
      "ළ": 1107,
      "්": 1108,
      "ා": 1109,
      "ැ": 1110,
      "ි": 1111,
      "ී": 1112,
      "ු": 1113,
      "ූ": 1114,
      "ෙ": 1115,
      "ේ": 1116,
      "ො": 1117,
      "ก": 1118,
      "ข": 1119,
      "ค": 1120,
      "ง": 1121,
      "จ": 1122,
      "ช": 1123,
      "ญ": 1124,
      "ณ": 1125,
      "ด": 1126,
      "ต": 1127,
      "ถ": 1128,
      "ท": 1129,
      "ธ": 1130,
      "น": 1131,
      "บ": 1132,
      "ป": 1133,
      "ผ": 1134,
      "พ": 1135,
      "ม": 1136,
      "ย": 1137,
      "ร": 1138,
      "ล": 1139,
      "ว": 1140,
      "ศ": 1141,
      "ส": 1142,
      "ห": 1143,
      "อ": 1144,
      "ะ": 1145,
      "ั": 1146,
      "า": 1147,
      "ำ": 1148,
      "ิ": 1149,
      "ี": 1150,
      "ึ": 1151,
      "ื": 1152,
      "ุ": 1153,
      "ู": 1154,
      "เ": 1155,
      "แ": 1156,
      "โ": 1157,
      "ไ": 1158,
      "่": 1159,
      "้": 1160,
      "๋": 1161,
      "์": 1162,
      "ງ": 1163,
      "ຈ": 1164,
      "ຊ": 1165,
      "ດ": 1166,
      "ຕ": 1167,
      "ທ": 1168,
      "ນ": 1169,
      "ປ": 1170,
      "ມ": 1171,
      "ລ": 1172,
      "ວ": 1173,
      "ສ": 1174,
      "ອ": 1175,
      "ະ": 1176,
      "ັ": 1177,
      "າ": 1178,
      "ິ": 1179,
      "ື": 1180,
      "ົ": 1181,
      "ຽ": 1182,
      "ເ": 1183,
      "ໄ": 1184,
      "་": 1185,
      "།": 1186,
      "ག": 1187,
      "ང": 1188,
      "ཆ": 1189,
      "ཎ": 1190,
      "ད": 1191,
      "ན": 1192,
      "པ": 1193,
      "བ": 1194,
      "མ": 1195,
      "ཙ": 1196,
      "ཚ": 1197,
      "ཛ": 1198,
      "འ": 1199,
      "ར": 1200,
      "ལ": 1201,
      "ས": 1202,
      "ཧ": 1203,
      "ཨ": 1204,
      "ཱ": 1205,
      "ི": 1206,
      "ུ": 1207,
      "ེ": 1208,
      "ོ": 1209,
      "ཾ": 1210,
      "ྃ": 1211,
      "ྒ": 1212,
      "ྟ": 1213,
      "ྨ": 1214,
      "ྫ": 1215,
      "ྱ": 1216,
      "ྲ": 1217,
      "ྷ": 1218,
      "က": 1219,
      "န": 1220,
      "ရ": 1221,
      "သ": 1222,
      "ု": 1223,
      "ေ": 1224,
      "း": 1225,
      "္": 1226,
      "်": 1227,
      "ွ": 1228,
      "ှ": 1229,
      "ა": 1230,
      "ბ": 1231,
      "ე": 1232,
      "ვ": 1233,
      "ზ": 1234,
      "თ": 1235,
      "ი": 1236,
      "კ": 1237,
      "ლ": 1238,
      "მ": 1239,
      "ნ": 1240,
      "ო": 1241,
      "რ": 1242,
      "ს": 1243,
      "უ": 1244,
      "ქ": 1245,
      "ღ": 1246,
      "შ": 1247,
      "ძ": 1248,
      "ხ": 1249,
      "ჯ": 1250,
      "ᄓ": 1251,
      "ᄖ": 1252,
      "ᄗ": 1253,
      "ᄘ": 1254,
      "ᄙ": 1255,
      "ᄛ": 1256,
      "ᄟ": 1257,
      "ᄤ": 1258,
      "ᄥ": 1259,
      "ᄦ": 1260,
      "ᄨ": 1261,
      "ᄪ": 1262,
      "ᄰ": 1263,
      "ᄱ": 1264,
      "ᄳ": 1265,
      "ᄴ": 1266,
      "ᄵ": 1267,
      "ᄷ": 1268,
      "ᄸ": 1269,
      "ᄹ": 1270,
      "ᄺ": 1271,
      "ᄻ": 1272,
      "ᄼ": 1273,
      "ᄽ": 1274,
      "ᄾ": 1275,
      "ᄿ": 1276,
      "ᅁ": 1277,
      "ᅂ": 1278,
      "ᅃ": 1279,
      "ᅄ": 1280,
      "ᅅ": 1281,
      "ᅆ": 1282,
      "ᅇ": 1283,
      "ᅈ": 1284,
      "ᅉ": 1285,
      "ᅊ": 1286,
      "ᅋ": 1287,
      "ᅍ": 1288,
      "ᅎ": 1289,
      "ᅏ": 1290,
      "ᅐ": 1291,
      "ᅑ": 1292,
      "ᅒ": 1293,
      "ᅓ": 1294,
      "ᅔ": 1295,
      "ᅕ": 1296,
      "ᅖ": 1297,
      "ᅷ": 1298,
      "ᅸ": 1299,
      "ᅹ": 1300,
      "ᅺ": 1301,
      "ᅻ": 1302,
      "ᅼ": 1303,
      "ᅽ": 1304,
      "ᅾ": 1305,
      "ᅿ": 1306,
      "ᆀ": 1307,
      "ᆁ": 1308,
      "ᆂ": 1309,
      "ᆃ": 1310,
      "ᆆ": 1311,
      "ᆇ": 1312,
      "ᆉ": 1313,
      "ᆊ": 1314,
      "ᆋ": 1315,
      "ᆌ": 1316,
      "ᆍ": 1317,
      "ᆎ": 1318,
      "ᆏ": 1319,
      "ᆐ": 1320,
      "ᆓ": 1321,
      "ᆕ": 1322,
      "ᆖ": 1323,
      "ᆗ": 1324,
      "ᆘ": 1325,
      "ᆙ": 1326,
      "ᆚ": 1327,
      "ᆛ": 1328,
      "ᆜ": 1329,
      "ᆝ": 1330,
      "ᆟ": 1331,
      "ᆠ": 1332,
      "ᆢ": 1333,
      "ᇃ": 1334,
      "ᇄ": 1335,
      "ᇉ": 1336,
      "ᇋ": 1337,
      "ᇏ": 1338,
      "ᇑ": 1339,
      "ᇒ": 1340,
      "ᇔ": 1341,
      "ᇕ": 1342,
      "ᇖ": 1343,
      "ᇘ": 1344,
      "ᇚ": 1345,
      "ᇛ": 1346,
      "ᇞ": 1347,
      "ᇠ": 1348,
      "ᇡ": 1349,
      "ᇣ": 1350,
      "ᇥ": 1351,
      "ᇬ": 1352,
      "ᇭ": 1353,
      "ᇮ": 1354,
      "ᇯ": 1355,
      "ᇵ": 1356,
      "ᇶ": 1357,
      "ᇷ": 1358,
      "ᇸ": 1359,
      "ለ": 1360,
      "ላ": 1361,
      "ሥ": 1362,
      "ሴ": 1363,
      "ኃ": 1364,
      "ይ": 1365,
      "፡": 1366,
      "ᐃ": 1367,
      "ᐤ": 1368,
      "ᑦ": 1369,
      "ᓄ": 1370,
      "ᓇ": 1371,
      "ᓗ": 1372,
      "ᕗ": 1373,
      "ᖃ": 1374,
      "ᚼ": 1375,
      "ᛒ": 1376,
      "ក": 1377,
      "ង": 1378,
      "ជ": 1379,
      "ញ": 1380,
      "ដ": 1381,
      "ន": 1382,
      "ព": 1383,
      "ភ": 1384,
      "រ": 1385,
      "ួ": 1386,
      "េ": 1387,
      "ែ": 1388,
      "ំ": 1389,
      "្": 1390,
      "ᱟ": 1391,
      "ᱤ": 1392,
      "ᱨ": 1393,
      "ᱪ": 1394,
      "ᱺ": 1395,
      "ᵻ": 1396,
      "ḇ": 1397,
      "ḍ": 1398,
      "ḏ": 1399,
      "ḗ": 1400,
      "Ḥ": 1401,
      "ḥ": 1402,
      "ḫ": 1403,
      "ḵ": 1404,
      "ḷ": 1405,
      "ḻ": 1406,
      "ṃ": 1407,
      "ṅ": 1408,
      "ṇ": 1409,
      "ṉ": 1410,
      "ṛ": 1411,
      "ṟ": 1412,
      "Ṣ": 1413,
      "ṣ": 1414,
      "ṭ": 1415,
      "ṯ": 1416,
      "ạ": 1417,
      "ả": 1418,
      "ấ": 1419,
      "ậ": 1420,
      "ẻ": 1421,
      "ế": 1422,
      "ễ": 1423,
      "ệ": 1424,
      "ố": 1425,
      "ồ": 1426,
      "ộ": 1427,
      "ớ": 1428,
      "ờ": 1429,
      "ừ": 1430,
      "ữ": 1431,
      "ự": 1432,
      "ỹ": 1433,
      "ἀ": 1434,
      "ἄ": 1435,
      "Ἀ": 1436,
      "Ἁ": 1437,
      "ἐ": 1438,
      "ἑ": 1439,
      "ἔ": 1440,
      "Ἐ": 1441,
      "Ἔ": 1442,
      "ἡ": 1443,
      "ἤ": 1444,
      "ἥ": 1445,
      "ἧ": 1446,
      "Ἠ": 1447,
      "Ἡ": 1448,
      "ἰ": 1449,
      "ἱ": 1450,
      "ἴ": 1451,
      "ἵ": 1452,
      "ἶ": 1453,
      "ἷ": 1454,
      "Ἰ": 1455,
      "Ἱ": 1456,
      "Ἴ": 1457,
      "ὁ": 1458,
      "ὄ": 1459,
      "Ὀ": 1460,
      "ὐ": 1461,
      "ὑ": 1462,
      "ὕ": 1463,
      "ὡ": 1464,
      "ὤ": 1465,
      "ὥ": 1466,
      "Ὠ": 1467,
      "Ὡ": 1468,
      "ὰ": 1469,
      "ὴ": 1470,
      "ὶ": 1471,
      "ὸ": 1472,
      "ὺ": 1473,
      "ᾀ": 1474,
      "ᾎ": 1475,
      "ᾰ": 1476,
      "ᾱ": 1477,
      "ᾶ": 1478,
      "ῃ": 1479,
      "ῆ": 1480,
      "ῖ": 1481,
      "ῤ": 1482,
      "ῥ": 1483,
      "ῦ": 1484,
      "ῳ": 1485,
      "ῴ": 1486,
      "ῶ": 1487,
      "ῷ": 1488,
      "​": 1489,
      "‌": 1490,
      "‍": 1491,
      "‎": 1492,
      "‏": 1493,
      "–": 1494,
      "—": 1495,
      "‘": 1496,
      "’": 1497,
      "‚": 1498,
      "‛": 1499,
      "“": 1500,
      "”": 1501,
      "„": 1502,
      "†": 1503,
      "‡": 1504,
      "•": 1505,
      "…": 1506,
      "‰": 1507,
      "‱": 1508,
      "′": 1509,
      "″": 1510,
      "‹": 1511,
      "›": 1512,
      "⁄": 1513,
      "⁣": 1514,
      "⁽": 1515,
      "⁾": 1516,
      "₃": 1517,
      "₤": 1518,
      "₨": 1519,
      "€": 1520,
      "₮": 1521,
      "₱": 1522,
      "₳": 1523,
      "₴": 1524,
      "₹": 1525,
      "₼": 1526,
      "℃": 1527,
      "ℓ": 1528,
      "№": 1529,
      "℘": 1530,
      "ℝ": 1531,
      "℡": 1532,
      "™": 1533,
      "⅓": 1534,
      "⅛": 1535,
      "←": 1536,
      "↑": 1537,
      "→": 1538,
      "↓": 1539,
      "↔": 1540,
      "⇌": 1541,
      "⇒": 1542,
      "∂": 1543,
      "∅": 1544,
      "∆": 1545,
      "∈": 1546,
      "∉": 1547,
      "∑": 1548,
      "−": 1549,
      "∗": 1550,
      "√": 1551,
      "∝": 1552,
      "∞": 1553,
      "∠": 1554,
      "∧": 1555,
      "∩": 1556,
      "∪": 1557,
      "∫": 1558,
      "≈": 1559,
      "≠": 1560,
      "≡": 1561,
      "≤": 1562,
      "≥": 1563,
      "⊗": 1564,
      "⊙": 1565,
      "⋅": 1566,
      "⌈": 1567,
      "⌉": 1568,
      "⌊": 1569,
      "⌋": 1570,
      "⌕": 1571,
      "①": 1572,
      "②": 1573,
      "■": 1574,
      "●": 1575,
      "☄": 1576,
      "☎": 1577,
      "☏": 1578,
      "☸": 1579,
      "☺": 1580,
      "☻": 1581,
      "♄": 1582,
      "♠": 1583,
      "♣": 1584,
      "♥": 1585,
      "♦": 1586,
      "♭": 1587,
      "⚕": 1588,
      "⚽": 1589,
      "✆": 1590,
      "✓": 1591,
      "ⲉ": 1592,
      "ⲏ": 1593,
      "ⲓ": 1594,
      "Ⲙ": 1595,
      "ⲙ": 1596,
      "ⲛ": 1597,
      "Ⲣ": 1598,
      "ⲧ": 1599,
      "ⲭ": 1600,
      "〃": 1601,
      "《": 1602,
      "》": 1603,
      "あ": 1604,
      "い": 1605,
      "う": 1606,
      "え": 1607,
      "か": 1608,
      "き": 1609,
      "ぎ": 1610,
      "く": 1611,
      "ぐ": 1612,
      "こ": 1613,
      "ご": 1614,
      "さ": 1615,
      "ざ": 1616,
      "し": 1617,
      "じ": 1618,
      "ず": 1619,
      "せ": 1620,
      "た": 1621,
      "だ": 1622,
      "ち": 1623,
      "っ": 1624,
      "つ": 1625,
      "て": 1626,
      "で": 1627,
      "と": 1628,
      "な": 1629,
      "に": 1630,
      "の": 1631,
      "は": 1632,
      "ば": 1633,
      "び": 1634,
      "ふ": 1635,
      "ぶ": 1636,
      "へ": 1637,
      "ほ": 1638,
      "ま": 1639,
      "み": 1640,
      "や": 1641,
      "ゅ": 1642,
      "ょ": 1643,
      "ら": 1644,
      "り": 1645,
      "る": 1646,
      "ろ": 1647,
      "ゑ": 1648,
      "ん": 1649,
      "ア": 1650,
      "イ": 1651,
      "ウ": 1652,
      "ェ": 1653,
      "オ": 1654,
      "カ": 1655,
      "ガ": 1656,
      "ギ": 1657,
      "ク": 1658,
      "ケ": 1659,
      "コ": 1660,
      "ザ": 1661,
      "シ": 1662,
      "ス": 1663,
      "ズ": 1664,
      "タ": 1665,
      "ダ": 1666,
      "チ": 1667,
      "ッ": 1668,
      "ツ": 1669,
      "テ": 1670,
      "ト": 1671,
      "ド": 1672,
      "ナ": 1673,
      "ニ": 1674,
      "ノ": 1675,
      "ハ": 1676,
      "バ": 1677,
      "パ": 1678,
      "フ": 1679,
      "プ": 1680,
      "ベ": 1681,
      "ポ": 1682,
      "マ": 1683,
      "ム": 1684,
      "メ": 1685,
      "モ": 1686,
      "ヤ": 1687,
      "ュ": 1688,
      "ョ": 1689,
      "ラ": 1690,
      "リ": 1691,
      "ル": 1692,
      "レ": 1693,
      "ロ": 1694,
      "ワ": 1695,
      "ン": 1696,
      "・": 1697,
      "ー": 1698,
      "ㄴ": 1699,
      "ㅎ": 1700,
      "ㅏ": 1701,
      "ㅥ": 1702,
      "ㅦ": 1703,
      "ㅧ": 1704,
      "ㅨ": 1705,
      "ㅩ": 1706,
      "ㅪ": 1707,
      "ㅫ": 1708,
      "ㅬ": 1709,
      "ㅭ": 1710,
      "ㅮ": 1711,
      "ㅯ": 1712,
      "ㅰ": 1713,
      "ㅱ": 1714,
      "ㅲ": 1715,
      "ㅳ": 1716,
      "ㅴ": 1717,
      "ㅵ": 1718,
      "ㅶ": 1719,
      "ㅷ": 1720,
      "ㅸ": 1721,
      "ㅹ": 1722,
      "ㅺ": 1723,
      "ㅻ": 1724,
      "ㅼ": 1725,
      "ㅽ": 1726,
      "ㅾ": 1727,
      "ㅿ": 1728,
      "ㆁ": 1729,
      "ㆂ": 1730,
      "ㆃ": 1731,
      "ㆄ": 1732,
      "ㆅ": 1733,
      "ㆆ": 1734,
      "ㆇ": 1735,
      "ㆈ": 1736,
      "ㆉ": 1737,
      "ㆊ": 1738,
      "ㆋ": 1739,
      "ㆌ": 1740,
      "ㆍ": 1741,
      "ㆎ": 1742,
      "一": 1743,
      "七": 1744,
      "万": 1745,
      "三": 1746,
      "上": 1747,
      "不": 1748,
      "与": 1749,
      "世": 1750,
      "东": 1751,
      "丝": 1752,
      "両": 1753,
      "丨": 1754,
      "中": 1755,
      "临": 1756,
      "丶": 1757,
      "丷": 1758,
      "丸": 1759,
      "丹": 1760,
      "丿": 1761,
      "乀": 1762,
      "乁": 1763,
      "么": 1764,
      "之": 1765,
      "乌": 1766,
      "乗": 1767,
      "乘": 1768,
      "乙": 1769,
      "九": 1770,
      "也": 1771,
      "乡": 1772,
      "书": 1773,
      "乱": 1774,
      "亅": 1775,
      "事": 1776,
      "二": 1777,
      "云": 1778,
      "五": 1779,
      "井": 1780,
      "亞": 1781,
      "亠": 1782,
      "交": 1783,
      "京": 1784,
      "亲": 1785,
      "人": 1786,
      "亻": 1787,
      "仁": 1788,
      "仕": 1789,
      "仙": 1790,
      "仡": 1791,
      "代": 1792,
      "仫": 1793,
      "们": 1794,
      "仮": 1795,
      "件": 1796,
      "众": 1797,
      "会": 1798,
      "传": 1799,
      "伤": 1800,
      "伦": 1801,
      "伯": 1802,
      "伽": 1803,
      "佛": 1804,
      "你": 1805,
      "佤": 1806,
      "佬": 1807,
      "來": 1808,
      "侗": 1809,
      "依": 1810,
      "係": 1811,
      "俄": 1812,
      "保": 1813,
      "信": 1814,
      "俣": 1815,
      "俵": 1816,
      "倍": 1817,
      "做": 1818,
      "傈": 1819,
      "傍": 1820,
      "傣": 1821,
      "傳": 1822,
      "僜": 1823,
      "僳": 1824,
      "儿": 1825,
      "元": 1826,
      "兄": 1827,
      "光": 1828,
      "克": 1829,
      "兔": 1830,
      "党": 1831,
      "入": 1832,
      "內": 1833,
      "八": 1834,
      "公": 1835,
      "六": 1836,
      "共": 1837,
      "关": 1838,
      "冂": 1839,
      "円": 1840,
      "冉": 1841,
      "冖": 1842,
      "写": 1843,
      "冬": 1844,
      "冰": 1845,
      "几": 1846,
      "凱": 1847,
      "凵": 1848,
      "出": 1849,
      "刀": 1850,
      "刂": 1851,
      "分": 1852,
      "切": 1853,
      "列": 1854,
      "刘": 1855,
      "初": 1856,
      "别": 1857,
      "刺": 1858,
      "則": 1859,
      "剑": 1860,
      "剛": 1861,
      "剣": 1862,
      "剧": 1863,
      "劉": 1864,
      "劍": 1865,
      "力": 1866,
      "加": 1867,
      "动": 1868,
      "勇": 1869,
      "勹": 1870,
      "匕": 1871,
      "化": 1872,
      "北": 1873,
      "匚": 1874,
      "区": 1875,
      "區": 1876,
      "十": 1877,
      "千": 1878,
      "午": 1879,
      "半": 1880,
      "卑": 1881,
      "卓": 1882,
      "南": 1883,
      "博": 1884,
      "卜": 1885,
      "卡": 1886,
      "印": 1887,
      "危": 1888,
      "厘": 1889,
      "原": 1890,
      "厶": 1891,
      "县": 1892,
      "参": 1893,
      "又": 1894,
      "双": 1895,
      "发": 1896,
      "口": 1897,
      "古": 1898,
      "只": 1899,
      "叭": 1900,
      "可": 1901,
      "台": 1902,
      "史": 1903,
      "号": 1904,
      "司": 1905,
      "合": 1906,
      "吉": 1907,
      "名": 1908,
      "向": 1909,
      "君": 1910,
      "吳": 1911,
      "吴": 1912,
      "吽": 1913,
      "吾": 1914,
      "呐": 1915,
      "呑": 1916,
      "呢": 1917,
      "命": 1918,
      "和": 1919,
      "咪": 1920,
      "哈": 1921,
      "哲": 1922,
      "唵": 1923,
      "啦": 1924,
      "喀": 1925,
      "喊": 1926,
      "喜": 1927,
      "嘉": 1928,
      "嘛": 1929,
      "噶": 1930,
      "囉": 1931,
      "囗": 1932,
      "四": 1933,
      "回": 1934,
      "団": 1935,
      "国": 1936,
      "國": 1937,
      "園": 1938,
      "圓": 1939,
      "土": 1940,
      "在": 1941,
      "地": 1942,
      "场": 1943,
      "坐": 1944,
      "坡": 1945,
      "城": 1946,
      "基": 1947,
      "塔": 1948,
      "塘": 1949,
      "塞": 1950,
      "境": 1951,
      "墨": 1952,
      "壁": 1953,
      "士": 1954,
      "壮": 1955,
      "壺": 1956,
      "夂": 1957,
      "夊": 1958,
      "夏": 1959,
      "夕": 1960,
      "多": 1961,
      "夢": 1962,
      "大": 1963,
      "天": 1964,
      "太": 1965,
      "夫": 1966,
      "央": 1967,
      "失": 1968,
      "头": 1969,
      "奇": 1970,
      "奎": 1971,
      "奔": 1972,
      "奧": 1973,
      "女": 1974,
      "好": 1975,
      "如": 1976,
      "妃": 1977,
      "姚": 1978,
      "姦": 1979,
      "婆": 1980,
      "婚": 1981,
      "子": 1982,
      "孔": 1983,
      "字": 1984,
      "孙": 1985,
      "孜": 1986,
      "孝": 1987,
      "孤": 1988,
      "学": 1989,
      "孫": 1990,
      "學": 1991,
      "宀": 1992,
      "安": 1993,
      "宗": 1994,
      "定": 1995,
      "宜": 1996,
      "宣": 1997,
      "宰": 1998,
      "家": 1999,
      "宿": 2000,
      "富": 2001,
      "實": 2002,
      "寧": 2003,
      "寺": 2004,
      "寿": 2005,
      "尊": 2006,
      "小": 2007,
      "尔": 2008,
      "尖": 2009,
      "尸": 2010,
      "尼": 2011,
      "居": 2012,
      "屮": 2013,
      "屯": 2014,
      "山": 2015,
      "岡": 2016,
      "岳": 2017,
      "岸": 2018,
      "峡": 2019,
      "峰": 2020,
      "島": 2021,
      "巛": 2022,
      "川": 2023,
      "州": 2024,
      "工": 2025,
      "巫": 2026,
      "己": 2027,
      "巴": 2028,
      "巾": 2029,
      "币": 2030,
      "市": 2031,
      "布": 2032,
      "帝": 2033,
      "師": 2034,
      "帽": 2035,
      "幌": 2036,
      "干": 2037,
      "平": 2038,
      "年": 2039,
      "幸": 2040,
      "幺": 2041,
      "幻": 2042,
      "广": 2043,
      "庆": 2044,
      "床": 2045,
      "府": 2046,
      "度": 2047,
      "庭": 2048,
      "康": 2049,
      "廣": 2050,
      "延": 2051,
      "廿": 2052,
      "式": 2053,
      "弓": 2054,
      "弘": 2055,
      "弟": 2056,
      "强": 2057,
      "彐": 2058,
      "彝": 2059,
      "彡": 2060,
      "彩": 2061,
      "影": 2062,
      "彳": 2063,
      "彷": 2064,
      "徨": 2065,
      "德": 2066,
      "心": 2067,
      "忍": 2068,
      "志": 2069,
      "忠": 2070,
      "怀": 2071,
      "怎": 2072,
      "怒": 2073,
      "怡": 2074,
      "恆": 2075,
      "悌": 2076,
      "悟": 2077,
      "意": 2078,
      "感": 2079,
      "慧": 2080,
      "慰": 2081,
      "慶": 2082,
      "戈": 2083,
      "戏": 2084,
      "成": 2085,
      "我": 2086,
      "戒": 2087,
      "戦": 2088,
      "戸": 2089,
      "扎": 2090,
      "折": 2091,
      "拉": 2092,
      "拳": 2093,
      "拾": 2094,
      "持": 2095,
      "振": 2096,
      "捒": 2097,
      "排": 2098,
      "摩": 2099,
      "撒": 2100,
      "撲": 2101,
      "操": 2102,
      "攻": 2103,
      "故": 2104,
      "敗": 2105,
      "敢": 2106,
      "敬": 2107,
      "数": 2108,
      "數": 2109,
      "文": 2110,
      "斡": 2111,
      "斯": 2112,
      "新": 2113,
      "方": 2114,
      "施": 2115,
      "族": 2116,
      "日": 2117,
      "旧": 2118,
      "早": 2119,
      "昂": 2120,
      "昌": 2121,
      "明": 2122,
      "易": 2123,
      "星": 2124,
      "春": 2125,
      "昭": 2126,
      "時": 2127,
      "晋": 2128,
      "晟": 2129,
      "普": 2130,
      "景": 2131,
      "智": 2132,
      "曇": 2133,
      "曲": 2134,
      "書": 2135,
      "曹": 2136,
      "曼": 2137,
      "會": 2138,
      "月": 2139,
      "有": 2140,
      "朗": 2141,
      "朝": 2142,
      "期": 2143,
      "木": 2144,
      "末": 2145,
      "本": 2146,
      "札": 2147,
      "朱": 2148,
      "机": 2149,
      "李": 2150,
      "村": 2151,
      "来": 2152,
      "杨": 2153,
      "東": 2154,
      "林": 2155,
      "柔": 2156,
      "柯": 2157,
      "校": 2158,
      "根": 2159,
      "格": 2160,
      "栽": 2161,
      "桥": 2162,
      "梆": 2163,
      "梦": 2164,
      "梭": 2165,
      "楊": 2166,
      "楼": 2167,
      "槟": 2168,
      "樂": 2169,
      "樓": 2170,
      "樟": 2171,
      "横": 2172,
      "檗": 2173,
      "欣": 2174,
      "歌": 2175,
      "正": 2176,
      "武": 2177,
      "死": 2178,
      "毅": 2179,
      "毛": 2180,
      "民": 2181,
      "気": 2182,
      "氣": 2183,
      "水": 2184,
      "永": 2185,
      "汉": 2186,
      "江": 2187,
      "沖": 2188,
      "沙": 2189,
      "沟": 2190,
      "沢": 2191,
      "沱": 2192,
      "河": 2193,
      "油": 2194,
      "治": 2195,
      "泉": 2196,
      "法": 2197,
      "波": 2198,
      "泰": 2199,
      "洋": 2200,
      "洛": 2201,
      "洞": 2202,
      "津": 2203,
      "洪": 2204,
      "洲": 2205,
      "浜": 2206,
      "浪": 2207,
      "海": 2208,
      "涛": 2209,
      "清": 2210,
      "済": 2211,
      "温": 2212,
      "港": 2213,
      "湖": 2214,
      "湾": 2215,
      "满": 2216,
      "演": 2217,
      "漠": 2218,
      "漢": 2219,
      "潘": 2220,
      "澤": 2221,
      "灣": 2222,
      "火": 2223,
      "灯": 2224,
      "灸": 2225,
      "炎": 2226,
      "烈": 2227,
      "烏": 2228,
      "熊": 2229,
      "燃": 2230,
      "爆": 2231,
      "父": 2232,
      "爸": 2233,
      "片": 2234,
      "版": 2235,
      "物": 2236,
      "特": 2237,
      "牽": 2238,
      "犹": 2239,
      "狂": 2240,
      "狐": 2241,
      "独": 2242,
      "猫": 2243,
      "猴": 2244,
      "猿": 2245,
      "獣": 2246,
      "獨": 2247,
      "王": 2248,
      "玛": 2249,
      "环": 2250,
      "现": 2251,
      "珍": 2252,
      "珞": 2253,
      "珠": 2254,
      "理": 2255,
      "琛": 2256,
      "瑠": 2257,
      "瑪": 2258,
      "瑶": 2259,
      "璃": 2260,
      "璠": 2261,
      "瓜": 2262,
      "甕": 2263,
      "生": 2264,
      "用": 2265,
      "田": 2266,
      "由": 2267,
      "甲": 2268,
      "电": 2269,
      "男": 2270,
      "町": 2271,
      "界": 2272,
      "略": 2273,
      "畲": 2274,
      "疆": 2275,
      "病": 2276,
      "症": 2277,
      "白": 2278,
      "百": 2279,
      "皂": 2280,
      "的": 2281,
      "皇": 2282,
      "盆": 2283,
      "益": 2284,
      "盘": 2285,
      "盛": 2286,
      "直": 2287,
      "相": 2288,
      "省": 2289,
      "看": 2290,
      "県": 2291,
      "真": 2292,
      "瞿": 2293,
      "知": 2294,
      "短": 2295,
      "砂": 2296,
      "碧": 2297,
      "磨": 2298,
      "示": 2299,
      "礼": 2300,
      "社": 2301,
      "祖": 2302,
      "祜": 2303,
      "祝": 2304,
      "神": 2305,
      "祭": 2306,
      "禄": 2307,
      "禅": 2308,
      "福": 2309,
      "禪": 2310,
      "禮": 2311,
      "离": 2312,
      "秋": 2313,
      "種": 2314,
      "稲": 2315,
      "穴": 2316,
      "空": 2317,
      "立": 2318,
      "章": 2319,
      "端": 2320,
      "竺": 2321,
      "笑": 2322,
      "笛": 2323,
      "筝": 2324,
      "節": 2325,
      "簫": 2326,
      "米": 2327,
      "精": 2328,
      "紀": 2329,
      "紅": 2330,
      "純": 2331,
      "索": 2332,
      "紫": 2333,
      "細": 2334,
      "統": 2335,
      "經": 2336,
      "線": 2337,
      "縣": 2338,
      "红": 2339,
      "纳": 2340,
      "维": 2341,
      "绸": 2342,
      "绿": 2343,
      "编": 2344,
      "罗": 2345,
      "羂": 2346,
      "羅": 2347,
      "羌": 2348,
      "美": 2349,
      "義": 2350,
      "羿": 2351,
      "習": 2352,
      "翔": 2353,
      "老": 2354,
      "者": 2355,
      "耐": 2356,
      "聖": 2357,
      "聪": 2358,
      "聯": 2359,
      "肥": 2360,
      "育": 2361,
      "胎": 2362,
      "胡": 2363,
      "脈": 2364,
      "脏": 2365,
      "腑": 2366,
      "自": 2367,
      "至": 2368,
      "臺": 2369,
      "臼": 2370,
      "航": 2371,
      "般": 2372,
      "船": 2373,
      "艾": 2374,
      "节": 2375,
      "芒": 2376,
      "花": 2377,
      "苗": 2378,
      "苦": 2379,
      "英": 2380,
      "茉": 2381,
      "茶": 2382,
      "草": 2383,
      "药": 2384,
      "荷": 2385,
      "荼": 2386,
      "莉": 2387,
      "莫": 2388,
      "菩": 2389,
      "華": 2390,
      "菹": 2391,
      "萊": 2392,
      "萨": 2393,
      "著": 2394,
      "葦": 2395,
      "蒙": 2396,
      "蔘": 2397,
      "蔵": 2398,
      "薩": 2399,
      "薬": 2400,
      "藍": 2401,
      "藏": 2402,
      "藝": 2403,
      "藤": 2404,
      "藥": 2405,
      "藩": 2406,
      "蘭": 2407,
      "虎": 2408,
      "虛": 2409,
      "號": 2410,
      "蛇": 2411,
      "蜀": 2412,
      "蜜": 2413,
      "融": 2414,
      "螺": 2415,
      "行": 2416,
      "術": 2417,
      "衣": 2418,
      "补": 2419,
      "裂": 2420,
      "補": 2421,
      "西": 2422,
      "見": 2423,
      "见": 2424,
      "观": 2425,
      "视": 2426,
      "触": 2427,
      "言": 2428,
      "記": 2429,
      "詠": 2430,
      "詣": 2431,
      "詩": 2432,
      "誉": 2433,
      "誠": 2434,
      "説": 2435,
      "調": 2436,
      "謙": 2437,
      "记": 2438,
      "说": 2439,
      "诺": 2440,
      "谈": 2441,
      "谷": 2442,
      "豆": 2443,
      "豊": 2444,
      "豬": 2445,
      "貅": 2446,
      "貓": 2447,
      "貔": 2448,
      "貴": 2449,
      "賞": 2450,
      "賽": 2451,
      "败": 2452,
      "赤": 2453,
      "赫": 2454,
      "起": 2455,
      "越": 2456,
      "跆": 2457,
      "路": 2458,
      "蹴": 2459,
      "身": 2460,
      "軍": 2461,
      "輪": 2462,
      "轄": 2463,
      "轮": 2464,
      "辉": 2465,
      "辖": 2466,
      "辱": 2467,
      "農": 2468,
      "达": 2469,
      "运": 2470,
      "迦": 2471,
      "迪": 2472,
      "通": 2473,
      "逝": 2474,
      "進": 2475,
      "逸": 2476,
      "遊": 2477,
      "道": 2478,
      "達": 2479,
      "遠": 2480,
      "邓": 2481,
      "邦": 2482,
      "邵": 2483,
      "郎": 2484,
      "郡": 2485,
      "部": 2486,
      "都": 2487,
      "鄂": 2488,
      "鄒": 2489,
      "鄧": 2490,
      "酒": 2491,
      "里": 2492,
      "野": 2493,
      "金": 2494,
      "針": 2495,
      "鈔": 2496,
      "鈴": 2497,
      "鉑": 2498,
      "鉤": 2499,
      "銀": 2500,
      "銮": 2501,
      "錄": 2502,
      "錢": 2503,
      "錦": 2504,
      "鐘": 2505,
      "鐵": 2506,
      "铸": 2507,
      "锡": 2508,
      "锦": 2509,
      "镜": 2510,
      "長": 2511,
      "长": 2512,
      "門": 2513,
      "間": 2514,
      "閣": 2515,
      "闍": 2516,
      "闘": 2517,
      "门": 2518,
      "阮": 2519,
      "阳": 2520,
      "阿": 2521,
      "际": 2522,
      "限": 2523,
      "院": 2524,
      "陵": 2525,
      "陽": 2526,
      "隆": 2527,
      "際": 2528,
      "雄": 2529,
      "雅": 2530,
      "集": 2531,
      "雲": 2532,
      "雳": 2533,
      "雷": 2534,
      "震": 2535,
      "霊": 2536,
      "霧": 2537,
      "霹": 2538,
      "靈": 2539,
      "青": 2540,
      "非": 2541,
      "革": 2542,
      "鞠": 2543,
      "顏": 2544,
      "须": 2545,
      "颇": 2546,
      "風": 2547,
      "风": 2548,
      "飛": 2549,
      "飞": 2550,
      "館": 2551,
      "馆": 2552,
      "香": 2553,
      "馬": 2554,
      "马": 2555,
      "高": 2556,
      "魁": 2557,
      "魏": 2558,
      "魯": 2559,
      "鮭": 2560,
      "鯉": 2561,
      "鲁": 2562,
      "鲜": 2563,
      "鳩": 2564,
      "鳳": 2565,
      "鸭": 2566,
      "麻": 2567,
      "黃": 2568,
      "黄": 2569,
      "黎": 2570,
      "黒": 2571,
      "黛": 2572,
      "齊": 2573,
      "齐": 2574,
      "龍": 2575,
      "龙": 2576,
      "Ꙗ": 2577,
      "ꦂ": 2578,
      "ꦕ": 2579,
      "ꦝ": 2580,
      "ꦤ": 2581,
      "ꦧ": 2582,
      "ꦫ": 2583,
      "ꦶ": 2584,
      "ꦸ": 2585,
      "꧀": 2586,
      "간": 2587,
      "강": 2588,
      "검": 2589,
      "게": 2590,
      "겹": 2591,
      "경": 2592,
      "국": 2593,
      "그": 2594,
      "글": 2595,
      "김": 2596,
      "남": 2597,
      "널": 2598,
      "니": 2599,
      "다": 2600,
      "대": 2601,
      "데": 2602,
      "도": 2603,
      "라": 2604,
      "렐": 2605,
      "례": 2606,
      "롭": 2607,
      "룹": 2608,
      "를": 2609,
      "리": 2610,
      "마": 2611,
      "메": 2612,
      "문": 2613,
      "반": 2614,
      "번": 2615,
      "본": 2616,
      "사": 2617,
      "살": 2618,
      "삼": 2619,
      "서": 2620,
      "선": 2621,
      "성": 2622,
      "쉽": 2623,
      "승": 2624,
      "시": 2625,
      "신": 2626,
      "양": 2627,
      "예": 2628,
      "옴": 2629,
      "왕": 2630,
      "울": 2631,
      "위": 2632,
      "을": 2633,
      "이": 2634,
      "익": 2635,
      "인": 2636,
      "일": 2637,
      "자": 2638,
      "점": 2639,
      "정": 2640,
      "조": 2641,
      "주": 2642,
      "지": 2643,
      "천": 2644,
      "치": 2645,
      "프": 2646,
      "하": 2647,
      "한": 2648,
      "홍": 2649,
      "훔": 2650,
      "": 2651,
      "": 2652,
      "": 2653,
      "": 2654,
      "": 2655,
      "ﬁ": 2656,
      "﻿": 2657,
      "（": 2658,
      "）": 2659,
      "，": 2660,
      "／": 2661,
      "；": 2662,
      "ｗ": 2663,
      "ｰ": 2664,
      "ｱ": 2665,
      "ﾀ": 2666,
      "ﾆ": 2667,
      "￥": 2668,
      "￼": 2669,
      "�": 2670,
      "𐎢": 2671,
      "𐎤": 2672,
      "𐎽": 2673,
      "𐏁": 2674,
      "𑀓": 2675,
      "𑀯": 2676,
      "𑀶": 2677,
      "𑀷": 2678,
      "𑀼": 2679,
      "𑁆": 2680,
      "𑂔": 2681,
      "𑂣": 2682,
      "𑂦": 2683,
      "𑂩": 2684,
      "𑂭": 2685,
      "𑂰": 2686,
      "𑂲": 2687,
      "𑂳": 2688,
      "𑂷": 2689,
      "𑖟": 2690,
      "𑖠": 2691,
      "𑖭": 2692,
      "𑖰": 2693,
      "𑖽": 2694,
      "𑖿": 2695,
      "👬": 2696,
      "🔥": 2697,
      "🜨": 2698,
      "்க": 2699,
      "்த": 2700,
      "ம்": 2701,
      "ன்": 2702,
      "ல்": 2703,
      "ப்": 2704,
      "்ட": 2705,
      "க்க": 2706,
      "ிய": 2707,
      "ும்": 2708,
      "ர்": 2709,
      "த்த": 2710,
      "ப்ப": 2711,
      "து": 2712,
      "ரு": 2713,
      "ள்": 2714,
      "ட்ட": 2715,
      "ந்த": 2716,
      "ில்": 2717,
      "ின்": 2718,
      "ைய": 2719,
      "ற்": 2720,
      "ங்க": 2721,
      "ாக": 2722,
      "தி": 2723,
      "ற்ற": 2724,
      "வி": 2725,
      "டு": 2726,
      "ண்ட": 2727,
      "மு": 2728,
      "ான": 2729,
      "ிற": 2730,
      "கு": 2731,
      "ரி": 2732,
      "்ச": 2733,
      "ில": 2734,
      "ன்ற": 2735,
      "க்": 2736,
      "கள": 2737,
      "க்கு": 2738,
      "டி": 2739,
      "ள்ள": 2740,
      "கா": 2741,
      "ர்க": 2742,
      "பா": 2743,
      "ார்": 2744,
      "செ": 2745,
      "பி": 2746,
      "த்து": 2747,
      "வா": 2748,
      "பெ": 2749,
      "லை": 2750,
      "மா": 2751,
      "பு": 2752,
      "போ": 2753,
      "வு": 2754,
      "கள்": 2755,
      "ரா": 2756,
      "ந்து": 2757,
      "த்": 2758,
      "ட்டு": 2759,
      "மி": 2760,
      "ப்பு": 2761,
      "வர": 2762,
      "மை": 2763,
      "சு": 2764,
      "று": 2765,
      "கொ": 2766,
      "லா": 2767,
      "சி": 2768,
      "நா": 2769,
      "வே": 2770,
      "இரு": 2771,
      "தா": 2772,
      "ங்கள": 2773,
      "ய்": 2774,
      "ஸ்": 2775,
      "றி": 2776,
      "ச்ச": 2777,
      "வை": 2778,
      "தொ": 2779,
      "ப்பட்ட": 2780,
      "வெ": 2781,
      "மற்ற": 2782,
      "ண்டு": 2783,
      "கி": 2784,
      "ின": 2785,
      "த்தில்": 2786,
      "ஒரு": 2787,
      "மே": 2788,
      "ற்க": 2789,
      "ன்ப": 2790,
      "ண்": 2791,
      "ல்ல": 2792,
      "ிரு": 2793,
      "ன்ன": 2794,
      "மற்றும்": 2795,
      "ழு": 2796,
      "ால்": 2797,
      "டை": 2798,
      "இந்த": 2799,
      "19": 2800,
      "ட்": 2801,
      "வர்": 2802,
      "என்ற": 2803,
      "தே": 2804,
      "ியா": 2805,
      "ர்கள்": 2806,
      "க்கும்": 2807,
      "பொ": 2808,
      "றை": 2809,
      "ப்பட": 2810,
      "ிறது": 2811,
      "ப்படு": 2812,
      "மாக": 2813,
      "ளி": 2814,
      "ரை": 2815,
      "ச்": 2816,
      "ங்கள்": 2817,
      "ின்ற": 2818,
      "சா": 2819,
      "ர்கள": 2820,
      "நில": 2821,
      "ையில்": 2822,
      "ரிய": 2823,
      "திய": 2824,
      "மான": 2825,
      "ணி": 2826,
      "00": 2827,
      "உள்ள": 2828,
      "னை": 2829,
      "கோ": 2830,
      "ஆக": 2831,
      "ழ்": 2832,
      "னர்": 2833,
      "செய": 2834,
      "வில்": 2835,
      "லி": 2836,
      "மூ": 2837,
      "ிர": 2838,
      "னி": 2839,
      "ுக்கு": 2840,
      "வும்": 2841,
      "கூ": 2842,
      "ட்ச": 2843,
      "ையும்": 2844,
      "பய": 2845,
      "என": 2846,
      "அவ": 2847,
      "களை": 2848,
      "முத": 2849,
      "ழி": 2850,
      "லும்": 2851,
      "த்தை": 2852,
      "தை": 2853,
      "டிய": 2854,
      "ற்று": 2855,
      "ம்ப": 2856,
      "கை": 2857,
      "டன்": 2858,
      "ப்பா": 2859,
      "கிறது": 2860,
      "என்ப": 2861,
      "பே": 2862,
      "ற்ப": 2863,
      "ல்க": 2864,
      "ங்கு": 2865,
      "ளை": 2866,
      "தொட": 2867,
      "நீ": 2868,
      "ர்த": 2869,
      "மீ": 2870,
      "டைய": 2871,
      "மெ": 2872,
      "கின்ற": 2873,
      "நி": 2874,
      "விய": 2875,
      "தற்க": 2876,
      "தமி": 2877,
      "டுத்த": 2878,
      "தன்": 2879,
      "சே": 2880,
      "அமை": 2881,
      "ரும்": 2882,
      "த்தின்": 2883,
      "க்கா": 2884,
      "மைய": 2885,
      "ஆம்": 2886,
      "அர": 2887,
      "வது": 2888,
      "குறி": 2889,
      "தெ": 2890,
      "கொண்ட": 2891,
      "ப்பி": 2892,
      "இது": 2893,
      "ன்று": 2894,
      "இய": 2895,
      "பிர": 2896,
      "தாக": 2897,
      "வீ": 2898,
      "பல": 2899,
      "க்கிய": 2900,
      "களில்": 2901,
      "சிய": 2902,
      "இர": 2903,
      "நிற": 2904,
      "ட்டி": 2905,
      "சிற": 2906,
      "தன": 2907,
      "வ்": 2908,
      "க்கப்பட்ட": 2909,
      "அதி": 2910,
      "வரு": 2911,
      "ணை": 2912,
      "்கு": 2913,
      "200": 2914,
      "செய்": 2915,
      "ுவ": 2916,
      "மொ": 2917,
      "பின்": 2918,
      "கரு": 2919,
      "வாக": 2920,
      "த்தி": 2921,
      "யா": 2922,
      "ரம்": 2923,
      "வழ": 2924,
      "திரு": 2925,
      "கம்": 2926,
      "ஆண்டு": 2927,
      "ரோ": 2928,
      "தலை": 2929,
      "அல்ல": 2930,
      "கால": 2931,
      "வின்": 2932,
      "என்று": 2933,
      "ிலும்": 2934,
      "இல்": 2935,
      "இருந்த": 2936,
      "ண்ண": 2937,
      "உரு": 2938,
      "சை": 2939,
      "டம்": 2940,
      "ர்த்த": 2941,
      "அறி": 2942,
      "பொரு": 2943,
      "ஞ்ச": 2944,
      "பெற்ற": 2945,
      "ளிய": 2946,
      "அல்லது": 2947,
      "இல": 2948,
      "பகு": 2949,
      "செய்த": 2950,
      "கே": 2951,
      "ஆகிய": 2952,
      "நக": 2953,
      "ளர்": 2954,
      "லாம்": 2955,
      "..": 2956,
      "தில்": 2957,
      "ஸ்ட": 2958,
      "மக்க": 2959,
      "பிற": 2960,
      "சில": 2961,
      "ையா": 2962,
      "ப்பட்டு": 2963,
      "உய": 2964,
      "தோ": 2965,
      "டும்": 2966,
      "ட்சி": 2967,
      "ப்படும்": 2968,
      "லிய": 2969,
      "ையை": 2970,
      "எழு": 2971,
      "போது": 2972,
      "ிருந்த": 2973,
      "முறை": 2974,
      "நோ": 2975,
      "நே": 2976,
      "சொ": 2977,
      "செய்ய": 2978,
      "ள்ளது": 2979,
      "20": 2980,
      "நட": 2981,
      "க்கி": 2982,
      "நூ": 2983,
      "லம்": 2984,
      "பயன்ப": 2985,
      "ழை": 2986,
      "ரண": 2987,
      "ான்": 2988,
      "வந்த": 2989,
      "ரிக்க": 2990,
      "போன்ற": 2991,
      "தொடர்": 2992,
      "லக": 2993,
      "தீ": 2994,
      "வரை": 2995,
      "பதி": 2996,
      "மிக": 2997,
      "ராக": 2998,
      "ூர்": 2999,
      "கட": 3000,
      "ங்களில்": 3001,
      "னா": 3002,
      "ங்களை": 3003,
      "நிலை": 3004,
      "விள": 3005,
      "பெய": 3006,
      "முதல்": 3007,
      "தர": 3008,
      "டா": 3009,
      "றிய": 3010,
      "த்திற": 3011,
      "டுத்து": 3012,
      "கின்றன": 3013,
      "ற்றி": 3014,
      "ண்டும்": 3015,
      "்கள்": 3016,
      "த்திய": 3017,
      "பர": 3018,
      "களின்": 3019,
      "வெளிய": 3020,
      "பட்ட": 3021,
      "ப்படுகிறது": 3022,
      "சூ": 3023,
      "ிருந்து": 3024,
      "என்பது": 3025,
      "சோ": 3026,
      "தற்கு": 3027,
      "எதி": 3028,
      "சீ": 3029,
      "்கள": 3030,
      "தமிழ": 3031,
      "கிற": 3032,
      "18": 3033,
      "ரே": 3034,
      "ர்க்க": 3035,
      "வெளி": 3036,
      "கொண்டு": 3037,
      "வான": 3038,
      "னு": 3039,
      "லில்": 3040,
      "இட": 3041,
      "அடி": 3042,
      "ியில்": 3043,
      "ஆகும்": 3044,
      "பிரி": 3045,
      "வடி": 3046,
      "ொரு": 3047,
      "அள": 3048,
      "படி": 3049,
      "தம்": 3050,
      "ஆண்ட": 3051,
      "னால்": 3052,
      "தமிழ்": 3053,
      "வற்ற": 3054,
      "லு": 3055,
      "நெ": 3056,
      "க்கம்": 3057,
      "த்தா": 3058,
      "பொது": 3059,
      "நிறுவ": 3060,
      "ப்பட்டது": 3061,
      "நாடு": 3062,
      "ாகும்": 3063,
      "ஏற்ப": 3064,
      "தும்": 3065,
      "வரி": 3066,
      "அதிக": 3067,
      "பாட": 3068,
      "மேலும்": 3069,
      "பட": 3070,
      "ரைப்பட": 3071,
      "கண": 3072,
      "பூ": 3073,
      "என்ன": 3074,
      "சம": 3075,
      "பாடு": 3076,
      "இருக்க": 3077,
      "வட்ட": 3078,
      "வேறு": 3079,
      "த்துவ": 3080,
      "அமெ": 3081,
      "ையின்": 3082,
      "இந்திய": 3083,
      "ரின்": 3084,
      "ர்ட": 3085,
      "நிக": 3086,
      "ச்சி": 3087,
      "குறை": 3088,
      "இருந்து": 3089,
      "ர்ந்த": 3090,
      "மும்": 3091,
      "அந்த": 3092,
      "முன்ன": 3093,
      "வர்கள": 3094,
      "தல்": 3095,
      "பயன்படுத்த": 3096,
      "முற": 3097,
      "க்கொ": 3098,
      "முடி": 3099,
      "அவர்": 3100,
      "ங்கி": 3101,
      "குறிப்பி": 3102,
      "உருவா": 3103,
      "முக": 3104,
      "க்கான": 3105,
      "கட்ட": 3106,
      "ரில்": 3107,
      "ுடன்": 3108,
      "ப்போ": 3109,
      "நிறுவன": 3110,
      "),": 3111,
      "நடி": 3112,
      "நு": 3113,
      "ேய": 3114,
      "உலக": 3115,
      "ட்டை": 3116,
      "ியின்": 3117,
      "மொழி": 3118,
      "காண": 3119,
      "ுள்ள": 3120,
      "ஒன்ற": 3121,
      "கல": 3122,
      "ிலிருந்து": 3123,
      "ிருக்க": 3124,
      "ற்றிய": 3125,
      "சார்": 3126,
      "இவர்": 3127,
      "ினை": 3128,
      "ையாக": 3129,
      "உட": 3130,
      "த்திற்கு": 3131,
      "பெரும்": 3132,
      "களுக்கு": 3133,
      "வர்கள்": 3134,
      "மரு": 3135,
      "ியல்": 3136,
      "திரைப்பட": 3137,
      "ங்": 3138,
      "வரும்": 3139,
      "வேண்டும்": 3140,
      "ண்டா": 3141,
      "த்திர": 3142,
      "கல்": 3143,
      "இணை": 3144,
      "க்கை": 3145,
      "வழி": 3146,
      "மல்": 3147,
      "199": 3148,
      "பெரு": 3149,
      "மதி": 3150,
      "வரது": 3151,
      "சந்த": 3152,
      "மோ": 3153,
      "மின்": 3154,
      "பகுதி": 3155,
      "விட": 3156,
      "ானது": 3157,
      "ரீ": 3158,
      "விரு": 3159,
      "ஷ்": 3160,
      "ஆனால்": 3161,
      "க்கூ": 3162,
      "தான்": 3163,
      "மேற்க": 3164,
      "தொழ": 3165,
      "களும்": 3166,
      "ங்கில": 3167,
      "ச்சு": 3168,
      "இருக்கும்": 3169,
      "ளா": 3170,
      "உள்ளது": 3171,
      "ங்கா": 3172,
      "உண": 3173,
      "கீ": 3174,
      "வில": 3175,
      "இரா": 3176,
      "முக்கிய": 3177,
      "காரண": 3178,
      "ப்பை": 3179,
      "10": 3180,
      "ஸ்த": 3181,
      "an": 3182,
      "கவ": 3183,
      "நாட": 3184,
      "ங்கிய": 3185,
      "மன": 3186,
      "மாற்ற": 3187,
      "த்தார்": 3188,
      "்ச்ச": 3189,
      "ஜெ": 3190,
      "அது": 3191,
      "er": 3192,
      "இந்தியா": 3193,
      "தியில்": 3194,
      "கட்டு": 3195,
      "ல்கள்": 3196,
      "உறு": 3197,
      "மன்ற": 3198,
      "பண": 3199,
      "ப்பின": 3200,
      "தால்": 3201,
      "ள்ளி": 3202,
      "ியை": 3203,
      "மர": 3204,
      "மூலம்": 3205,
      "செயல்": 3206,
      "வன்": 3207,
      "மக்கள்": 3208,
      "க்கோ": 3209,
      "வக": 3210,
      "சட்ட": 3211,
      "வகை": 3212,
      "ளம்": 3213,
      "தொகு": 3214,
      "பரி": 3215,
      "தூ": 3216,
      "தவி": 3217,
      "இவ்": 3218,
      "வில்லை": 3219,
      "மனி": 3220,
      "அனை": 3221,
      "லோ": 3222,
      "யு": 3223,
      "ர்வ": 3224,
      "தனி": 3225,
      "தனது": 3226,
      "மாவட்ட": 3227,
      "ளு": 3228,
      "சன்": 3229,
      "விடு": 3230,
      "ஆண்டில்": 3231,
      "தனை": 3232,
      "ினார்": 3233,
      "ியாக": 3234,
      "அழை": 3235,
      "ர்வு": 3236,
      "க்கள்": 3237,
      "பின்னர்": 3238,
      "விட்ட": 3239,
      "இலங்க": 3240,
      "தான": 3241,
      "அதன்": 3242,
      "ந்திர": 3243,
      "அக": 3244,
      "முழு": 3245,
      "ப்படுத்த": 3246,
      "யி": 3247,
      "அனு": 3248,
      "யம்": 3249,
      "ையான": 3250,
      "on": 3251,
      "டெ": 3252,
      "வாய்": 3253,
      "எல்": 3254,
      "ணம்": 3255,
      "நாட்ட": 3256,
      "படை": 3257,
      "ந்தை": 3258,
      "ருக்கு": 3259,
      "லே": 3260,
      "15": 3261,
      "ராஜ": 3262,
      "க்காக": 3263,
      "க்கப்பட்டது": 3264,
      "க்கள": 3265,
      "லாக": 3266,
      "யூ": 3267,
      "இதன்": 3268,
      "அரு": 3269,
      "நடை": 3270,
      "பல்": 3271,
      "மார்": 3272,
      "198": 3273,
      "னார்": 3274,
      "ப்பெ": 3275,
      "கொள்ள": 3276,
      "வாழ": 3277,
      "அண": 3278,
      "பை": 3279,
      "என்னும்": 3280,
      "வட": 3281,
      "்கா": 3282,
      "ார்கள்": 3283,
      "சன": 3284,
      "ப்பாட்ட": 3285,
      "பழ": 3286,
      "வடிவ": 3287,
      "நேர": 3288,
      "எஸ்": 3289,
      "17": 3290,
      "யில்": 3291,
      "ந்தது": 3292,
      "ஜி": 3293,
      "வள": 3294,
      "சின்": 3295,
      "ப்படுகின்றன": 3296,
      "குழ": 3297,
      "கர்": 3298,
      "ராம": 3299,
      "ின்றன": 3300,
      "மூல": 3301,
      "in": 3302,
      "இரண்டு": 3303,
      "ரூ": 3304,
      "ஆய்": 3305,
      "வோ": 3306,
      "கண்ட": 3307,
      "உயி": 3308,
      "பிடி": 3309,
      "பாக": 3310,
      "ந்": 3311,
      "நகர": 3312,
      "அமெரிக்க": 3313,
      "மது": 3314,
      "்த்த": 3315,
      "அவர்கள": 3316,
      "மக்கள": 3317,
      "தெரி": 3318,
      "மாநில": 3319,
      "12": 3320,
      "அரசு": 3321,
      "கலை": 3322,
      "ம்பர்": 3323,
      "திற": 3324,
      "ற்றா": 3325,
      "ல்கள": 3326,
      "கின்றது": 3327,
      "பால": 3328,
      "வளர்": 3329,
      "197": 3330,
      "ாலும்": 3331,
      "வுகள்": 3332,
      "வன": 3333,
      "பெரிய": 3334,
      "இற": 3335,
      "எம்": 3336,
      "க்கப்பட்டு": 3337,
      "16": 3338,
      "லின்": 3339,
      "வரலா": 3340,
      "த்தது": 3341,
      "பெற": 3342,
      "களு": 3343,
      "மிகவும்": 3344,
      "ப்புகள்": 3345,
      "விளையா": 3346,
      "என்": 3347,
      "நிய": 3348,
      "ங்களின்": 3349,
      "ராய": 3350,
      "பர்": 3351,
      "அரசிய": 3352,
      "ள்க": 3353,
      "வழங்க": 3354,
      "ஃப்": 3355,
      "துடு": 3356,
      "இசை": 3357,
      "ேயே": 3358,
      "எதிர்": 3359,
      "திட்ட": 3360,
      "இரண்டா": 3361,
      "வியல்": 3362,
      "அவரது": 3363,
      "ti": 3364,
      "இடம்": 3365,
      "பெயர்": 3366,
      "ரிக்கா": 3367,
      "கன": 3368,
      "ரான": 3369,
      "மையான": 3370,
      "ட்ப": 3371,
      "ar": 3372,
      "வார்": 3373,
      "ட்டா": 3374,
      "கிழ": 3375,
      "ிட": 3376,
      "கார": 3377,
      "al": 3378,
      "...": 3379,
      "எடுத்து": 3380,
      "தேச": 3381,
      "நான": 3382,
      "உள்ளன": 3383,
      "அல": 3384,
      "என்றும்": 3385,
      "ண்ட்": 3386,
      "தயா": 3387,
      "துடுப்பாட்ட": 3388,
      "வல": 3389,
      "குழு": 3390,
      "ப்பில்": 3391,
      "ஸ்க": 3392,
      "தொலை": 3393,
      "ரெ": 3394,
      "மாகும்": 3395,
      "அமைந்து": 3396,
      "11": 3397,
      "செய்து": 3398,
      "ிருக்கும்": 3399,
      "வீர": 3400,
      "ன்னை": 3401,
      "ோர்": 3402,
      "மட்டு": 3403,
      "ப்படி": 3404,
      "en": 3405,
      "முன்": 3406,
      "ள்ளன": 3407,
      "வாழ்": 3408,
      "ஆங்கில": 3409,
      "196": 3410,
      "ப்பாக": 3411,
      "தனால்": 3412,
      "புதிய": 3413,
      "ஸ்ட்": 3414,
      "சிரிய": 3415,
      "14": 3416,
      "சிறு": 3417,
      "அட": 3418,
      "மல": 3419,
      "நிகழ": 3420,
      "ண்டி": 3421,
      "வுக்கு": 3422,
      "ைக்": 3423,
      "கிடை": 3424,
      "ற்கு": 3425,
      "வய": 3426,
      "இன": 3427,
      "நாள்": 3428,
      "ஆர்": 3429,
      "மில்": 3430,
      "டுக்க": 3431,
      "பீ": 3432,
      "ப்பின்": 3433,
      "மணி": 3434,
      "ந்தி": 3435,
      "தொழில்": 3436,
      "இவை": 3437,
      "நீர்": 3438,
      "ணைய": 3439,
      "போல": 3440,
      "ினர்": 3441,
      "பிரா": 3442,
      "எண்": 3443,
      "கர": 3444,
      "தேசிய": 3445,
      "or": 3446,
      "ேன்": 3447,
      "ீடு": 3448,
      "13": 3449,
      "சர்": 3450,
      "தார": 3451,
      "மர்": 3452,
      "ட்டிய": 3453,
      "மன்": 3454,
      "நாய": 3455,
      "அணி": 3456,
      "ங்களுக்கு": 3457,
      "வதற்கு": 3458,
      "ற்சி": 3459,
      "நம்": 3460,
      "களாக": 3461,
      "இருப்ப": 3462,
      "மண": 3463,
      "நிலைய": 3464,
      "நாட்டு": 3465,
      "டியா": 3466,
      "ண்டிய": 3467,
      "த்துக்கு": 3468,
      "ழக": 3469,
      "போர்": 3470,
      "மொழ": 3471,
      "சொல்ல": 3472,
      "நிகழ்": 3473,
      "இயக்க": 3474,
      "ர்த்து": 3475,
      "சேர்ந்த": 3476,
      "தியாக": 3477,
      "களையும்": 3478,
      "புற": 3479,
      "ரம்ப": 3480,
      "சங்க": 3481,
      "ஒன்று": 3482,
      "அவர்கள்": 3483,
      "ிட்ட": 3484,
      "பாது": 3485,
      "நூற்றா": 3486,
      "மலை": 3487,
      "ர்களின்": 3488,
      "கைய": 3489,
      "மனித": 3490,
      "பேர": 3491,
      "ைப்": 3492,
      "அளி": 3493,
      "செல்ல": 3494,
      "்க்க": 3495,
      "பெற்று": 3496,
      "கிறார்": 3497,
      "மருத்துவ": 3498,
      "ரல்": 3499,
      "ரியா": 3500,
      "மூன்று": 3501,
      "ளர்கள்": 3502,
      "ேற்ற": 3503,
      "அம்": 3504,
      "பாதுகா": 3505,
      "ஹா": 3506,
      "194": 3507,
      "இருந்தது": 3508,
      "வதற்க": 3509,
      "மாறு": 3510,
      "அவை": 3511,
      "பணி": 3512,
      "களைக்": 3513,
      "படு": 3514,
      "ஆகியவற்ற": 3515,
      "தற்": 3516,
      "000": 3517,
      "மறு": 3518,
      "ந்தார்": 3519,
      "ஒவ்": 3520,
      "195": 3521,
      "்ச்சி": 3522,
      "அனைத்து": 3523,
      "மட்ட": 3524,
      "முடிய": 3525,
      "வெற்றி": 3526,
      "போட்டி": 3527,
      "செல்": 3528,
      "னின்": 3529,
      "அமெரிக்கா": 3530,
      "பற்றிய": 3531,
      "அரசியல்": 3532,
      "யில": 3533,
      "இறு": 3534,
      "வொரு": 3535,
      "குறிப்பிட": 3536,
      "விளை": 3537,
      "கூட்ட": 3538,
      "பார்": 3539,
      "ங்கும்": 3540,
      "கல்ல": 3541,
      "பிறகு": 3542,
      "த்தல்": 3543,
      "ிற்கு": 3544,
      "ியம்": 3545,
      "கன்": 3546,
      "சிறந்த": 3547,
      "தல": 3548,
      "கதை": 3549,
      "குடிய": 3550,
      "சியா": 3551,
      "ர்க்": 3552,
      "னம்": 3553,
      "முதன்": 3554,
      "சமூ": 3555,
      "இத": 3556,
      "ப்பான": 3557,
      "அமைப்பு": 3558,
      "ர்ட்": 3559,
      "பல்வேறு": 3560,
      "இலங்கை": 3561,
      "பொதுவாக": 3562,
      "ினால்": 3563,
      "தள": 3564,
      "தகவ": 3565,
      "அடிப்பட": 3566,
      "ங்களும்": 3567,
      "கெ": 3568,
      "வம்": 3569,
      "கூறு": 3570,
      ").": 3571,
      "ச்சா": 3572,
      "ிறார்": 3573,
      "எந்த": 3574,
      "இங்கு": 3575,
      "ப்பகு": 3576,
      "களிலும்": 3577,
      "டும்ப": 3578,
      "இன்": 3579,
      "இந்": 3580,
      "சக": 3581,
      "புத்த": 3582,
      "ுடைய": 3583,
      "மைப்பு": 3584,
      "ன்னா": 3585,
      "்களை": 3586,
      "புர": 3587,
      "சரி": 3588,
      "பல்க": 3589,
      "பண்": 3590,
      "முய": 3591,
      "பற்றி": 3592,
      "அவற்ற": 3593,
      "க்கிறது": 3594,
      "மீது": 3595,
      "காரணமாக": 3596,
      "த்தான": 3597,
      "உறுப்பின": 3598,
      "நினை": 3599,
      "நீதி": 3600,
      "உத": 3601,
      "கருத்து": 3602,
      "த்திற்க": 3603,
      "ட்டில்": 3604,
      "தொடர்ந்து": 3605,
      "இதில்": 3606,
      "க்கூடிய": 3607,
      "கண்டு": 3608,
      "வெப்ப": 3609,
      "தயாரி": 3610,
      "ட்டர்": 3611,
      "மானது": 3612,
      "நோய": 3613,
      "பயன்": 3614,
      "ையே": 3615,
      "பொருள்": 3616,
      "தர்": 3617,
      "டோ": 3618,
      "ழா": 3619,
      "நுட்ப": 3620,
      "அறிவி": 3621,
      "விட்டு": 3622,
      "உரி": 3623,
      "ள்ளார்": 3624,
      "நிலையில்": 3625,
      "தொடர்பு": 3626,
      "அழைக்க": 3627,
      "த்தொ": 3628,
      "த்தில": 3629,
      "ெடு": 3630,
      "விருது": 3631,
      "பாதி": 3632,
      "அடை": 3633,
      "சம்": 3634,
      "த்துடன்": 3635,
      "கின்றனர்": 3636,
      "es": 3637,
      "றும்": 3638,
      "துறை": 3639,
      "புரி": 3640,
      "வதாக": 3641,
      "சமூக": 3642,
      "வாறு": 3643,
      "ல்களை": 3644,
      "ப்பது": 3645,
      "தெரிவி": 3646,
      "அளவு": 3647,
      "கருத": 3648,
      "ஆற்ற": 3649,
      "மட்டுமே": 3650,
      "லாத": 3651,
      "யோ": 3652,
      "ால": 3653,
      "வராக": 3654,
      "வரைய": 3655,
      "அணு": 3656,
      "கொள்க": 3657,
      "ரால்": 3658,
      "குடும்ப": 3659,
      "ாள்": 3660,
      "30": 3661,
      "லீ": 3662,
      "மாத": 3663,
      "ினும்": 3664,
      "த்தம்": 3665,
      "பெறு": 3666,
      "மன்ன": 3667,
      "உண்": 3668,
      "வெளிவந்த": 3669,
      "சார்ந்த": 3670,
      "பங்கு": 3671,
      "குழந்தை": 3672,
      "ஒவ்வொரு": 3673,
      "பல்கலை": 3674,
      "வந்து": 3675,
      "கணி": 3676,
      "மேல்": 3677,
      "பெண": 3678,
      "டே": 3679,
      "அறிய": 3680,
      "உற்ப": 3681,
      "ஐக்கிய": 3682,
      "படுத்த": 3683,
      "நிர": 3684,
      "அதே": 3685,
      "தேவ": 3686,
      "மிய": 3687,
      "கல்வி": 3688,
      "கட்டி": 3689,
      "க்ஸ்": 3690,
      "th": 3691,
      "இடை": 3692,
      "பொருட": 3693,
      "மண்ட": 3694,
      "மீண்டும்": 3695,
      "நிறு": 3696,
      "ஜா": 3697,
      "பில்": 3698,
      "ரசு": 3699,
      "இல்லை": 3700,
      "அன்று": 3701,
      "ஓர்": 3702,
      "ோடு": 3703,
      "நிதி": 3704,
      "முடியா": 3705,
      "நிர்": 3706,
      "ந்தா": 3707,
      "சமய": 3708,
      "லியன்": 3709,
      "கவி": 3710,
      "is": 3711,
      "வரின்": 3712,
      "சிக்க": 3713,
      "மத்திய": 3714,
      "உயர்": 3715,
      "இலக்கிய": 3716,
      "அங்க": 3717,
      "குரு": 3718,
      "பயி": 3719,
      "ஜ்": 3720,
      "த்தையும்": 3721,
      "வணி": 3722,
      "லெ": 3723,
      "ிலான": 3724,
      "சிவ": 3725,
      "னில்": 3726,
      "னும்": 3727,
      "25": 3728,
      "காலத்தில்": 3729,
      "க்கில்": 3730,
      "நிறை": 3731,
      "பொறு": 3732,
      "ஒரே": 3733,
      "எனும்": 3734,
      "நான்": 3735,
      "சென்னை": 3736,
      "ச்சை": 3737,
      "தமிழக": 3738,
      "களைப்": 3739,
      "ப்போது": 3740,
      "பார": 3741,
      "வேலை": 3742,
      "கார்": 3743,
      "பெற்றது": 3744,
      "நல்ல": 3745,
      "எண்ண": 3746,
      "விரி": 3747,
      "ப்பிய": 3748,
      "ட்டம்": 3749,
      "பார்க்க": 3750,
      "முறையில்": 3751,
      "கீழ்": 3752,
      "இணைய": 3753,
      "புல": 3754,
      "பெரும்பா": 3755,
      "னோ": 3756,
      "என்பதை": 3757,
      "ப்படை": 3758,
      "திர": 3759,
      "ளர்கள": 3760,
      "ஜூ": 3761,
      "மாண": 3762,
      "ிருந்தது": 3763,
      "ஆறு": 3764,
      "தேவை": 3765,
      "அம": 3766,
      "போட்ட": 3767,
      "கல்லூ": 3768,
      "ஆய்வு": 3769,
      "னிய": 3770,
      "ல்த": 3771,
      "தேர்வு": 3772,
      "பாட்டு": 3773,
      "வாழ்க்க": 3774,
      "செய்யப்பட்ட": 3775,
      "செய்தி": 3776,
      "டையே": 3777,
      "ic": 3778,
      "அதை": 3779,
      "பான": 3780,
      "சுற்று": 3781,
      "தேர்த": 3782,
      "குறிப்பிட்ட": 3783,
      "ன்ஸ்": 3784,
      "நடு": 3785,
      "காட்ட": 3786,
      "பக": 3787,
      "மனை": 3788,
      "இன்ன": 3789,
      "ஒளி": 3790,
      "வைத்து": 3791,
      "னே": 3792,
      "வதில்": 3793,
      "ினி": 3794,
      "இவரது": 3795,
      "ச்சிய": 3796,
      "சென்ற": 3797,
      "ராட்சி": 3798,
      "வண": 3799,
      "பிய": 3800,
      "முடியும்": 3801,
      "மம்": 3802,
      "த்தால்": 3803,
      "பள்ளி": 3804,
      "இரண்டாம்": 3805,
      "பொருள": 3806,
      "பேர்": 3807,
      "நடவடி": 3808,
      "ருந்து": 3809,
      "கூட": 3810,
      "இம்": 3811,
      "பகுதியில்": 3812,
      "le": 3813,
      "ப்பட்டுள்ளது": 3814,
      "கால்": 3815,
      "வித": 3816,
      "இள": 3817,
      "பல்கலைக்க": 3818,
      "த்தும்": 3819,
      "கிரு": 3820,
      "மேற்கொ": 3821,
      "க்குப்": 3822,
      "பகுதிய": 3823,
      "தாகும்": 3824,
      "நியூ": 3825,
      "ல்லா": 3826,
      "வாதி": 3827,
      "உருவாக்க": 3828,
      "ஞர்": 3829,
      "த்தக்க": 3830,
      "்களின்": 3831,
      "ங்கம்": 3832,
      "மையில்": 3833,
      "டையா": 3834,
      "த்திலும்": 3835,
      "இதனால்": 3836,
      "ஆரம்ப": 3837,
      "புக": 3838,
      "ஈடு": 3839,
      "ணுவ": 3840,
      "ஹெ": 3841,
      "மூன்ற": 3842,
      "இருக்கிறது": 3843,
      "தொழில": 3844,
      "மையாக": 3845,
      "ஐரோ": 3846,
      "ஒலி": 3847,
      "கூடிய": 3848,
      "மேற்கு": 3849,
      "டாக": 3850,
      "வச": 3851,
      "துணை": 3852,
      "உல": 3853,
      "நாக": 3854,
      "ஆசிரிய": 3855,
      "எண்ணி": 3856,
      "ள்ளை": 3857,
      "மறை": 3858,
      "பெண்": 3859,
      "கிறி": 3860,
      "தாவது": 3861,
      "ங்களு": 3862,
      "த்தைக்": 3863,
      "டல்": 3864,
      "ர்த்தி": 3865,
      "க்ச": 3866,
      "கண்ண": 3867,
      "க்கொண்ட": 3868,
      "சேர்": 3869,
      "உட்": 3870,
      "நூற்றாண்ட": 3871,
      "2008": 3872,
      "தொகுதி": 3873,
      "ஆட்சி": 3874,
      "டர்": 3875,
      "ணு": 3876,
      "ட்சிய": 3877,
      "ந்திய": 3878,
      "பரு": 3879,
      "த்தைப்": 3880,
      "ஆய": 3881,
      "கூற": 3882,
      "நோய்": 3883,
      "வதை": 3884,
      "க்களை": 3885,
      "ஏற்பட்ட": 3886,
      "போரா": 3887,
      "னெ": 3888,
      "எழுத்து": 3889,
      "பணியா": 3890,
      "விர": 3891,
      "விதி": 3892,
      "at": 3893,
      "தோன்ற": 3894,
      "ஜன": 3895,
      "லாளர்": 3896,
      "சிறப்பு": 3897,
      "அரச": 3898,
      "தங்கள்": 3899,
      "நாள": 3900,
      "ழுது": 3901,
      "யின்": 3902,
      "வகு": 3903,
      "எழுதிய": 3904,
      "நான்கு": 3905,
      "ன்க": 3906,
      "பக்க": 3907,
      "்தி": 3908,
      "்ட்": 3909,
      "am": 3910,
      "க்கே": 3911,
      "சேவை": 3912,
      "193": 3913,
      "தரவு": 3914,
      "நாடக": 3915,
      "்து": 3916,
      "சிறிய": 3917,
      "இதை": 3918,
      "கண்டுபிடி": 3919,
      "தன்ன": 3920,
      "மத": 3921,
      "புது": 3922,
      "வேண்டிய": 3923,
      "கட்சி": 3924,
      "இத்த": 3925,
      "சைய": 3926,
      "செலு": 3927,
      "பால்": 3928,
      "இழ": 3929,
      "நிறுவனம்": 3930,
      "்டோ": 3931,
      "கடை": 3932,
      "ப்படுகின்றது": 3933,
      "க்கொள்ள": 3934,
      "அவ்": 3935,
      "காலம்": 3936,
      "ைத்": 3937,
      "தற்போது": 3938,
      "வான்": 3939,
      "தின": 3940,
      "போல்": 3941,
      "உற": 3942,
      "இந்தியாவின்": 3943,
      "யர்": 3944,
      "விழா": 3945,
      "த்துக்": 3946,
      "விற்கு": 3947,
      "வணிக": 3948,
      "க்கல்": 3949,
      "மகா": 3950,
      "முதலில்": 3951,
      "இந்து": 3952,
      "மாதி": 3953,
      "வினை": 3954,
      "தாரண": 3955,
      "ின்றனர்": 3956,
      "வதும்": 3957,
      "ளவு": 3958,
      "தீர்": 3959,
      "ஜோ": 3960,
      "ur": 3961,
      "22": 3962,
      "தவ": 3963,
      "வகையில்": 3964,
      "இன்ற": 3965,
      "தற்காக": 3966,
      "ஒப்ப": 3967,
      "விளையாட்டு": 3968,
      "ஞ்சு": 3969,
      "மான்": 3970,
      "2007": 3971,
      "ணா": 3972,
      "வலை": 3973,
      "தைய": 3974,
      "இயக்கு": 3975,
      "குறைந்த": 3976,
      "உயிரி": 3977,
      "ஜெர்": 3978,
      "பொருளா": 3979,
      "50": 3980,
      "தாகவும்": 3981,
      "அழி": 3982,
      "எனினும்": 3983,
      "இவற்ற": 3984,
      "ப்ர": 3985,
      "டீ": 3986,
      "னியா": 3987,
      "24": 3988,
      "சந்தி": 3989,
      "விடுதலை": 3990,
      "றா": 3991,
      "நம்பி": 3992,
      "வேக": 3993,
      "அளவில்": 3994,
      "ம்பு": 3995,
      "ஏற்று": 3996,
      "நடத்த": 3997,
      "om": 3998,
      "ுள்ளார்": 3999,
      "கலந்து": 4000,
      "ஆன": 4001,
      "ஆவார்": 4002,
      "சம்ப": 4003,
      "நவ": 4004,
      "சுர": 4005,
      "நகர்": 4006,
      "்த்": 4007,
      "இறை": 4008,
      "சாலை": 4009,
      "நடவடிக்கை": 4010,
      "2009": 4011,
      "தாய": 4012,
      "ன்மை": 4013,
      "கிராம": 4014,
      "2006": 4015,
      "மேற்ப": 4016,
      "கீழ": 4017,
      "க்கார": 4018,
      "சிகி": 4019,
      "ப்பொரு": 4020,
      "சில்": 4021,
      "மொத்த": 4022,
      "அமைந்துள்ளது": 4023,
      "விவ": 4024,
      "செய்யும்": 4025,
      "உற்பத்தி": 4026,
      "உணவு": 4027,
      "திரும்": 4028,
      "நாட்டின்": 4029,
      "தொழில்நுட்ப": 4030,
      "அதிகார": 4031,
      "அதற்கு": 4032,
      "த்திலிருந்து": 4033,
      "ஸ்ரீ": 4034,
      "tion": 4035,
      "ள்ளனர்": 4036,
      "விரும்": 4037,
      "பில": 4038,
      "சாக": 4039,
      "வழக்க": 4040,
      "அடுத்த": 4041,
      "வார": 4042,
      "குறு": 4043,
      "ப்பே": 4044,
      "சொல்": 4045,
      "பத": 4046,
      "வருகிறது": 4047,
      "இங்கில": 4048,
      "ஏற்படுத்த": 4049,
      "துற": 4050,
      "உடல்": 4051,
      "த்தின": 4052,
      "வெளியிட": 4053,
      "கொடு": 4054,
      "ின்றது": 4055,
      "ங்கியது": 4056,
      "க்கால": 4057,
      "ிலேயே": 4058,
      "பட்டு": 4059,
      "இயற்க": 4060,
      "பிரித்தான": 4061,
      "பெற்றார்": 4062,
      "பயன்படுத்து": 4063,
      "எழுத்தா": 4064,
      "அதில்": 4065,
      "சரிய": 4066,
      "ங்கே": 4067,
      "ோம்": 4068,
      "க்கப்படும்": 4069,
      "டியாக": 4070,
      "வல்": 4071,
      "தாக்கு": 4072,
      "பாடல்": 4073,
      "வால்": 4074,
      "ிருந்தார்": 4075,
      "இன்று": 4076,
      "ரம்பி": 4077,
      "ஆல்": 4078,
      "துவ": 4079,
      "மூன்றா": 4080,
      "களால்": 4081,
      "எல்லா": 4082,
      "அங்கு": 4083,
      "்களில்": 4084,
      "ிருப்ப": 4085,
      "இங்கிலா": 4086,
      "ஞ்சா": 4087,
      "as": 4088,
      "சூழ": 4089,
      "வர்த்த": 4090,
      "ிருக்கிறது": 4091,
      "விமான": 4092,
      "ிற்க": 4093,
      "அமைந்த": 4094,
      "கரி": 4095,
      "உள்ளட": 4096,
      "23": 4097,
      "கைப்ப": 4098,
      "எரி": 4099,
      "ளுமன்ற": 4100,
      "துடுப்பாட்டப்": 4101,
      "வியா": 4102,
      "மட்டும்": 4103,
      "ன்னி": 4104,
      "லான": 4105,
      "கடவு": 4106,
      "21": 4107,
      "கையில்": 4108,
      "ட்டின்": 4109,
      "பதிவு": 4110,
      "பிரான்": 4111,
      "ஜே": 4112,
      "போக்கு": 4113,
      "கில": 4114,
      "உண்டு": 4115,
      "கூறி": 4116,
      "ருக்க": 4117,
      "இதற்கு": 4118,
      "ாகவும்": 4119,
      "குறிய": 4120,
      "கடி": 4121,
      "உள்": 4122,
      "ங்களையும்": 4123,
      "தொடங்க": 4124,
      "நாட்டில்": 4125,
      "ஆகியவை": 4126,
      "வின": 4127,
      "சர": 4128,
      "பாய்": 4129,
      "வளர்ச்சி": 4130,
      "ண்மை": 4131,
      "கூடு": 4132,
      "நூல்": 4133,
      "குற்ற": 4134,
      "வைத்த": 4135,
      "அறிவியல்": 4136,
      "தாய்": 4137,
      "சார": 4138,
      "ச்செ": 4139,
      "அறிமுக": 4140,
      "சென்று": 4141,
      "ப்பட்டன": 4142,
      "புரம்": 4143,
      "இந்தப்": 4144,
      "ப்பினும்": 4145,
      "ர்களுக்கு": 4146,
      "இராணுவ": 4147,
      "மிகு": 4148,
      "it": 4149,
      "தலைவர்": 4150,
      "சுமார்": 4151,
      "எழுத": 4152,
      "ஆராய": 4153,
      "ர்களை": 4154,
      "ஞ்சி": 4155,
      "காட்டு": 4156,
      "ஆரம்பி": 4157,
      "ol": 4158,
      "பிரிவு": 4159,
      "ப்ட": 4160,
      "முனை": 4161,
      "உரிமை": 4162,
      "இத்தி": 4163,
      "நிர்வாக": 4164,
      "ஆட்ட": 4165,
      "காய": 4166,
      "குடி": 4167,
      "us": 4168,
      "லுக்கு": 4169,
      "மானிய": 4170,
      "செல": 4171,
      "பெரும்பாலும்": 4172,
      "அதிகா": 4173,
      "த்தான்": 4174,
      "கிழக்கு": 4175,
      "ந்தைய": 4176,
      "அமைச்ச": 4177,
      "யாழ்": 4178,
      "பின்ன": 4179,
      "வெளியே": 4180,
      "வழங்கு": 4181,
      "வலி": 4182,
      "ாத": 4183,
      "காங்க": 4184,
      "வந்தது": 4185,
      "தற்கான": 4186,
      "பம்": 4187,
      "மிக்க": 4188,
      "பாதுகாப்பு": 4189,
      "அதிகரி": 4190,
      "பிரபல": 4191,
      "முதலா": 4192,
      "வருட": 4193,
      "பாலான": 4194,
      "முடிவு": 4195,
      "இணைந்து": 4196,
      "குதி": 4197,
      "எனவே": 4198,
      "ஆண": 4199,
      "ப்பாடு": 4200,
      "கோயில்": 4201,
      "செய்க": 4202,
      "இருப்பினும்": 4203,
      "கல்லூரி": 4204,
      "பிறந்த": 4205,
      "இதனை": 4206,
      "களுடன்": 4207,
      "ப்பொ": 4208,
      "ன்றி": 4209,
      "கொண்டது": 4210,
      "பாடுகள்": 4211,
      "புகழ்": 4212,
      "பூர்": 4213,
      "தந்திர": 4214,
      "லாமல்": 4215,
      "el": 4216,
      "பெரும்பாலான": 4217,
      "எவ்": 4218,
      "சாமி": 4219,
      "இரண்டாவது": 4220,
      "அரசா": 4221,
      "பற": 4222,
      "ஷா": 4223,
      "தமிழ்நாடு": 4224,
      "ro": 4225,
      "சூரிய": 4226,
      "கட்டிட": 4227,
      "சரா": 4228,
      "ac": 4229,
      "மையை": 4230,
      "ல்லி": 4231,
      "லர்": 4232,
      "ஏற்படும்": 4233,
      "இசு": 4234,
      "பிரதி": 4235,
      "பிரதேச": 4236,
      "ed": 4237,
      "மாகக்": 4238,
      "பாரா": 4239,
      "கில்": 4240,
      "அல்": 4241,
      "26": 4242,
      "வாத": 4243,
      "தென்": 4244,
      "தியான": 4245,
      "குறிப்பிடத்தக்க": 4246,
      "ப்பர்": 4247,
      "வழியாக": 4248,
      "ப்பூர்": 4249,
      "இறுதி": 4250,
      "குறிப்பாக": 4251,
      "சுவா": 4252,
      "ஹி": 4253,
      "மில்லியன்": 4254,
      "முகம்": 4255,
      "பாத்திர": 4256,
      "வீடு": 4257,
      "ஓட்ட": 4258,
      "கட்டுரை": 4259,
      "த்திரி": 4260,
      "இயல்": 4261,
      "ப்பிர": 4262,
      "ாக்": 4263,
      "அழு": 4264,
      "அதாவது": 4265,
      "அடையா": 4266,
      "நாடா": 4267,
      "ண்ணா": 4268,
      "ழகம்": 4269,
      "அலை": 4270,
      "ஐந்து": 4271,
      "உருவாக": 4272,
      "டியோ": 4273,
      "நீதிமன்ற": 4274,
      "ஆன்": 4275,
      "பொருளாதார": 4276,
      "ய்ய": 4277,
      "த்தனர்": 4278,
      "வரலாறு": 4279,
      "இவரு": 4280,
      "வாய": 4281,
      "மாகா": 4282,
      "அனுமதி": 4283,
      "த்தியா": 4284,
      "பல்கலைக்கழக": 4285,
      "நாம்": 4286,
      "மின்ன": 4287,
      "விற்ப": 4288,
      "ந்தனர்": 4289,
      "ய்வு": 4290,
      "மூலமாக": 4291,
      "கும்": 4292,
      "ஞான": 4293,
      "ப்பும்": 4294,
      "முயற்சி": 4295,
      "of": 4296,
      "காட்சி": 4297,
      "தமிழ்த்": 4298,
      "2005": 4299,
      "பயன்படுத்தி": 4300,
      "லியா": 4301,
      "ஒருவர்": 4302,
      "லூ": 4303,
      "இராக": 4304,
      "பிள": 4305,
      "கடல்": 4306,
      "படைய": 4307,
      "விகி": 4308,
      "பேரர": 4309,
      "கிரி": 4310,
      "ஆல": 4311,
      "வாக்கு": 4312,
      "ட்சியின்": 4313,
      "கோட்": 4314,
      "ட்க": 4315,
      "ன்பொரு": 4316,
      "என்க": 4317,
      "ங்களைக்": 4318,
      "மாற்று": 4319,
      "அவரு": 4320,
      "28": 4321,
      "தரு": 4322,
      "அடிப்படையில்": 4323,
      "கிய": 4324,
      "த்தோ": 4325,
      "நாடுகள்": 4326,
      "டுகிறது": 4327,
      "எதிராக": 4328,
      "அமைந்துள்ள": 4329,
      "பன்": 4330,
      "கொல்ல": 4331,
      "தொடக்க": 4332,
      "சம்பர்": 4333,
      "ஒழு": 4334,
      "ண்டை": 4335,
      "பதிப்பு": 4336,
      "நல": 4337,
      "வரிசை": 4338,
      "27": 4339,
      "il": 4340,
      "விமர்": 4341,
      "னைய": 4342,
      "சுழ": 4343,
      "முறைய": 4344,
      "கிருஷ்": 4345,
      "பிரித்தானிய": 4346,
      "ஒப்பந்த": 4347,
      "ப்புற": 4348,
      "அக்டோ": 4349,
      "பொழுது": 4350,
      "இடத்தில்": 4351,
      "பெறும்": 4352,
      "அலுவ": 4353,
      "முக்கியமான": 4354,
      "நிகழ்ச்சி": 4355,
      "அற": 4356,
      "கப்ப": 4357,
      "சது": 4358,
      "கதி": 4359,
      "விலை": 4360,
      "கலா": 4361,
      "மீட்டர்": 4362,
      "வளி": 4363,
      "இத்திரைப்பட": 4364,
      "டிக்க": 4365,
      "ங்கோ": 4366,
      "நடந்த": 4367,
      "மய": 4368,
      "முறைகள்": 4369,
      "க்குழு": 4370,
      "மாதம்": 4371,
      "ரக": 4372,
      "ன்கள்": 4373,
      "ிறார்கள்": 4374,
      "பத்து": 4375,
      "தோற்ற": 4376,
      "அழ": 4377,
      "வைய": 4378,
      "எடுத்துக்கா": 4379,
      "கருவி": 4380,
      "உயிர்": 4381,
      "கொள்": 4382,
      "ஷன்": 4383,
      "ஏப்": 4384,
      "பார்த்த": 4385,
      "சோழ": 4386,
      "மாவட்டம்": 4387,
      "காங்கிர": 4388,
      "ங்களிலும்": 4389,
      "விரை": 4390,
      "தேர்ந்த": 4391,
      "மைக்": 4392,
      "உதவி": 4393,
      "ையாள": 4394,
      "நாடுகளில்": 4395,
      "தோல்": 4396,
      "ஏப்ரல்": 4397,
      "கிரே": 4398,
      "இந்தியாவில்": 4399,
      "கிரா": 4400,
      "தையும்": 4401,
      "செப்ட": 4402,
      "அதிகமாக": 4403,
      "சுதந்திர": 4404,
      "சல்": 4405,
      "நவம்பர்": 4406,
      "நீண்ட": 4407,
      "இவர்கள": 4408,
      "ங்களாக": 4409,
      "re": 4410,
      "பிரச்ச": 4411,
      "சேர்க்க": 4412,
      "ாய": 4413,
      "போட்டியில்": 4414,
      "29": 4415,
      "ிலுள்ள": 4416,
      "ழும்": 4417,
      "வீன": 4418,
      "குறித்து": 4419,
      "கொண்டுள்ளது": 4420,
      "ேசு": 4421,
      "வயது": 4422,
      "ஸ்திர": 4423,
      "100": 4424,
      "நகரம்": 4425,
      "மாற": 4426,
      "மிட": 4427,
      "வொ": 4428,
      "ர்களும்": 4429,
      "எளி": 4430,
      "மண்டல": 4431,
      "வுடன்": 4432,
      "வென்ற": 4433,
      "விலங்கு": 4434,
      "பார்வ": 4435,
      "பேச": 4436,
      "த்தைச்": 4437,
      "அக்டோபர்": 4438,
      "40": 4439,
      "வதற்கான": 4440,
      "சோதனை": 4441,
      "களுக்கும்": 4442,
      "வதில்லை": 4443,
      "வடிவமை": 4444,
      "ப்பதற்கு": 4445,
      "நூற்றாண்டு": 4446,
      "்களுக்கு": 4447,
      "க்கப்பட்டுள்ளது": 4448,
      "கோயில": 4449,
      "காணப்படும்": 4450,
      "தொகை": 4451,
      "சட்டமன்ற": 4452,
      "படம்": 4453,
      "ing": 4454,
      "வதால்": 4455,
      "அரி": 4456,
      "த்தர": 4457,
      "அடிப்படை": 4458,
      "செல்லும்": 4459,
      "நகரில்": 4460,
      "ுள்ளது": 4461,
      "எனப்படும்": 4462,
      "நோக்க": 4463,
      "யாழ்ப்பா": 4464,
      "தகவல்": 4465,
      "நாடாளுமன்ற": 4466,
      "தேதி": 4467,
      "சீன": 4468,
      "வரலாற்று": 4469,
      "எனவும்": 4470,
      "செப்டம்பர்": 4471,
      "மருந்து": 4472,
      "ல்களில்": 4473,
      "உலகின்": 4474,
      "வல்ல": 4475,
      "சிகிச்சை": 4476,
      "பழைய": 4477,
      "குறித்த": 4478,
      "பிரெ": 4479,
      "வதற்காக": 4480,
      "விஜ": 4481,
      "நடித்த": 4482,
      "மாற்றம்": 4483,
      "பன்னா": 4484,
      "ch": 4485,
      "ளோ": 4486,
      "ர்களி": 4487,
      "கழி": 4488,
      "ங்கை": 4489,
      "பெண்கள்": 4490,
      "தெளி": 4491,
      "தாவர": 4492,
      "எழுதி": 4493,
      "அவருக்கு": 4494,
      "த்துறை": 4495,
      "எனக்": 4496,
      "ப்பதி": 4497,
      "னுக்கு": 4498,
      "த்தீ": 4499,
      "தடை": 4500,
      "கிறார்கள்": 4501,
      "நை": 4502,
      "பிரத": 4503,
      "ையைக்": 4504,
      "வேண்டு": 4505,
      "வெளியிட்ட": 4506,
      "ியது": 4507,
      "2004": 4508,
      "கொண்டிருந்த": 4509,
      "புத்தக": 4510,
      "சர்வ": 4511,
      "உடைய": 4512,
      "க்கின்றன": 4513,
      "ளைய": 4514,
      "ம்பர": 4515,
      "ீட்டு": 4516,
      "மாவட்டத்தில்": 4517,
      "வாழ்க்கை": 4518,
      "ியும்": 4519,
      "முழுவதும்": 4520,
      "மணம்": 4521,
      "்தான்": 4522,
      "தெரிய": 4523,
      "றிவு": 4524,
      "நோக்கி": 4525,
      "படும்": 4526,
      "மென்பொரு": 4527,
      "ப்பகுதி": 4528,
      "அவரை": 4529,
      "ஷி": 4530,
      "மார்ச்": 4531,
      "பன்னாட்டு": 4532,
      "கடு": 4533,
      "லிருந்து": 4534,
      "்தொ": 4535,
      "பிறப்பு": 4536,
      "உள்ளிட்ட": 4537,
      "2011": 4538,
      "இந்தக்": 4539,
      "சொந்த": 4540,
      "புலி": 4541,
      "un": 4542,
      "ப்த": 4543,
      "விலும்": 4544,
      "களைத்": 4545,
      "தாக்க": 4546,
      "ஆகியோ": 4547,
      "ஆஃப்": 4548,
      "ஜெய": 4549,
      "190": 4550,
      "செரு": 4551,
      "ற்சிய": 4552,
      "மட": 4553,
      "தலைமை": 4554,
      "சகோ": 4555,
      "இத்தா": 4556,
      "தமது": 4557,
      "ர்களில்": 4558,
      "க்கப்படுகிறது": 4559,
      "சிங்க": 4560,
      "பாட்ட": 4561,
      "ெல்": 4562,
      "ெழு": 4563,
      "கணக்க": 4564,
      "உச்ச": 4565,
      "தவிர": 4566,
      "ையைப்": 4567,
      "கொள்கை": 4568,
      "மதிப்பு": 4569,
      "குளி": 4570,
      "ீர்": 4571,
      "கொடுத்த": 4572,
      "க்கிர": 4573,
      "இருந்தார்": 4574,
      "வெள்ள": 4575,
      "அதனை": 4576,
      "சாய": 4577,
      "கடந்த": 4578,
      "2000": 4579,
      "த்துவம்": 4580,
      "மாகாண": 4581,
      "ந்தர": 4582,
      "பந்து": 4583,
      "நொ": 4584,
      "ation": 4585,
      "க்கப்பட": 4586,
      "ரொ": 4587,
      "ஸி": 4588,
      "போதும்": 4589,
      "நேரத்தில்": 4590,
      "மடை": 4591,
      "எடு": 4592,
      "உடன்": 4593,
      "விண்": 4594,
      "ரிகள்": 4595,
      "புனி": 4596,
      "ஐரோப்பிய": 4597,
      "id": 4598,
      "உறுதி": 4599,
      "ப்ரவரி": 4600,
      "பாய": 4601,
      "மக்களின்": 4602,
      "வார்கள்": 4603,
      "கூறிய": 4604,
      "ங்களைப்": 4605,
      "சக்தி": 4606,
      "and": 4607,
      "முன்னாள்": 4608,
      "சித்த": 4609,
      "பகுதிகளில்": 4610,
      "என்பவர்": 4611,
      "தாகக்": 4612,
      "கிலோ": 4613,
      "சிறி": 4614,
      "பேசி": 4615,
      "க்கரு": 4616,
      "வெடி": 4617,
      "வண்ண": 4618,
      "ஆதி": 4619,
      "கிமீ": 4620,
      "சீனா": 4621,
      "அறிவு": 4622,
      "உயிர": 4623,
      "கிருஷ்ண": 4624,
      "வைத்": 4625,
      "த்தன": 4626,
      "இஸ்": 4627,
      "ராஜா": 4628,
      "சையில்": 4629,
      "60": 4630,
      "ியான": 4631,
      "போன்றவை": 4632,
      "விழு": 4633,
      "ஹோ": 4634,
      "நெடு": 4635,
      "ஜீ": 4636,
      "ளராக": 4637,
      "பிள்ளை": 4638,
      "அறு": 4639,
      "புள்ளி": 4640,
      "ப்பூ": 4641,
      "உருவாக்கு": 4642,
      "சின்ன": 4643,
      "கதா": 4644,
      "கொலை": 4645,
      "கூட்டு": 4646,
      "st": 4647,
      "ுள்": 4648,
      "த்தைத்": 4649,
      "தந்தை": 4650,
      "ுக்கும்": 4651,
      "போன்றவற்ற": 4652,
      "கான்": 4653,
      "இவர்கள்": 4654,
      "விட்டது": 4655,
      "காந்த": 4656,
      "அவன்": 4657,
      "வதி": 4658,
      "வூ": 4659,
      "போட்டிய": 4660,
      "க்கப்பட்டார்": 4661,
      "அவருடைய": 4662,
      "இவ்வாறு": 4663,
      "நடைபெற்ற": 4664,
      "அவர்களின்": 4665,
      "ட்ஸ்": 4666,
      "ஏற்ற": 4667,
      "ிடம்": 4668,
      "தொலைக்கா": 4669,
      "தியின்": 4670,
      "முடியாது": 4671,
      "வையாக": 4672,
      "வகையான": 4673,
      "பயிற்சி": 4674,
      "க்கண": 4675,
      "டிசம்பர்": 4676,
      "க்கப்": 4677,
      "பெர்": 4678,
      "மிகப்பெ": 4679,
      "கேள்": 4680,
      "வரலாற்ற": 4681,
      "றைய": 4682,
      "இல்ல": 4683,
      "நண்": 4684,
      "னான": 4685,
      "கத": 4686,
      "முதலாவது": 4687,
      "கணினி": 4688,
      "கல்விய": 4689,
      "த்தள": 4690,
      "வளை": 4691,
      "ரன்": 4692,
      "அப்போது": 4693,
      "ஏற்க": 4694,
      "ஆகியோர்": 4695,
      "ச்சே": 4696,
      "இல்லாத": 4697,
      "ந்தர்": 4698,
      "ளின்": 4699,
      "2010": 4700,
      "இடைய": 4701,
      "ஆதர": 4702,
      "ஆண்டுகள்": 4703,
      "பள்ள": 4704,
      "செய்தார்": 4705,
      "சாதன": 4706,
      "நெறி": 4707,
      "கவிதை": 4708,
      "தடு": 4709,
      "வாய்ப்பு": 4710,
      "க்கப்பட்டன": 4711,
      "தீவு": 4712,
      "டக": 4713,
      "மையா": 4714,
      "தொடர்பான": 4715,
      "மாகவும்": 4716,
      "வார்த்த": 4717,
      "லாந்து": 4718,
      "ர்டு": 4719,
      "சர்வதேச": 4720,
      "துரு": 4721,
      "நேர்": 4722,
      "தோடு": 4723,
      "et": 4724,
      "க்குள்": 4725,
      "ப்படுத்து": 4726,
      "அவற்றின்": 4727,
      "லட்ச": 4728,
      "வாக்க": 4729,
      "க்குத்": 4730,
      "மரபு": 4731,
      "நேரம்": 4732,
      "ஆளு": 4733,
      "மகன்": 4734,
      "ர்ச்சி": 4735,
      "இன்னும்": 4736,
      "வைக்": 4737,
      "ளவில்": 4738,
      "189": 4739,
      "ent": 4740,
      "த்தே": 4741,
      "அன்": 4742,
      "ரிட": 4743,
      "மாறி": 4744,
      "ஆண்டின்": 4745,
      "பட்டிய": 4746,
      "மேற்பட்ட": 4747,
      "திரைப்படம்": 4748,
      "அதனால்": 4749,
      "வானது": 4750,
      "ிக்": 4751,
      "2001": 4752,
      "தீவிர": 4753,
      "உயர": 4754,
      "்களும்": 4755,
      "புரா": 4756,
      "பரப்ப": 4757,
      "இயேசு": 4758,
      "ட்டும்": 4759,
      "ஆயிர": 4760,
      "முள்ள": 4761,
      "பருவ": 4762,
      "நம்ப": 4763,
      "ைச்": 4764,
      "மேலா": 4765,
      "80": 4766,
      "ஸ்டா": 4767,
      "க்கொண்டு": 4768,
      "கொண்டார்": 4769,
      "எல்ல": 4770,
      "நவீன": 4771,
      "தேர்வுத்": 4772,
      "எழுத்தாளர்": 4773,
      "மலே": 4774,
      "மேற்கொள்ள": 4775,
      "ப்பாளர்": 4776,
      "நடிகர்": 4777,
      "இடம்பெற்ற": 4778,
      "இயக்கத்தில்": 4779,
      "ஆப்பி": 4780,
      "வடக்கு": 4781,
      "நிகழ்வு": 4782,
      "தன்மை": 4783,
      "ையோ": 4784,
      "முரு": 4785,
      "எதிரான": 4786,
      "ஆற்றல்": 4787,
      "பிக்": 4788,
      "பரிசு": 4789,
      "திரா": 4790,
      "ஸ்வர": 4791,
      "இதழ": 4792,
      "தொழி": 4793,
      "பரவ": 4794,
      "இருக்கலாம்": 4795,
      "மொழிய": 4796,
      "வசதி": 4797,
      "எடுத்த": 4798,
      "ரிக்": 4799,
      "லாமிய": 4800,
      "மேம்ப": 4801,
      "வர்களுக்கு": 4802,
      "விடும்": 4803,
      "ஈழ": 4804,
      "குடியரசு": 4805,
      "கோவில்": 4806,
      "வங்கி": 4807,
      "பொறிய": 4808,
      "இங்கிலாந்து": 4809,
      "தாம்": 4810,
      "லால்": 4811,
      "கொண்டா": 4812,
      "ஜான்": 4813,
      "்சி": 4814,
      "மற்றொரு": 4815,
      "அதிகமான": 4816,
      "ad": 4817,
      "வையும்": 4818,
      "புனித": 4819,
      "பௌ": 4820,
      "நடித்து": 4821,
      "ஆயு": 4822,
      "சந்திர": 4823,
      "விற்க": 4824,
      "காரணம்": 4825,
      "பரிந்து": 4826,
      "உள்ளனர்": 4827,
      "முறையாக": 4828,
      "எல்லை": 4829,
      "மீன்": 4830,
      "ஓவிய": 4831,
      "விளக்க": 4832,
      "ஸ்திரே": 4833,
      "தீர்மான": 4834,
      "தரி": 4835,
      "இடங்களில்": 4836,
      "2003": 4837,
      "ஒன்றாக": 4838,
      "பிரிக்க": 4839,
      "அமில": 4840,
      "பிலி": 4841,
      "ிட்டு": 4842,
      "கணித": 4843,
      "போக்குவர": 4844,
      "க்கர": 4845,
      "குறிக்கும்": 4846,
      "ஏனெ": 4847,
      "்டர்": 4848,
      "ப்பட்டார்": 4849,
      "க்கலை": 4850,
      "மதுரை": 4851,
      "முத்து": 4852,
      "களுக்கான": 4853,
      "க்களின்": 4854,
      "முஸ்": 4855,
      "திக": 4856,
      "பதவி": 4857,
      "அரசின்": 4858,
      "ியன்": 4859,
      "போராட்ட": 4860,
      "அடுத்து": 4861,
      "தந்த": 4862,
      "ஷ்ட": 4863,
      "ஆராய்ச்சி": 4864,
      "ப்பகுதியில்": 4865,
      "நர்": 4866,
      "ரசி": 4867,
      "வற்று": 4868,
      "ஆவது": 4869,
      "த்தலை": 4870,
      "க்கர்": 4871,
      "பெயரில்": 4872,
      "ஒன்றாகும்": 4873,
      "புவிய": 4874,
      "வீழ": 4875,
      "தொகுப்பு": 4876,
      "யான": 4877,
      "பண்ட": 4878,
      "திருத்த": 4879,
      "பொதுவான": 4880,
      "மிகப்பெரிய": 4881,
      "ப்படுவது": 4882,
      "எண்ணிக்கை": 4883,
      "சந்தை": 4884,
      "சேர்ந்து": 4885,
      "இரத்த": 4886,
      "நிறுவனங்கள்": 4887,
      "ரியில்": 4888,
      "அச்சு": 4889,
      "தங்க": 4890,
      "ia": 4891,
      "ிருந்தனர்": 4892,
      "முது": 4893,
      "பெரி": 4894,
      "மிருந்து": 4895,
      "மாற்றி": 4896,
      "வேல": 4897,
      "உர": 4898,
      "ியே": 4899,
      "மொழியில்": 4900,
      "ஏற்": 4901,
      "ப்பிட": 4902,
      "ம்ஸ்": 4903,
      "சொற்க": 4904,
      "பாடல்கள்": 4905,
      "புரிந்து": 4906,
      "எது": 4907,
      "முற்ற": 4908,
      "ஆட்ச": 4909,
      "இடையில்": 4910,
      "க்கெ": 4911,
      "கம்ப": 4912,
      "பயன": 4913,
      "ரான்": 4914,
      "ப்புக்": 4915,
      "திறன்": 4916,
      "தட": 4917,
      "ற்றினார்": 4918,
      "முதன்மை": 4919,
      "என்றால்": 4920,
      "பேரா": 4921,
      "em": 4922,
      "இடையே": 4923,
      "தில்லை": 4924,
      "பயண": 4925,
      "சேர்த்து": 4926,
      "ண்டோ": 4927,
      "கான": 4928,
      "நம்பிக்கை": 4929,
      "ஹ்": 4930,
      "ஆங்கிலேய": 4931,
      "வரா": 4932,
      "ப்பட்டனர்": 4933,
      "வந்தார்": 4934,
      "நிலையம்": 4935,
      "ஃபி": 4936,
      "பொருட்கள்": 4937,
      "முன்னர்": 4938,
      "சாதாரண": 4939,
      "ப்பட்டுள்ளன": 4940,
      "தமிழர்": 4941,
      "பட்டியல்": 4942,
      "இலங்கையின்": 4943,
      "கருதப்படுகிறது": 4944,
      "கேள்வி": 4945,
      "விருப்ப": 4946,
      "ஆண்டுகளுக்கு": 4947,
      "லோக": 4948,
      "பந்த": 4949,
      "தெற்கு": 4950,
      "எதிர்க": 4951,
      "கிறிஸ்த": 4952,
      "விஷ": 4953,
      "||": 4954,
      "பட்ச": 4955,
      "த்திரம்": 4956,
      "ஜனவரி": 4957,
      "பனி": 4958,
      "தொலைக்காட்சி": 4959,
      "கழக": 4960,
      "சால": 4961,
      "இருக்கின்றன": 4962,
      "நூற்றாண்டில்": 4963,
      "மழை": 4964,
      "முதலாம்": 4965,
      "ul": 4966,
      "மரண": 4967,
      "உடை": 4968,
      "மதிப்ப": 4969,
      "ஐரோப்பா": 4970,
      "ஆர்வ": 4971,
      "அமெரிக்காவில்": 4972,
      "ரூராட்சி": 4973,
      "வேதிய": 4974,
      "உதாரண": 4975,
      "சென்": 4976,
      "யாழ்ப்பாண": 4977,
      "Th": 4978,
      "ரியல்": 4979,
      "ஏற": 4980,
      "கொண்டிருக்கும்": 4981,
      "ட்டாக": 4982,
      "பாண்டிய": 4983,
      "மற": 4984,
      "வாய்ந்த": 4985,
      "தியை": 4986,
      "உலகப்": 4987,
      "யே": 4988,
      "தலைமைய": 4989,
      "பயணி": 4990,
      "கொண்டிருக்க": 4991,
      "சூழ்": 4992,
      "பங்க": 4993,
      "தமிழில்": 4994,
      "வழக்கு": 4995,
      "ri": 4996,
      "சமு": 4997,
      "பலரும்": 4998,
      "ட்டார்": 4999,
      "டாது": 5000,
      "வரையறு": 5001,
      "வகி": 5002,
      "முதலிய": 5003,
      "பரிந்துரை": 5004,
      "70": 5005,
      "கோல்": 5006,
      "ண்டர்": 5007,
      "இயந்திர": 5008,
      "கௌ": 5009,
      "ரைக்": 5010,
      "ஒருங்கி": 5011,
      "வாசி": 5012,
      "அனுப": 5013,
      "பண்பு": 5014,
      "வர்த்தக": 5015,
      "திருமணம்": 5016,
      "மாலை": 5017,
      "வங்கா": 5018,
      "இந்தி": 5019,
      "டொ": 5020,
      "குறிப்பிடு": 5021,
      "போதி": 5022,
      "வைப்": 5023,
      "ஆங்கிலம்": 5024,
      "உதவிய": 5025,
      "குண": 5026,
      "கொடுக்க": 5027,
      "விவர": 5028,
      "1990": 5029,
      "ஸின்": 5030,
      "பயன்பாடு": 5031,
      "முதல": 5032,
      "ஆவண": 5033,
      "முன்பு": 5034,
      "த்திற்கான": 5035,
      "்க்": 5036,
      "நீள": 5037,
      "வாழும்": 5038,
      "ற்றை": 5039,
      "வீட்டு": 5040,
      "சதுர": 5041,
      "தங்கள": 5042,
      "ர்களால்": 5043,
      "நப": 5044,
      "ராஜ்": 5045,
      "முந்தைய": 5046,
      "நிறுவனத்தின்": 5047,
      "மாநிலத்தில்": 5048,
      "மாதிரி": 5049,
      "வாங்க": 5050,
      "35": 5051,
      "பத்திரி": 5052,
      "அருகில்": 5053,
      "அத்துடன்": 5054,
      "um": 5055,
      "ருடன்": 5056,
      "தெய்": 5057,
      "திரைப்படமாகும்": 5058,
      "நுண்ண": 5059,
      "த்துப்": 5060,
      "ருக்கும்": 5061,
      "2002": 5062,
      "கிள": 5063,
      "ஊடக": 5064,
      "டுகள்": 5065,
      "த்திற்கும்": 5066,
      "போன": 5067,
      "தன்னுடைய": 5068,
      "எண": 5069,
      "வாகும்": 5070,
      "சத": 5071,
      "னாக": 5072,
      "இசைய": 5073,
      "ர்ட்ட": 5074,
      "மக்கள்தொ": 5075,
      "நூல்கள்": 5076,
      "இல்லாமல்": 5077,
      "நினைவு": 5078,
      "திரை": 5079,
      "உள": 5080,
      "ஒருங்கிணை": 5081,
      "கன்ன": 5082,
      "இத்திரைப்படத்தில்": 5083,
      "கேர": 5084,
      "நுழை": 5085,
      "மிகப்": 5086,
      "அதிகம்": 5087,
      "தலைவராக": 5088,
      "தேர்தல்": 5089,
      "தொழிற்": 5090,
      "சுவாமி": 5091,
      "ஆசிரியர்": 5092,
      "அச்ச": 5093,
      "அழக": 5094,
      "சோவிய": 5095,
      "அரசாங்க": 5096,
      "தொழிலா": 5097,
      "ர்தி": 5098,
      "ஆண்டுகளில்": 5099,
      "சுரு": 5100,
      "இருந்தன": 5101,
      "ag": 5102,
      "க்கூறு": 5103,
      "சியம்": 5104,
      "நிகழ்ச்ச": 5105,
      "மேன்": 5106,
      "ியலாளர்": 5107,
      "31": 5108,
      "ந்தன": 5109,
      "இயற்ப": 5110,
      "கிரேக்க": 5111,
      "மாய": 5112,
      "இந்தத்": 5113,
      "உருவாக்கிய": 5114,
      "ங்க்": 5115,
      "ட்டோ": 5116,
      "தேர்தலில்": 5117,
      "நிலையை": 5118,
      "னல்": 5119,
      "படத்தில்": 5120,
      "நடிகை": 5121,
      "வர்களின்": 5122,
      "சிரியர்": 5123,
      "ஆண்": 5124,
      "அர்": 5125,
      "எதிர்ப்பு": 5126,
      "மகன": 5127,
      "பாட்டை": 5128,
      "கூறினார்": 5129,
      "போன்று": 5130,
      "விற்பனை": 5131,
      "சபை": 5132,
      "அந்": 5133,
      "உட்க": 5134,
      "விளைவு": 5135,
      "ரிக்கை": 5136,
      "ஒன்றிய": 5137,
      "கனடா": 5138,
      "ஆப்": 5139,
      "தொடர்புடைய": 5140,
      "சட்டம்": 5141,
      "ஹை": 5142,
      "எசு": 5143,
      "க்களில்": 5144,
      "அமெரிக்காவின்": 5145,
      "ராம்": 5146,
      "ாகப்": 5147,
      "வருகின்றன": 5148,
      "ப்படுத்திய": 5149,
      "பிரே": 5150,
      "வெவ்": 5151,
      "படைகள்": 5152,
      "இப்போது": 5153,
      "இயற்கை": 5154,
      "அட்ட": 5155,
      "ஜூன்": 5156,
      "எண்ணிக்க": 5157,
      "ஸ்தான்": 5158,
      "தொலைவில்": 5159,
      "நூற்றாண்டின்": 5160,
      "ஆதார": 5161,
      "வைக்க": 5162,
      "ப்பர": 5163,
      "வீரர்": 5164,
      "ரம்பரிய": 5165,
      "ஒது": 5166,
      "தனிய": 5167,
      "விளம்பர": 5168,
      "சென்ன": 5169,
      "டனும்": 5170,
      "ழ்க": 5171,
      "வடை": 5172,
      "ச்சொ": 5173,
      "ஆஸ்திரே": 5174,
      "பற்ற": 5175,
      "பார்த்து": 5176,
      "என்பன": 5177,
      "உத்தர": 5178,
      "மிகுந்த": 5179,
      "இண": 5180,
      "பெரும": 5181,
      "ழல்": 5182,
      "பாரம்பரிய": 5183,
      "செயற்க": 5184,
      "ஸ்டர்": 5185,
      "எனப்": 5186,
      "குறைவான": 5187,
      "வெட்டு": 5188,
      "தேவையான": 5189,
      "இக்க": 5190,
      "நாண": 5191,
      "os": 5192,
      "ம்ம": 5193,
      "எப்படி": 5194,
      "நீங்கள்": 5195,
      "ட்ரோ": 5196,
      "மூன்றாம்": 5197,
      "ர்ந்து": 5198,
      "அடையாள": 5199,
      "மென்": 5200,
      "பரப்பு": 5201,
      "களைச்": 5202,
      "திட்டம்": 5203,
      "ப்படுத்தும்": 5204,
      "முடியாத": 5205,
      "பகுதிகள்": 5206,
      "தண்ட": 5207,
      "மெய்ய": 5208,
      "கரை": 5209,
      "வலிய": 5210,
      "ப்பானிய": 5211,
      "றான": 5212,
      "புகை": 5213,
      "ப்பான்": 5214,
      "ராகவும்": 5215,
      "சாத்திய": 5216,
      "உட்பட": 5217,
      "உள்ளடக்கிய": 5218,
      "பிரெஞ்சு": 5219,
      "அரசியல்வாதி": 5220,
      "ங்களி": 5221,
      "பது": 5222,
      "பத்": 5223,
      "ொலி": 5224,
      "ஞ்": 5225,
      "பாடி": 5226,
      "கடன்": 5227,
      "சமான": 5228,
      "In": 5229,
      "ராக்": 5230,
      "வதன்": 5231,
      "ப்படுத்தி": 5232,
      "கந்த": 5233,
      "கதைகள்": 5234,
      "இதே": 5235,
      "னாதி": 5236,
      "காணப்படுகின்றன": 5237,
      "களா": 5238,
      "உரை": 5239,
      "புதி": 5240,
      "சராசரி": 5241,
      "அடு": 5242,
      "ராய்": 5243,
      "ெய்": 5244,
      "சுற்றி": 5245,
      "இறுதியில்": 5246,
      "நோயா": 5247,
      "இருந்தாலும்": 5248,
      "%)": 5249,
      "கணக்கெடு": 5250,
      "பேசு": 5251,
      "ஞர்கள்": 5252,
      "தன்னை": 5253,
      "பாடிய": 5254,
      "நகை": 5255,
      "ஜூலை": 5256,
      "லைப்": 5257,
      "செயற்": 5258,
      "நிறைவே": 5259,
      "வெண்": 5260,
      "சனம்": 5261,
      "படிய": 5262,
      "முன்ப": 5263,
      "அவர்களது": 5264,
      "ந்தில்": 5265,
      "188": 5266,
      "பெண்ண": 5267,
      "உங்கள்": 5268,
      "குற": 5269,
      "இராம": 5270,
      "முன்னேற்ற": 5271,
      "பதவிய": 5272,
      "மக": 5273,
      "சோவியத்": 5274,
      "ra": 5275,
      "சகோதர": 5276,
      "ஏழு": 5277,
      "ழிய": 5278,
      "ச்சார": 5279,
      "ல்லிய": 5280,
      "வாகன": 5281,
      "அய": 5282,
      "திரி": 5283,
      "ாமல்": 5284,
      "கிடைக்கும்": 5285,
      "உயர்ந்த": 5286,
      "சமயம்": 5287,
      "த்தன்": 5288,
      "முஸ்லி": 5289,
      "களி": 5290,
      "விலான": 5291,
      "அண்ட்": 5292,
      "புற்று": 5293,
      "தளம்": 5294,
      "ப்படவில்லை": 5295,
      "உயிரின": 5296,
      "பூர்வ": 5297,
      "ஸ்தான": 5298,
      "வாயு": 5299,
      "ிருக்கிறார்": 5300,
      "45": 5301,
      "தனிப்பட்ட": 5302,
      "இலங்கையில்": 5303,
      "சுய": 5304,
      "மூன்றாவது": 5305,
      "க்குக்": 5306,
      "அடிப்படையாக": 5307,
      "சிங்": 5308,
      "இப்பட": 5309,
      "லத்தில்": 5310,
      "போட்டிகளில்": 5311,
      "பரவலாக": 5312,
      "ன்கு": 5313,
      "ஏனெனில்": 5314,
      "ிறு": 5315,
      "1980": 5316,
      "பிள்": 5317,
      "யார்": 5318,
      "மனைவி": 5319,
      "விளக்கு": 5320,
      "னாலும்": 5321,
      "ig": 5322,
      "ரைப்": 5323,
      "மீதான": 5324,
      "பிறந்தார்": 5325,
      "பகி": 5326,
      "லியம்": 5327,
      "னீ": 5328,
      "குறியீடு": 5329,
      "1999": 5330,
      "ப்பதற்காக": 5331,
      "இத்தகைய": 5332,
      "லகம்": 5333,
      "காண்": 5334,
      "லாய": 5335,
      "அழைக்கப்படுகிறது": 5336,
      "டிக்": 5337,
      "வெவ்வேறு": 5338,
      "ter": 5339,
      "ையு": 5340,
      "போட்டிகளிலும்": 5341,
      "செயலா": 5342,
      "கண்": 5343,
      "இருந்தால்": 5344,
      "வங்காள": 5345,
      "சனை": 5346,
      "பேச்சு": 5347,
      "பயோ": 5348,
      "திராவிட": 5349,
      "குண்டு": 5350,
      "கலி": 5351,
      "கிட்ட": 5352,
      "பின்வரு": 5353,
      "பொருத்த": 5354,
      "குறைவாக": 5355,
      "அணியின்": 5356,
      "நிறுத்த": 5357,
      "வார்த்தை": 5358,
      "பயன்படுத்தப்படுகிறது": 5359,
      "கண்டி": 5360,
      "ளில்": 5361,
      "ரிடம்": 5362,
      "பிளா": 5363,
      "ண்க": 5364,
      "புரோ": 5365,
      "சினி": 5366,
      "கடற்க": 5367,
      "சொன்ன": 5368,
      "உதவு": 5369,
      "மைகள்": 5370,
      "II": 5371,
      "ரியின்": 5372,
      "ஆகஸ்ட்": 5373,
      "ப்பாட்டு": 5374,
      "இயங்கு": 5375,
      "வாழ்ந்த": 5376,
      "ுக்கான": 5377,
      "த்தன்மை": 5378,
      "இதுவே": 5379,
      "90": 5380,
      "the": 5381,
      "பஞ்ச": 5382,
      "அண்ணா": 5383,
      "....": 5384,
      "ஆகியவற்றை": 5385,
      "நட்ச": 5386,
      "நெரு": 5387,
      "என்கிற": 5388,
      "சட்டமன்றத்": 5389,
      "ளூ": 5390,
      "செய்யப்பட்டது": 5391,
      "கண்டறிய": 5392,
      "இத்தாலிய": 5393,
      "ir": 5394,
      "இரண்ட": 5395,
      "பாட்டில்": 5396,
      "ph": 5397,
      "எக்ஸ்": 5398,
      "அவர்களுக்கு": 5399,
      "கவு": 5400,
      "தெற்க": 5401,
      "நான்கா": 5402,
      "ாகி": 5403,
      "அம்ச": 5404,
      "செலுத்த": 5405,
      "லும்பு": 5406,
      "தற்போ": 5407,
      "க்காரர்": 5408,
      "வகைகள்": 5409,
      "ஸ்கோ": 5410,
      "கடைசி": 5411,
      "தண்ண": 5412,
      "முர": 5413,
      "ஞ்சல்": 5414,
      "கண்டறி": 5415,
      "பகுதியாக": 5416,
      "ிலை": 5417,
      "கொழும்": 5418,
      "2018": 5419,
      "குல": 5420,
      "நகராட்சி": 5421,
      "ையாளர்": 5422,
      "உறவு": 5423,
      "பல்கலைக்கழகம்": 5424,
      "கீழே": 5425,
      "அழைக்கப்படும்": 5426,
      "உலகம்": 5427,
      "ஒப்பு": 5428,
      "கற்க": 5429,
      "ாகக்": 5430,
      "நாதன்": 5431,
      "விளங்கு": 5432,
      "ec": 5433,
      "தெலு": 5434,
      "பல்ல": 5435,
      "கேட்ட": 5436,
      "உலகில்": 5437,
      "செய்தது": 5438,
      "காணப்படுகிறது": 5439,
      "ஆனது": 5440,
      "நாத": 5441,
      "பயணம்": 5442,
      "ரீதியாக": 5443,
      "கற்ப": 5444,
      "க்கலாம்": 5445,
      "டூ": 5446,
      "களான": 5447,
      "ப்பிடி": 5448,
      "தேர்ந்தெடு": 5449,
      "செல்க": 5450,
      "சான்": 5451,
      "ப்படுகிறார்": 5452,
      "பாத": 5453,
      "\",": 5454,
      "த்துள்ளது": 5455,
      "யிற்று": 5456,
      "இவருக்கு": 5457,
      "=\"": 5458,
      "இனி": 5459,
      "வேளை": 5460,
      "நெட்": 5461,
      "த்திலேயே": 5462,
      "இன்றைய": 5463,
      "மங்க": 5464,
      "ரியம்": 5465,
      "நாயக": 5466,
      "காற்று": 5467,
      "கைப்பற்ற": 5468,
      "ப்பள்ளி": 5469,
      "காந்தி": 5470,
      "கோண": 5471,
      "டியில்": 5472,
      "கேட்க": 5473,
      "உயிரிழ": 5474,
      "எடுத்துக்காட்டாக": 5475,
      "நெல்": 5476,
      "ப்புகளை": 5477,
      "அரை": 5478,
      "இதய": 5479,
      "த்தினை": 5480,
      "நடிக": 5481,
      "சிலர்": 5482,
      "39": 5483,
      "வெளியீடு": 5484,
      "த்திலுள்ள": 5485,
      "ரிமை": 5486,
      "கிளை": 5487,
      "பங்களி": 5488,
      "ஆப": 5489,
      "நடத்திய": 5490,
      "கொள்ளும்": 5491,
      "லியல்": 5492,
      "அக்": 5493,
      "1998": 5494,
      "எனக்கு": 5495,
      "மின": 5496,
      "கொடுத்து": 5497,
      "வளவு": 5498,
      "வீத": 5499,
      "இருப்பது": 5500,
      "அழுத்த": 5501,
      "ர்கா": 5502,
      "og": 5503,
      "பட்டது": 5504,
      "க்கீ": 5505,
      "நாட்கள்": 5506,
      "காதல்": 5507,
      "பிரதமர்": 5508,
      "சிங்கள": 5509,
      "இந்தியத்": 5510,
      "பொறியியல்": 5511,
      "75": 5512,
      "ிழ": 5513,
      "ிலிருந்த": 5514,
      "கிடைக்க": 5515,
      "வூர்": 5516,
      "ந்தின்": 5517,
      "நடைமுறை": 5518,
      "காத": 5519,
      "வாங்கி": 5520,
      "கோடி": 5521,
      "ப்பூர்வ": 5522,
      "நண்ப": 5523,
      "ுறு": 5524,
      "்த்து": 5525,
      "ணர்": 5526,
      "தரும்": 5527,
      "செயல்பாடு": 5528,
      "உருவாக்கப்பட்ட": 5529,
      "od": 5530,
      "சக்கர": 5531,
      "கோள": 5532,
      "oc": 5533,
      "ங்கில்": 5534,
      "மீட்ட": 5535,
      "தம்ப": 5536,
      "ங்களுடன்": 5537,
      "ay": 5538,
      "186": 5539,
      "கண்கா": 5540,
      "்துறை": 5541,
      "ற்பு": 5542,
      "என்றழை": 5543,
      "அவற்றை": 5544,
      "கிறித்த": 5545,
      "ரைய": 5546,
      "தாரம்": 5547,
      "விகித": 5548,
      "ப்பம்": 5549,
      "ப்புப்": 5550,
      "வருமான": 5551,
      "த்திற்காக": 5552,
      "ர்க்கு": 5553,
      "மண்": 5554,
      "மேல": 5555,
      ".\"": 5556,
      "த்துள்ளார்": 5557,
      "வரான": 5558,
      "திருமண": 5559,
      "சரியான": 5560,
      "வீதம்": 5561,
      "எடுக்க": 5562,
      "கருது": 5563,
      "முறையை": 5564,
      "ஒத்த": 5565,
      "பசு": 5566,
      "தொடங்கியது": 5567,
      "கோவி": 5568,
      "அதன": 5569,
      "ிலே": 5570,
      "மாறிய": 5571,
      "வேல்": 5572,
      "பாக்கி": 5573,
      "உரோ": 5574,
      "க்குச்": 5575,
      "திசை": 5576,
      "வேளா": 5577,
      "36": 5578,
      "க்கவும்": 5579,
      "பட்டம்": 5580,
      "வால": 5581,
      "குமா": 5582,
      "விசை": 5583,
      "தற்போதைய": 5584,
      "ந்தும்": 5585,
      "வீடியோ": 5586,
      "லுள்ள": 5587,
      "பாகி": 5588,
      "மேலாண்மை": 5589,
      "போக்குவரத்து": 5590,
      "தத்துவ": 5591,
      "எட்டு": 5592,
      "வடிவம்": 5593,
      "ர்ஸ்": 5594,
      "பத்தில்": 5595,
      "எச்": 5596,
      "க்கப்படு": 5597,
      "ங்களால்": 5598,
      "பிரச்சினை": 5599,
      "இப்படி": 5600,
      "த்தினால்": 5601,
      "குழந்தைகள்": 5602,
      "போரில்": 5603,
      "உண்மை": 5604,
      "பாரி": 5605,
      "இசையமை": 5606,
      "நேரடியாக": 5607,
      "வாதம்": 5608,
      "வழங்கும்": 5609,
      "பதிலாக": 5610,
      "பேரரசு": 5611,
      "ht": 5612,
      "ஆகியவற்றின்": 5613,
      "32": 5614,
      "தென்னி": 5615,
      "விட்டார்": 5616,
      "வரால்": 5617,
      "திரும்ப": 5618,
      "இறந்த": 5619,
      "மங்கள்": 5620,
      "மென்பொருள்": 5621,
      "சிதை": 5622,
      "வள்ள": 5623,
      "புரட்சி": 5624,
      "1996": 5625,
      "ஸில்": 5626,
      "செயல்த": 5627,
      "2013": 5628,
      "நாட்டுப்": 5629,
      "மக்களுக்கு": 5630,
      "கட்டமை": 5631,
      "ையால்": 5632,
      "ஒருநாள்": 5633,
      "2014": 5634,
      "ஆழ": 5635,
      "ஏற்படு": 5636,
      "படுத்து": 5637,
      "ெடுத்த": 5638,
      "ல்களின்": 5639,
      "ின்று": 5640,
      "ல்கா": 5641,
      "லின": 5642,
      "ஏனைய": 5643,
      "பியா": 5644,
      "என்பதால்": 5645,
      "ஒன்றை": 5646,
      "க்குரிய": 5647,
      "பலர்": 5648,
      "அணை": 5649,
      "வெற்றிய": 5650,
      "பவர்": 5651,
      "இலக்கு": 5652,
      "த்திரை": 5653,
      "போலவே": 5654,
      "எவ்வாறு": 5655,
      "காங்கிரஸ்": 5656,
      "அன்ற": 5657,
      "தயாரிக்க": 5658,
      "காவல": 5659,
      "சரியாக": 5660,
      "முன்னணி": 5661,
      "அடங்கும்": 5662,
      "மையும்": 5663,
      "விஜய": 5664,
      "ஃபோ": 5665,
      "ப்படுத்தப்பட்ட": 5666,
      "வசி": 5667,
      "உறுப்பு": 5668,
      "மேற்கொண்ட": 5669,
      "கேட்டு": 5670,
      "2012": 5671,
      "மரா": 5672,
      "வயதில்": 5673,
      "ெல்லாம்": 5674,
      "பெல்": 5675,
      "கோட்ட": 5676,
      "அறிக்கை": 5677,
      "கட்சியின்": 5678,
      "ஆசியா": 5679,
      "லைக்": 5680,
      "அலெ": 5681,
      "கடவுள்": 5682,
      "தோல்விய": 5683,
      "அப்பா": 5684,
      "இளை": 5685,
      "அங்கீ": 5686,
      "க்கிட": 5687,
      "மிழ": 5688,
      "மலர்": 5689,
      "உலோக": 5690,
      "மாள்": 5691,
      "தொடங்கி": 5692,
      "சிறப்பாக": 5693,
      "காரணி": 5694,
      "முன": 5695,
      "விளைவாக": 5696,
      "ங்கொ": 5697,
      "விடம்": 5698,
      "லிக்க": 5699,
      "சேமி": 5700,
      "நியமி": 5701,
      "ஜெர்மானிய": 5702,
      "அனுப்ப": 5703,
      "சுற்றுலா": 5704,
      "செலவு": 5705,
      "அக்க": 5706,
      "கலைஞர்": 5707,
      "தூர": 5708,
      "விழி": 5709,
      "வைகள்": 5710,
      "நாடுகளின்": 5711,
      "எல்லாம்": 5712,
      "ுமி": 5713,
      "வாச": 5714,
      "நெருக்க": 5715,
      "ையிலும்": 5716,
      "38": 5717,
      "ஆணைய": 5718,
      "படுகிறது": 5719,
      "கைது": 5720,
      "முன்னோ": 5721,
      "டிகள்": 5722,
      "ஒளிய": 5723,
      "ஞ்சிய": 5724,
      "வானூ": 5725,
      "கழகம்": 5726,
      "ட்டல்": 5727,
      "ஒட்டு": 5728,
      "சமா": 5729,
      "செய்திகள்": 5730,
      "தேர்": 5731,
      "தற்கால": 5732,
      "அடிக்க": 5733,
      "மரியா": 5734,
      "விண்ண": 5735,
      "நடித்தார்": 5736,
      "உடன": 5737,
      "பொருட்களை": 5738,
      "ஊர்": 5739,
      "சுற்ற": 5740,
      "மேம்": 5741,
      "இவரின்": 5742,
      "கோட்டை": 5743,
      "ஏறத்தா": 5744,
      "க்காலத்தில்": 5745,
      "எகி": 5746,
      "ஹே": 5747,
      "ப்புக்கு": 5748,
      "ிருக்கலாம்": 5749,
      "வெளியிடப்பட்டது": 5750,
      "500": 5751,
      "முதலீ": 5752,
      "மிழ்": 5753,
      "பேருந்து": 5754,
      "வேதி": 5755,
      "தைக்": 5756,
      "விடுதலைப்": 5757,
      "நாணய": 5758,
      "க்கப்பட்டுள்ளன": 5759,
      "அவள்": 5760,
      "மக்களை": 5761,
      "வாழ்க": 5762,
      "வெள்ளி": 5763,
      "ப்பட்டுள்ள": 5764,
      "அனைத்தும்": 5765,
      "1970": 5766,
      "உரிய": 5767,
      "கவனி": 5768,
      "அலகு": 5769,
      "ையைச்": 5770,
      "ையைத்": 5771,
      "கழு": 5772,
      "வித்தியா": 5773,
      "ர்களிடம்": 5774,
      "ாய்": 5775,
      "ரும்பு": 5776,
      "இளம்": 5777,
      "சிந்த": 5778,
      "48": 5779,
      "பண்டைய": 5780,
      "சொத்து": 5781,
      "1997": 5782,
      "கவன": 5783,
      "பணம்": 5784,
      "பவு": 5785,
      "தனியார்": 5786,
      "னவே": 5787,
      "ண்டன்": 5788,
      "க்களும்": 5789,
      "தலாக": 5790,
      "வர்களில்": 5791,
      "இரட்டை": 5792,
      "185": 5793,
      "சப": 5794,
      "கடின": 5795,
      "அல்லா": 5796,
      "விக்": 5797,
      "இருவரும்": 5798,
      "குறிப்பிடத்தக்கது": 5799,
      "ப்பிரி": 5800,
      "த்தளம்": 5801,
      "பௌத்த": 5802,
      "ஏற்பட": 5803,
      "்டு": 5804,
      "இரவு": 5805,
      "ச்சூ": 5806,
      "விலிருந்து": 5807,
      "அட்": 5808,
      "ப்படாத": 5809,
      "மூர்த்தி": 5810,
      "பூங்கா": 5811,
      "ரியும்": 5812,
      "ப்பாட": 5813,
      "ப்பொருள்": 5814,
      "திட்டமி": 5815,
      "ஏற்பட்டது": 5816,
      "சமீ": 5817,
      "பஞ்சா": 5818,
      "சம்பந்த": 5819,
      "க்கிற": 5820,
      "னைப்": 5821,
      "பேரூராட்சி": 5822,
      "சமுதாய": 5823,
      "உறுப்பினர்": 5824,
      "ங்கல்": 5825,
      "ிடு": 5826,
      "அந்தப்": 5827,
      "மாகப்": 5828,
      "ியைக்": 5829,
      "தயாரிப்பு": 5830,
      "நேச": 5831,
      "லிங்க": 5832,
      "களாகும்": 5833,
      "தெரு": 5834,
      "வர்களை": 5835,
      "மரபண": 5836,
      "தோன்றிய": 5837,
      "நாளில்": 5838,
      "விச": 5839,
      "பதிப்ப": 5840,
      "ஜனாதி": 5841,
      "கட்டத்தில்": 5842,
      "tic": 5843,
      "உணர்வு": 5844,
      "காட்டிலும்": 5845,
      "ஸ்டீ": 5846,
      "1994": 5847,
      "1960": 5848,
      "ஆதரவு": 5849,
      "கடற்ப": 5850,
      "தேவி": 5851,
      "நேரங்களில்": 5852,
      "நோயாளி": 5853,
      "கொல": 5854,
      "மஞ்ச": 5855,
      "tr": 5856,
      "பெப்ரவரி": 5857,
      "ந்திரன்": 5858,
      "கூடுதல்": 5859,
      "ிற்கான": 5860,
      "உண்மையான": 5861,
      "அலுவலக": 5862,
      "திரும்பி": 5863,
      "ளும்": 5864,
      "ட்சியில்": 5865,
      "ஏறத்தாழ": 5866,
      "கணக்கெடுப்பின்": 5867,
      "மாய்": 5868,
      "op": 5869,
      "te": 5870,
      "ிருந்தன": 5871,
      "இசுலாமிய": 5872,
      "நைட்": 5873,
      "மிரு": 5874,
      "வெப்பநிலை": 5875,
      "றையில்": 5876,
      "பயன்படுத்தப்படும்": 5877,
      "மரி": 5878,
      "செவ்": 5879,
      "1991": 5880,
      "களுக்காக": 5881,
      "com": 5882,
      "இயக்கம்": 5883,
      "ஆக்க": 5884,
      "இப்ப": 5885,
      "ற்பி": 5886,
      "குறிப்பு": 5887,
      "காம்": 5888,
      "பென்": 5889,
      "திரைப்படங்கள்": 5890,
      "செயற்கை": 5891,
      "காப்ப": 5892,
      "187": 5893,
      "உயிரணு": 5894,
      "ஸா": 5895,
      "ட்டுகள்": 5896,
      "வெள்ளை": 5897,
      "தகு": 5898,
      "மகள்": 5899,
      "மலா": 5900,
      "சாம்ப": 5901,
      "நட்சத்திர": 5902,
      "33": 5903,
      "ானா": 5904,
      "பாதை": 5905,
      "வைச்": 5906,
      "என்றாலும்": 5907,
      "முயற்சிய": 5908,
      "வரே": 5909,
      "ல்களும்": 5910,
      "ஒழுங்கு": 5911,
      "ஜிய": 5912,
      "இராச்சிய": 5913,
      "Ch": 5914,
      "பயன்படு": 5915,
      "ஈடுபட்ட": 5916,
      "காரம்": 5917,
      "ஸ்டு": 5918,
      "சூன்": 5919,
      "1995": 5920,
      "முழுமையாக": 5921,
      "அத": 5922,
      "வழங்கப்பட்டது": 5923,
      "எடுத்துக்": 5924,
      "இயல்பு": 5925,
      "சனவரி": 5926,
      "வீரர்கள்": 5927,
      "அத்த": 5928,
      "உறுப்பினர்கள்": 5929,
      "கொழு": 5930,
      "புகழ்பெற்ற": 5931,
      "த்தட்ட": 5932,
      "பாளைய": 5933,
      "ெடுக்க": 5934,
      "அதிகரிக்க": 5935,
      "தாக்குத": 5936,
      "ட்டிக்": 5937,
      "வருக்கு": 5938,
      "அளவுக்கு": 5939,
      "வரவே": 5940,
      "ானி": 5941,
      "அறிந்து": 5942,
      "இல்லா": 5943,
      "விகிதம்": 5944,
      "99": 5945,
      "ஒப்பி": 5946,
      "திர்": 5947,
      "சினிமா": 5948,
      "டனான": 5949,
      "பர்ட்": 5950,
      "எச்ச": 5951,
      "க்கல": 5952,
      "அறிவிய": 5953,
      "வடிவமைப்பு": 5954,
      "களிலிருந்து": 5955,
      "கோட்பாடு": 5956,
      "உருவ": 5957,
      "பயன்படுத்தும்": 5958,
      "இக்": 5959,
      "அபி": 5960,
      "ஆலோ": 5961,
      "மினி": 5962,
      "க்கத்தில்": 5963,
      "விதை": 5964,
      "திருச்ச": 5965,
      "இக்கோ": 5966,
      "ச்செய": 5967,
      "எஃப்": 5968,
      "சொல்லி": 5969,
      "பின்வருமாறு": 5970,
      "த்தொகு": 5971,
      "க்சா": 5972,
      "எலும்பு": 5973,
      "க்ட": 5974,
      "ட்டன்": 5975,
      "ஒன்ப": 5976,
      "ப்புத்": 5977,
      "சிறுவ": 5978,
      "கட்டுரைகள்": 5979,
      "ஏன்": 5980,
      "வேத": 5981,
      "போதிலும்": 5982,
      "உபயோ": 5983,
      "க்காமல்": 5984,
      "மருத்து": 5985,
      "மரபணு": 5986,
      "பயன்படும்": 5987,
      "சூலை": 5988,
      "வானூர்தி": 5989,
      "சாதி": 5990,
      "ர்த்": 5991,
      "பகுப்பா": 5992,
      "ஸ்கா": 5993,
      "பிணை": 5994,
      "மைக்ரோ": 5995,
      "சுத்த": 5996,
      "வானொலி": 5997,
      "ஆசிய": 5998,
      "ப்பால்": 5999,
      "பாலி": 6000,
      "சிற்ற": 6001,
      "சிவா": 6002,
      "தீர்மானி": 6003,
      "கிட்டத்தட்ட": 6004,
      "34": 6005,
      "1989": 6006,
      "பாக்": 6007,
      "கண்ணா": 6008,
      "ap": 6009,
      "சிக்": 6010,
      "நாட்டை": 6011,
      "அறிகுறி": 6012,
      "பாறை": 6013,
      "ராள": 6014,
      "இவ்வா": 6015,
      "ர்த்தா": 6016,
      "ூறு": 6017,
      "வைர": 6018,
      "ப்பைக்": 6019,
      "ஓர": 6020,
      "மெய்": 6021,
      "சிறை": 6022,
      "மொழிகள்": 6023,
      "அதிகாரி": 6024,
      "இச்ச": 6025,
      "வேர்": 6026,
      "க்கிழ": 6027,
      "அங்கே": 6028,
      "தக": 6029,
      "அமைப்புகள்": 6030,
      "மாநிலத்தின்": 6031,
      "தழு": 6032,
      "திரைப்படத்தில்": 6033,
      "பிரபலமான": 6034,
      "பிப்ரவரி": 6035,
      "நடந்து": 6036,
      "கொண்டுள்ளார்": 6037,
      "அவு": 6038,
      "யூனி": 6039,
      "வற்றை": 6040,
      "வலைய": 6041,
      "தெய்வ": 6042,
      "37": 6043,
      "குமார்": 6044,
      "அப": 6045,
      "அமைந்தது": 6046,
      "2015": 6047,
      "நடன": 6048,
      "ணியில்": 6049,
      "ோன்": 6050,
      "கிறான்": 6051,
      "பார்வை": 6052,
      "நன்கு": 6053,
      "ையிலான": 6054,
      "ரையும்": 6055,
      "ொன்ற": 6056,
      "படிக்க": 6057,
      "ஆஸ்திரேலியா": 6058,
      "பக்கம்": 6059,
      "சமன்": 6060,
      "தாக்குதல்": 6061,
      "குர": 6062,
      "உள்ளூர்": 6063,
      "சப்": 6064,
      "நிதிய": 6065,
      "அடையாளம்": 6066,
      "அட்டை": 6067,
      "இங்கே": 6068,
      "பிரதிநிதி": 6069,
      "வண்டி": 6070,
      "ையானது": 6071,
      "மாறாக": 6072,
      "ெட்": 6073,
      "விவசா": 6074,
      "வெல்": 6075,
      "குளோ": 6076,
      "ரையில்": 6077,
      "தைப்": 6078,
      "கிட": 6079,
      "பராம": 6080,
      "ப்பிற்கு": 6081,
      "கட்டமைப்பு": 6082,
      "The": 6083,
      "லூர்": 6084,
      "ஹீ": 6085,
      "நீல": 6086,
      "கட்டுப்பாடு": 6087,
      "முடைய": 6088,
      "மாகிய": 6089,
      "வழங்கிய": 6090,
      "உருவாக்கப்பட்டது": 6091,
      "உண்மையில்": 6092,
      "எழுது": 6093,
      "வகுப்பு": 6094,
      "மாதிரிய": 6095,
      "நிலையான": 6096,
      "மருத்துவம்": 6097,
      "ற்றும்": 6098,
      "ினம்": 6099,
      "ற்றல்": 6100,
      "ப்பய": 6101,
      "சும்": 6102,
      "வரையில்": 6103,
      "பொறி": 6104,
      "பிரதான": 6105,
      "ரீதியான": 6106,
      "இன்னொரு": 6107,
      "ப்பணி": 6108,
      "மிக்": 6109,
      "ஸ்டி": 6110,
      "இவற்றில்": 6111,
      "ன்படி": 6112,
      "செய்வது": 6113,
      "1992": 6114,
      "மேம்படுத்த": 6115,
      "ாகவே": 6116,
      "ின்றார்": 6117,
      "வாடிக்க": 6118,
      "பழங்கு": 6119,
      "க்குறி": 6120,
      "சாதனை": 6121,
      "முக்கியத்துவம்": 6122,
      "சிம்": 6123,
      "அமைச்சர்": 6124,
      "வேதியியல்": 6125,
      "ங்களுக்கும்": 6126,
      "கொண்டுள்ளன": 6127,
      "தக்க": 6128,
      "ஆக்சி": 6129,
      "த்தூர்": 6130,
      "காம": 6131,
      "சிலா": 6132,
      "இளைய": 6133,
      "புள்ள": 6134,
      "ணன்": 6135,
      "மகி": 6136,
      "உள்ளார்": 6137,
      "ியைப்": 6138,
      "ta": 6139,
      "குடியேற்ற": 6140,
      "நார்": 6141,
      "நிலைப்": 6142,
      "தற்கும்": 6143,
      "அமைதி": 6144,
      "வரலாற்றில்": 6145,
      "வருக்கும்": 6146,
      "ப்படலாம்": 6147,
      "யார்க்": 6148,
      "வழியில்": 6149,
      "தலைமையில்": 6150,
      "ஆய்வா": 6151,
      "அப்போ": 6152,
      "அவரின்": 6153,
      "க்கின்": 6154,
      "ம்பே": 6155,
      "ராஜன்": 6156,
      "ஐந்தா": 6157,
      "ஹொ": 6158,
      "க்கப்படுகின்றன": 6159,
      "விஸ்": 6160,
      "உற்பத்திய": 6161,
      "செயல்திற": 6162,
      "க்கிறார்": 6163,
      "இடது": 6164,
      "பின்பு": 6165,
      "டாக்டர்": 6166,
      "பற்று": 6167,
      "ஏற்றுக்கொள்ள": 6168,
      "ர்கு": 6169,
      "ட்பட்ட": 6170,
      "தெரியா": 6171,
      "வருகின்றனர்": 6172,
      "காலை": 6173,
      "இதன": 6174,
      "மாற்றிய": 6175,
      "ik": 6176,
      "்க்கு": 6177,
      "நாராய": 6178,
      "கொண்டிருந்தது": 6179,
      "க்கூடும்": 6180,
      "மண்ண": 6181,
      "தொடங்கிய": 6182,
      "வழங்கி": 6183,
      "ங்களைத்": 6184,
      "குவா": 6185,
      "கங்கள்": 6186,
      "ஆத்திர": 6187,
      "மகிழ": 6188,
      "கண்காணி": 6189,
      "தகுதி": 6190,
      "க்கக்": 6191,
      "தோற்க": 6192,
      "தொடங்கினார்": 6193,
      "அசோ": 6194,
      "த்தவர்": 6195,
      "டின்": 6196,
      "மீன": 6197,
      "தானிய": 6198,
      "கலாச்சார": 6199,
      "மார்க": 6200,
      "திருச்சி": 6201,
      "iv": 6202,
      "இணைப்பு": 6203,
      "மூலக்கூறு": 6204,
      "அடிக்கடி": 6205,
      "உண்டா": 6206,
      "இசைக்குழு": 6207,
      "நம்பிக்க": 6208,
      "சண்டை": 6209,
      "ரியோ": 6210,
      "மன்னர்": 6211,
      "குடா": 6212,
      "புவி": 6213,
      "தாம": 6214,
      "மாணவர்கள்": 6215,
      "கவர்": 6216,
      "பெயரை": 6217,
      "வேறுபாடு": 6218,
      "சட": 6219,
      "எதுவும்": 6220,
      "மியா": 6221,
      "ட்பா": 6222,
      "படங்கள்": 6223,
      "வலியுறு": 6224,
      "்தா": 6225,
      "மையின்": 6226,
      "முன்னே": 6227,
      "கத்தோ": 6228,
      "நோபல்": 6229,
      "கணே": 6230,
      "சக்த": 6231,
      "தெலுங்கு": 6232,
      "னைக்": 6233,
      "சைவ": 6234,
      "அறிமுகப்படுத்த": 6235,
      "ப்பீ": 6236,
      "வெளியில்": 6237,
      "கொல்லப்பட்டனர்": 6238,
      "வருடம்": 6239,
      "குட": 6240,
      "அடிப்படையாகக்": 6241,
      "காற்ற": 6242,
      "ற்பகு": 6243,
      "குரல்": 6244,
      "ரம்பு": 6245,
      "ஆகியவற்றில்": 6246,
      "ையிலிருந்து": 6247,
      "சண்ட": 6248,
      "நம": 6249,
      "ட்கள்": 6250,
      "பூம": 6251,
      "மனம்": 6252,
      "ரூபாய்": 6253,
      "செல்வ": 6254,
      "புராண": 6255,
      "வினர்": 6256,
      "ஆய்வுகள்": 6257,
      "இராகம்": 6258,
      "இப்": 6259,
      "முனி": 6260,
      "விரும்பி": 6261,
      "தடுக்க": 6262,
      "வரிசையில்": 6263,
      "நிகழ்த்த": 6264,
      "எழுதப்பட்ட": 6265,
      "பன்னாட்டுத்": 6266,
      "ஆயிரம்": 6267,
      "அண்ட": 6268,
      "மேள": 6269,
      "இந்தியப்": 6270,
      "சுந்தர": 6271,
      "காணலாம்": 6272,
      "இவரை": 6273,
      "ர்களாக": 6274,
      "தொடருந்து": 6275,
      "ஆகியன": 6276,
      "நடைபெறும்": 6277,
      "அரிய": 6278,
      "மொத்தம்": 6279,
      "49": 6280,
      "அடுக்கு": 6281,
      "காட்டி": 6282,
      "தியும்": 6283,
      "விவசாய": 6284,
      "ஜன்": 6285,
      "அமையும்": 6286,
      "பாடல்களை": 6287,
      "ள்கள்": 6288,
      "நடத்தி": 6289,
      "தங்களது": 6290,
      "அப்படி": 6291,
      "ஆனாலும்": 6292,
      "அதிகாரப்பூர்வ": 6293,
      "வேண்டுமெ": 6294,
      "செய்யப்படும்": 6295,
      "விமர்சன": 6296,
      "மக்கள்தொகை": 6297,
      "முதலாக": 6298,
      "விண்வெளி": 6299,
      "வெளியான": 6300,
      "இளவர": 6301,
      "2016": 6302,
      "வர்களும்": 6303,
      "த்தீன்": 6304,
      "எப்போ": 6305,
      "நகரின்": 6306,
      "சங்கம்": 6307,
      "சீர": 6308,
      "1993": 6309,
      "பெருங்க": 6310,
      "யூத": 6311,
      "ce": 6312,
      "மார்க்": 6313,
      "ந்துள்ளது": 6314,
      "என்றார்": 6315,
      "தற்கா": 6316,
      "களே": 6317,
      "ப்படுத்துவ": 6318,
      "தலைநகர": 6319,
      "47": 6320,
      "டினார்": 6321,
      "1வது": 6322,
      "im": 6323,
      "அப்": 6324,
      "ொள்ள": 6325,
      "மித": 6326,
      "இதுவரை": 6327,
      "அணிய": 6328,
      "1984": 6329,
      "தோற்றம்": 6330,
      "விண்டோ": 6331,
      "டிவி": 6332,
      "புனை": 6333,
      "பில்லியன்": 6334,
      "ஃபெ": 6335,
      "குவி": 6336,
      "பின்வரும்": 6337,
      "வதற்கும்": 6338,
      "துறைமுக": 6339,
      "கல்லூரியில்": 6340,
      "பெரிதும்": 6341,
      "்டன்": 6342,
      "ஏற்கனவே": 6343,
      "நபர்": 6344,
      "அந்தக்": 6345,
      "கிளா": 6346,
      "தென்க": 6347,
      "துடுப்பாட்டக்காரர்": 6348,
      "இவருடைய": 6349,
      "டத்தில்": 6350,
      "சுவர": 6351,
      "சுருக்க": 6352,
      "ச்சர்": 6353,
      "வருகிறார்": 6354,
      "சிலை": 6355,
      "புலவர்": 6356,
      "விசார": 6357,
      "நூறு": 6358,
      "ுள்ளனர்": 6359,
      "இறப்பு": 6360,
      "42": 6361,
      "கனி": 6362,
      "னுடன்": 6363,
      "ot": 6364,
      "சுந்த": 6365,
      "ர்களையும்": 6366,
      "நீளம்": 6367,
      "பவர்கள்": 6368,
      "ம்பி": 6369,
      "ஸ்டே": 6370,
      "ரஷ்": 6371,
      "த்துச்": 6372,
      "வெகு": 6373,
      "ழ்ந்த": 6374,
      "நாட்கா": 6375,
      "தீர்வு": 6376,
      "கல்வெட்டு": 6377,
      "ல்லை": 6378,
      "ராகப்": 6379,
      "அனைவரும்": 6380,
      "நச்சு": 6381,
      "தோற்று": 6382,
      "த்தினர்": 6383,
      "மார்க்க": 6384,
      "வெளியேற்ற": 6385,
      "அடைந்த": 6386,
      "அடைய": 6387,
      "உப": 6388,
      "வாயில": 6389,
      "ிலி": 6390,
      "இருந்தனர்": 6391,
      "புகைப்பட": 6392,
      "போய்": 6393,
      "நூலில்": 6394,
      "ஜனாதிபதி": 6395,
      "சோதி": 6396,
      "அருகே": 6397,
      "வோர்": 6398,
      "டில்": 6399,
      "மால்": 6400,
      "வளர்ச்சிய": 6401,
      "ஸ்கி": 6402,
      "குருதி": 6403,
      "கூறப்படுகிறது": 6404,
      "பாட்டின்": 6405,
      "சுகா": 6406,
      "பத்தி": 6407,
      "ரவ": 6408,
      "திறந்த": 6409,
      "நாகரி": 6410,
      "ழிவு": 6411,
      "நாளை": 6412,
      "ட்ரி": 6413,
      "ab": 6414,
      "சற்று": 6415,
      "விரும்ப": 6416,
      "நகைச்சு": 6417,
      "லேயே": 6418,
      "சவு": 6419,
      "ந்த்": 6420,
      ".,": 6421,
      "எத்த": 6422,
      "ip": 6423,
      "ரவி": 6424,
      "ட்சியை": 6425,
      "நிகழ்வுகள்": 6426,
      "வெறு": 6427,
      "அவசிய": 6428,
      "அளவிலான": 6429,
      "செயல்படுத்த": 6430,
      "பணியாற்றினார்": 6431,
      "முழுமையான": 6432,
      "வரையறை": 6433,
      "அமைப்பின்": 6434,
      "இன்றும்": 6435,
      "மரம்": 6436,
      "ையாகும்": 6437,
      "இந்தோ": 6438,
      "வியின்": 6439,
      "இருப்பதால்": 6440,
      "வரையும்": 6441,
      "க்கோட்டை": 6442,
      "ராத": 6443,
      "அடங்கிய": 6444,
      "ஆரம்பத்தில்": 6445,
      "அறிந்த": 6446,
      "இலக்க": 6447,
      "ிருக்கின்றன": 6448,
      "இப்போ": 6449,
      "ளர்களின்": 6450,
      "புண": 6451,
      "உருவாக்கும்": 6452,
      "அணிக்கு": 6453,
      "கிளி": 6454,
      "செய்யப்பட்டு": 6455,
      "பங்கே": 6456,
      "கிர": 6457,
      "மேலே": 6458,
      "நிற்க": 6459,
      "தமிழ்நாட்டில்": 6460,
      "வட்டம்": 6461,
      "வந்தனர்": 6462,
      "ரோடு": 6463,
      "யங்கள்": 6464,
      "க்கட்ட": 6465,
      "திருக்கோ": 6466,
      "இடு": 6467,
      "வங்க": 6468,
      "ப்பெற்ற": 6469,
      "நரம்பு": 6470,
      "ப்ள": 6471,
      "மூழ்க": 6472,
      "ers": 6473,
      "மாவட்டத்தின்": 6474,
      "1977": 6475,
      ".)": 6476,
      "வேறுபட்ட": 6477,
      "பிட்": 6478,
      "ுயி": 6479,
      "1987": 6480,
      "ஷே": 6481,
      "திகள்": 6482,
      "அருள்": 6483,
      "விட்": 6484,
      "போட்டு": 6485,
      "பாத்": 6486,
      "வேலி": 6487,
      "தெரிவித்தார்": 6488,
      "ரங்க": 6489,
      "ினா": 6490,
      "கொண்டுள்ள": 6491,
      "பக்த": 6492,
      "ஜு": 6493,
      "துணி": 6494,
      "த்துக்கும்": 6495,
      "நடைபெற்றது": 6496,
      "உண்ட": 6497,
      "நீடி": 6498,
      "உருவாக்கி": 6499,
      "மாதத்தில்": 6500,
      "கத்தில்": 6501,
      "ஒன்றில்": 6502,
      "கப்பல்": 6503,
      "தாலும்": 6504,
      "ஆயுத": 6505,
      "அண்": 6506,
      "இப்பே": 6507,
      "வழக்கமாக": 6508,
      "சான்று": 6509,
      "உரையா": 6510,
      "65": 6511,
      "ப்பன்": 6512,
      "அவற்றில்": 6513,
      "ன்றும்": 6514,
      "வெற்றிகர": 6515,
      "அறை": 6516,
      "இதர": 6517,
      "டமிருந்து": 6518,
      "பயன்படுகிறது": 6519,
      "ப்பதில்": 6520,
      "வாரி": 6521,
      "கருதி": 6522,
      "கவிஞர்": 6523,
      "கற்பி": 6524,
      "நேரடி": 6525,
      "ள்களை": 6526,
      "கொழும்பு": 6527,
      "அன": 6528,
      "க்காது": 6529,
      "விட்டால்": 6530,
      "நிர்ண": 6531,
      "செய்கிறது": 6532,
      "ென்": 6533,
      "சார்பு": 6534,
      "பன்ன": 6535,
      "க்கத்": 6536,
      "ட்டியில்": 6537,
      "விளக்கம்": 6538,
      "டால": 6539,
      "போக": 6540,
      "சிறிது": 6541,
      "சுப்பிர": 6542,
      "்சை": 6543,
      "க்காத": 6544,
      "மாட்ட": 6545,
      "ஒத்து": 6546,
      "னது": 6547,
      "க்குற": 6548,
      "பத்தா": 6549,
      "சிர": 6550,
      "நிமிட": 6551,
      "அம்மா": 6552,
      "ரியன்": 6553,
      "வில்லியம்": 6554,
      "சேர": 6555,
      "நியோ": 6556,
      "கணக்கெடுப்பின்படி": 6557,
      "ந்தன்": 6558,
      "சிற்ப": 6559,
      "அரசியல": 6560,
      "சென்னையில்": 6561,
      "இச": 6562,
      "க்கின்றது": 6563,
      "ட்பு": 6564,
      "குறிப்பிட்டு": 6565,
      "லைகள்": 6566,
      "எண்ணெய்": 6567,
      "விசாரணை": 6568,
      "சித்திர": 6569,
      "சுல்த": 6570,
      "கொஞ்ச": 6571,
      "ஃபே": 6572,
      "எட்": 6573,
      "நமது": 6574,
      "துறையில்": 6575,
      "ிற்கும்": 6576,
      "உயிரிழந்தனர்": 6577,
      "ாகிய": 6578,
      "1950": 6579,
      "ல்ட்": 6580,
      "லட்சுமி": 6581,
      "பதில்": 6582,
      "மத்தியில்": 6583,
      "திரவ": 6584,
      "44": 6585,
      "நுண்": 6586,
      "ஒற்றை": 6587,
      "180": 6588,
      "இதழ்": 6589,
      "கதாபாத்திர": 6590,
      "சௌ": 6591,
      "ிறான்": 6592,
      "செய்தல்": 6593,
      "கூடுதலாக": 6594,
      "ஆரோ": 6595,
      "மையம்": 6596,
      "த்தொடர்": 6597,
      "பாதிக்கப்பட்ட": 6598,
      "ஜர்": 6599,
      "ஆகத்து": 6600,
      "முறையே": 6601,
      "வலது": 6602,
      "நடித்துள்ளனர்": 6603,
      "தோற்கடி": 6604,
      "பலி": 6605,
      "படத்தின்": 6606,
      "நடைபெறு": 6607,
      "இலக்கியம்": 6608,
      "ப்பொழுது": 6609,
      "லாது": 6610,
      "சேகரி": 6611,
      "கடுமையான": 6612,
      "அசை": 6613,
      "பணிய": 6614,
      "\")": 6615,
      "ப்பெயர்": 6616,
      "்ச்": 6617,
      "ற்கா": 6618,
      "கவனம்": 6619,
      "தனித்த": 6620,
      "கலைஞ": 6621,
      "சமயத்தில்": 6622,
      "எழுதினார்": 6623,
      "மாற்றங்கள்": 6624,
      "மணிய": 6625,
      "மன்னன்": 6626,
      "மைப்": 6627,
      "தானே": 6628,
      "இயக்குநர்": 6629,
      "இவற்றின்": 6630,
      "(\"": 6631,
      "ow": 6632,
      "இழு": 6633,
      "கட்டுமான": 6634,
      "உறுப்பினராக": 6635,
      "கையா": 6636,
      "உழை": 6637,
      "மனு": 6638,
      "அமைப்ப": 6639,
      "செய்தனர்": 6640,
      "தகவல்கள்": 6641,
      "88": 6642,
      "வாங்கு": 6643,
      "பயன்படுத்தப்படுகின்றன": 6644,
      "கமாக": 6645,
      "விலக": 6646,
      "த்திட்ட": 6647,
      "ஆத": 6648,
      "சிலி": 6649,
      "தெளிவாக": 6650,
      "இந்தச்": 6651,
      "அமைந்துள்ளன": 6652,
      "காக": 6653,
      "லிங்கம்": 6654,
      "நிறைய": 6655,
      "கொள்ளலாம்": 6656,
      "த்தொட": 6657,
      "பேரரசின்": 6658,
      "விசா": 6659,
      "வாயில்": 6660,
      "தென்னா": 6661,
      "கேரள": 6662,
      "அணுகு": 6663,
      "லையும்": 6664,
      "ந்தோ": 6665,
      "க்கணக்கான": 6666,
      "பத்திரிகை": 6667,
      "நன்ற": 6668,
      "பெயரி": 6669,
      "மொழிபெயர்": 6670,
      "நிறைவு": 6671,
      "அருங்கா": 6672,
      "கிமு": 6673,
      "விரும்பு": 6674,
      "அப்பட": 6675,
      "காத்த": 6676,
      "போரின்": 6677,
      "டைந்த": 6678,
      "வோம்": 6679,
      "வனை": 6680,
      "ச்சேரி": 6681,
      "கிறித்தவ": 6682,
      "ut": 6683,
      "அரண்": 6684,
      "மிகச்": 6685,
      "46": 6686,
      "அமைய": 6687,
      "விக்கி": 6688,
      "ன்றால்": 6689,
      "பான்": 6690,
      "ஆக்": 6691,
      "கற்று": 6692,
      "ரைத்": 6693,
      "க்கொள்": 6694,
      "குடும்பம்": 6695,
      "பாரதி": 6696,
      "சென்றார்": 6697,
      "சுழற்சி": 6698,
      "வீட்டில்": 6699,
      "ஜார்": 6700,
      "அறிக்க": 6701,
      "விலகி": 6702,
      "ளர்களுக்கு": 6703,
      "அன்ன": 6704,
      "ணிய": 6705,
      "சாம்": 6706,
      "உருவான": 6707,
      "முடிவுக்கு": 6708,
      "க்சி": 6709,
      "மானார்": 6710,
      "புல்": 6711,
      "நீதிபதி": 6712,
      "இருப்பதாக": 6713,
      "கதிர்": 6714,
      "ியாவின்": 6715,
      "ang": 6716,
      "ல்களையும்": 6717,
      "ஆல்ப": 6718,
      "ப்பதாக": 6719,
      "திமுக": 6720,
      "எலி": 6721,
      "1986": 6722,
      "அருங்காட்சிய": 6723,
      "வட்டா": 6724,
      "ச்சிற": 6725,
      "நீரா": 6726,
      "இலவச": 6727,
      "போட்டிகள்": 6728,
      "அன்பு": 6729,
      "அனுபவ": 6730,
      "பொருளை": 6731,
      "நுக": 6732,
      "ப்பைப்": 6733,
      "விதமான": 6734,
      "லஸ்": 6735,
      "லாளர்கள்": 6736,
      "க்காடு": 6737,
      "பன": 6738,
      "காலப்": 6739,
      "பற்றியும்": 6740,
      "150": 6741,
      "குரோ": 6742,
      "தோன்று": 6743,
      "எந்தவொரு": 6744,
      "உலகளா": 6745,
      "குற்றம்": 6746,
      "இலா": 6747,
      "துல்லிய": 6748,
      "மலேசியா": 6749,
      "காப்பு": 6750,
      "ஆகவும்": 6751,
      "மக்களவைத்": 6752,
      "விவரிக்க": 6753,
      "திருவிழா": 6754,
      "ுள்ளன": 6755,
      "நாயக்க": 6756,
      "பண்பாட்டு": 6757,
      "தொடர்பாக": 6758,
      "நிறைந்த": 6759,
      "ஊழிய": 6760,
      "றவு": 6761,
      "ிலா": 6762,
      "செயலாளர்": 6763,
      "உலகளாவிய": 6764,
      "ூரில்": 6765,
      "காலங்களில்": 6766,
      "வர்களாக": 6767,
      "வளைய": 6768,
      "ஒப்பந்தம்": 6769,
      "ழில்": 6770,
      "சித": 6771,
      "ப்பெய": 6772,
      "பெரும்பான்": 6773,
      "காப்பா": 6774,
      "கத்தோலிக்க": 6775,
      "சான": 6776,
      "ணர்வு": 6777,
      "பல்கலைக்கழகத்தில்": 6778,
      "சிந்தனை": 6779,
      "வையாகும்": 6780,
      "ளுக்கு": 6781,
      "க்கொள்க": 6782,
      "மின்சார": 6783,
      "மில்லை": 6784,
      "கப்": 6785,
      "வீச்சு": 6786,
      "ஆலய": 6787,
      "டான": 6788,
      "தன்மைய": 6789,
      "அதிர்": 6790,
      "மின்றி": 6791,
      "களுள்": 6792,
      "ென": 6793,
      "பொன்": 6794,
      "பரவிய": 6795,
      "எதிர்கால": 6796,
      "முற்று": 6797,
      "இயக்குனர்": 6798,
      "கொண்டாட": 6799,
      "அஞ்ச": 6800,
      "பிசி": 6801,
      "குறிக்கிறது": 6802,
      "வளர்ச்ச": 6803,
      "ர்டி": 6804,
      "குளிர்": 6805,
      "ரத்": 6806,
      "வழக்கம்": 6807,
      "மொழியாக": 6808,
      "்களையும்": 6809,
      "av": 6810,
      "றாக": 6811,
      "அவர்களை": 6812,
      "சிகிச்ச": 6813,
      "பொலி": 6814,
      "வாரிய": 6815,
      "ன்னு": 6816,
      "முறைமை": 6817,
      "ல்களுக்கு": 6818,
      "நீதிமன்றம்": 6819,
      "95": 6820,
      "தொன்": 6821,
      "கோரிக்கை": 6822,
      "இஸ்லாமிய": 6823,
      "தின்": 6824,
      "செயற்ப": 6825,
      "மூத்த": 6826,
      "க்கப்பட்டுள்ள": 6827,
      "தமிழகத்தில்": 6828,
      "மல்ல": 6829,
      "சேவ": 6830,
      "அரபு": 6831,
      "தகவல்களை": 6832,
      "பேசிய": 6833,
      "1979": 6834,
      "யானை": 6835,
      "கின்றார்": 6836,
      "சர்க்க": 6837,
      "மளி": 6838,
      "ப்ட்": 6839,
      "விவரி": 6840,
      "1971": 6841,
      "தளத்தில்": 6842,
      "ரிப்பு": 6843,
      "நாங்கள்": 6844,
      "அறிமுகம்": 6845,
      "பூமி": 6846,
      "ஆண்கள்": 6847,
      "வாக்குகள்": 6848,
      "அலெக்சா": 6849,
      "ெர்": 6850,
      "ண்டம்": 6851,
      "குள": 6852,
      "சனின்": 6853,
      "படையெடு": 6854,
      "பாளையம்": 6855,
      "விண்டோஸ்": 6856,
      "300": 6857,
      "நின்று": 6858,
      "படைப்பு": 6859,
      "இரும்பு": 6860,
      "நூலக": 6861,
      "இலங்கைத்": 6862,
      "சூர்": 6863,
      "காவல்": 6864,
      "வாசக": 6865,
      "1981": 6866,
      "சீர்த": 6867,
      "மடங்கு": 6868,
      "த்தலைவர்": 6869,
      "எகிப்த": 6870,
      "64": 6871,
      "1988": 6872,
      "பகுதியை": 6873,
      "கட்டுப்பாட்ட": 6874,
      "ரசிக": 6875,
      "சூழல்": 6876,
      "முஸ்லிம்": 6877,
      "ஏராள": 6878,
      "ிறேன்": 6879,
      "ிருப்பது": 6880,
      "கொண்டே": 6881,
      "கூடாது": 6882,
      "பாராளுமன்ற": 6883,
      "சாய்": 6884,
      "வலு": 6885,
      "த்திற்குப்": 6886,
      "வேகமாக": 6887,
      "வித்து": 6888,
      "வித்": 6889,
      "தோட்ட": 6890,
      "கட்டட": 6891,
      "நிகழ்ந்த": 6892,
      "ak": 6893,
      "லைய": 6894,
      "அறிவித்தது": 6895,
      "ம்மா": 6896,
      "கருணா": 6897,
      "வாழ்ந்து": 6898,
      "விகள்": 6899,
      "வடிவில்": 6900,
      "தனிம": 6901,
      "பிரதம": 6902,
      "பாலை": 6903,
      "ஆட": 6904,
      "தவிர்க்க": 6905,
      "ஆத்திரே": 6906,
      "சிவன்": 6907,
      "உருசிய": 6908,
      "தொடரில்": 6909,
      "பேசும்": 6910,
      "தீவுகள்": 6911,
      "கூட்டணி": 6912,
      "ப்பதற்கான": 6913,
      "காஷ்": 6914,
      "இலட்ச": 6915,
      "1985": 6916,
      "நெடுஞ்சா": 6917,
      "ஆணை": 6918,
      "கற்ற": 6919,
      "ர்களைக்": 6920,
      "நாடகம்": 6921,
      "சூழ்நிலை": 6922,
      "்சு": 6923,
      "தொடக்கத்தில்": 6924,
      "ஜம்": 6925,
      "க்கதை": 6926,
      "மக்களி": 6927,
      "de": 6928,
      "சரண": 6929,
      "அடிமை": 6930,
      "ப்பெரு": 6931,
      "பொறுத்து": 6932,
      "தமிழ்ப்": 6933,
      "மதம்": 6934,
      "ாது": 6935,
      "பிழை": 6936,
      "நிர்வ": 6937,
      "வனின்": 6938,
      "ம்க": 6939,
      "மக்": 6940,
      "செர்": 6941,
      "மருத்துவமனை": 6942,
      "ஒலிய": 6943,
      "தேடி": 6944,
      "ity": 6945,
      "ion": 6946,
      "ஃபார்": 6947,
      "இயங்கும்": 6948,
      "தளபதி": 6949,
      "யல்": 6950,
      "பிரிட்டி": 6951,
      "ஜெர்மன": 6952,
      "முரண்": 6953,
      "நிர்வகி": 6954,
      "அகா": 6955,
      "ஊராட்சி": 6956,
      "கையாள": 6957,
      "கட்டுப்பாட்டு": 6958,
      "ஆவர்": 6959,
      "சிறுகதை": 6960,
      "கடந்து": 6961,
      "அரசாங்கம்": 6962,
      "பாணி": 6963,
      "பிற்கா": 6964,
      "குறுகிய": 6965,
      "கருவிகள்": 6966,
      "ஏற்பட்டு": 6967,
      "பெருமை": 6968,
      "செயல்படு": 6969,
      "முடியவில்லை": 6970,
      "பணியாற்றிய": 6971,
      "தென்னிந்திய": 6972,
      "1983": 6973,
      "ஆக்கிர": 6974,
      "னுடைய": 6975,
      "ங்களுக்கான": 6976,
      "குதிரை": 6977,
      "பொருளிய": 6978,
      "புதின": 6979,
      "னிக்": 6980,
      "பெற்றோ": 6981,
      "ஆள": 6982,
      "மேற்": 6983,
      "ஏற்படுத்து": 6984,
      "கையெழு": 6985,
      "நடவடிக்க": 6986,
      "நியா": 6987,
      "விலிய": 6988,
      "திரைய": 6989,
      "1000": 6990,
      "உண்ண": 6991,
      "பாலியல்": 6992,
      "செயல்முறை": 6993,
      "நீரில்": 6994,
      "ww": 6995,
      "மந்திர": 6996,
      "ங்கினார்": 6997,
      "போர்ட்": 6998,
      "ச்சியாக": 6999,
      "வெளியிட்டார்": 7000,
      "பிள்ள": 7001,
      "வளர்க்க": 7002,
      "1978": 7003,
      "போர்த்து": 7004,
      "அமைக்கப்பட்ட": 7005,
      "வெளியீ": 7006,
      "பைல்": 7007,
      "ess": 7008,
      "அறுவை": 7009,
      "உதாரணமாக": 7010,
      "வாழ்வு": 7011,
      "தரம்": 7012,
      "க்குறை": 7013,
      "கியூ": 7014,
      "ளையில்": 7015,
      "மனிதன்": 7016,
      "வரையிலான": 7017,
      "வல்லு": 7018,
      "நிலப்பர": 7019,
      "உதவும்": 7020,
      "ஓட்டங்கள்": 7021,
      "தண்ணீர்": 7022,
      "ஸை": 7023,
      "காசி": 7024,
      "வென்று": 7025,
      "கல்யா": 7026,
      "படுகொலை": 7027,
      "நான்காவது": 7028,
      "க்கிக்": 7029,
      "உணர்": 7030,
      "வளாக": 7031,
      "இயற்பியல்": 7032,
      "தெரிவு": 7033,
      "1972": 7034,
      "இரண்டும்": 7035,
      "வெளியிட்டு": 7036,
      "களாகப்": 7037,
      "ஐய": 7038,
      "எதிர்த்து": 7039,
      "பொறுப்பு": 7040,
      "எப்போதும்": 7041,
      "ஆர": 7042,
      "எளிய": 7043,
      "லன்": 7044,
      "கொண்டனர்": 7045,
      "தசை": 7046,
      "னுக்கும்": 7047,
      "ine": 7048,
      "தலைய": 7049,
      "முதலீடு": 7050,
      "எதிர்பார்க்க": 7051,
      "புறம்": 7052,
      "ஆயினும்": 7053,
      "ஆலயம்": 7054,
      "பட்டியலில்": 7055,
      "ஆப்பிரிக்கா": 7056,
      "தரை": 7057,
      "பெயர்கள்": 7058,
      "விரைவில்": 7059,
      "43": 7060,
      "ீன்": 7061,
      "ட்டிகள்": 7062,
      "கட்டாய": 7063,
      "1947": 7064,
      "ஞ்ஞான": 7065,
      "களுக்குப்": 7066,
      "மனைவிய": 7067,
      "55": 7068,
      "த்தூ": 7069,
      "மதிப்பீடு": 7070,
      "ஃபா": 7071,
      "தண்டனை": 7072,
      "இருக்கு": 7073,
      "க்கியது": 7074,
      "ச்சத்து": 7075,
      "1975": 7076,
      "கிடைத்த": 7077,
      "கல்வியறிவு": 7078,
      "த்தோடு": 7079,
      "விளைவி": 7080,
      "பெயரிட": 7081,
      "மனிதன": 7082,
      "குழந்த": 7083,
      "மஞ்சள்": 7084,
      "tp": 7085,
      "தியா": 7086,
      "ெடுத்து": 7087,
      "க்கத்தை": 7088,
      "இவற்று": 7089,
      "சூப்பர்": 7090,
      "கிருஷ்ணன்": 7091,
      "மனோ": 7092,
      "பாரசீ": 7093,
      "வண்ணம்": 7094,
      "ப்பார்கள்": 7095,
      "மேற்பர": 7096,
      "மங்கோ": 7097,
      "மைல்": 7098,
      "ிருத்த": 7099,
      "1967": 7100,
      "77": 7101,
      "ஏரி": 7102,
      "என்பதுடன்": 7103,
      "இணைந்த": 7104,
      "ஆறா": 7105,
      "சல": 7106,
      "தூர்": 7107,
      "காடு": 7108,
      "பாப்": 7109,
      "ளிகள்": 7110,
      "மிகக்": 7111,
      "ஓய்வு": 7112,
      "வரம்": 7113,
      "சுட்டு": 7114,
      "முதன்மையான": 7115,
      "அறியப்பட்ட": 7116,
      "நிலம்": 7117,
      "2017": 7118,
      "கட்டப்பட்ட": 7119,
      "விதமாக": 7120,
      "ன்களை": 7121,
      "நடித்திருந்தனர்": 7122,
      "உப்பு": 7123,
      "கையை": 7124,
      "சத்": 7125,
      "தொடங்கு": 7126,
      "1982": 7127,
      "பண்பாடு": 7128,
      "அமி": 7129,
      "கூறும்": 7130,
      "நிலைக்கு": 7131,
      "அன்ப": 7132,
      "கத்தின்": 7133,
      "ர்கோ": 7134,
      "தொலைபேசி": 7135,
      "முனைவர்": 7136,
      "சாலையில்": 7137,
      "்டீ": 7138,
      "மேலாக": 7139,
      "சொல்க": 7140,
      "ப்படுத்தல்": 7141,
      "வழங்கப்படும்": 7142,
      "தய": 7143,
      "தள்ள": 7144,
      "வற": 7145,
      "திலிருந்து": 7146,
      "மாறும்": 7147,
      "வுட்": 7148,
      "சிறப்பான": 7149,
      "விளையாடிய": 7150,
      "):": 7151,
      "//": 7152,
      "உள்நாட்டு": 7153,
      "மங்கலம்": 7154,
      "ப்ஸ்": 7155,
      "கார்பன்": 7156,
      "எடுத்துக்காட்டு": 7157,
      "விஷய": 7158,
      "85": 7159,
      "லலி": 7160,
      "ுங்கள்": 7161,
      "விநியோ": 7162,
      "1940": 7163,
      "ஒழுங்க": 7164,
      "தனக்கு": 7165,
      "பாடசாலை": 7166,
      "ராமன்": 7167,
      "ஏற்பாடு": 7168,
      "1974": 7169,
      "முதலமை": 7170,
      "ளரான": 7171,
      "லிட": 7172,
      "டென்": 7173,
      "ப்பதிவு": 7174,
      "தொழிற்சாலை": 7175,
      "இவன்": 7176,
      "ஒழி": 7177,
      "தரா": 7178,
      "தமிழர்கள்": 7179,
      "அளித்த": 7180,
      "ஆக்கிரமி": 7181,
      "கைகள்": 7182,
      "வருகின்றது": 7183,
      "செய்யப்படுகிறது": 7184,
      "சிஸ்": 7185,
      "எடை": 7186,
      "வியலாளர்": 7187,
      "செருமானிய": 7188,
      "செயலி": 7189,
      "மூளை": 7190,
      "டெல்": 7191,
      "லீக்": 7192,
      "ஆங்கிலத்தில்": 7193,
      "விஜய்": 7194,
      "நற்": 7195,
      "உருவானது": 7196,
      "மாசு": 7197,
      "எனது": 7198,
      "ட்ரா": 7199,
      "கவிதைகள்": 7200,
      "://": 7201,
      "கிடைத்தது": 7202,
      "ிலோ": 7203,
      "என்றே": 7204,
      "ியாளர்கள்": 7205,
      "பயன்படுத்திய": 7206,
      "சேவைகள்": 7207,
      "திடீ": 7208,
      "பயன்பாட்டு": 7209,
      "தர்ம": 7210,
      "ian": 7211,
      "ட்டான": 7212,
      "லியில்": 7213,
      "பண்ண": 7214,
      "சந்தே": 7215,
      "http": 7216,
      "ிற்காக": 7217,
      "உட்ப": 7218,
      "க்கட்டு": 7219,
      "கிடையா": 7220,
      "கொண்டிருக்கிறது": 7221,
      "1945": 7222,
      "ai": 7223,
      "இந்தியக்": 7224,
      "பெற்றுள்ளது": 7225,
      "உடனடியாக": 7226,
      "வீட்ட": 7227,
      "முடிந்த": 7228,
      "1969": 7229,
      "குறிப்புகள்": 7230,
      "அதிகாரிகள்": 7231,
      "காண்பி": 7232,
      "பக்": 7233,
      "கணக்கு": 7234,
      "இறந்து": 7235,
      "நாயகர்": 7236,
      "ுமா": 7237,
      "வசிக்க": 7238,
      "வுன்": 7239,
      "குறியீ": 7240,
      "பெங்கள": 7241,
      "1976": 7242,
      "மதிய": 7243,
      "றிஞர்": 7244,
      "லுக்கான": 7245,
      "என்னை": 7246,
      "மொழிகளில்": 7247,
      "வழிவகு": 7248,
      "உறை": 7249,
      "புரத": 7250,
      "அவ்வாறு": 7251,
      "கம்யூனி": 7252,
      "கிறேன்": 7253,
      "நெறிமுறை": 7254,
      "வினா": 7255,
      "ிலு": 7256,
      "சார்பில்": 7257,
      "வளர்ந்து": 7258,
      "வதாகவும்": 7259,
      "கிலோமீட்டர்": 7260,
      "காசு": 7261,
      "ஸ்டோ": 7262,
      "to": 7263,
      "தப்பி": 7264,
      "காரை": 7265,
      "ங்கால": 7266,
      "விருதுகள்": 7267,
      "ங்களுக்காக": 7268,
      "சதவீத": 7269,
      "நன்றி": 7270,
      "றுத்த": 7271,
      "ard": 7272,
      "இறுதியாக": 7273,
      "அவர": 7274,
      "டுதல்": 7275,
      "சுவ": 7276,
      "இழை": 7277,
      "ேயான": 7278,
      "பிரான்சு": 7279,
      "லானது": 7280,
      "வுக்கும்": 7281,
      "உயிரியல்": 7282,
      "விஞ்ஞான": 7283,
      "போலீ": 7284,
      "பின்னணி": 7285,
      "ஏராளமான": 7286,
      "அலி": 7287,
      "தினம்": 7288,
      "ர்களுக்கும்": 7289,
      "பூச்சி": 7290,
      "ையையும்": 7291,
      "க்கொண்டார்": 7292,
      "98": 7293,
      "அப்ப": 7294,
      "தணி": 7295,
      "நாவல்": 7296,
      "என்பவரால்": 7297,
      "ப்புச்": 7298,
      "அரங்க": 7299,
      "வசூ": 7300,
      "கிரிக்க": 7301,
      "மையால்": 7302,
      "தீய": 7303,
      "வயதி": 7304,
      "விரிவு": 7305,
      "நடவடிக்கைகள்": 7306,
      "ற்பகுதியில்": 7307,
      "1962": 7308,
      "குடியே": 7309,
      "கூறுகிறது": 7310,
      "முருகன்": 7311,
      "புதிதாக": 7312,
      "மாகவே": 7313,
      "விற்பன": 7314,
      "கடும்": 7315,
      "அமெரிக்கப்": 7316,
      "அழுத்தம்": 7317,
      "ஒன்பது": 7318,
      "உள்ளே": 7319,
      "மத்தி": 7320,
      "வேற": 7321,
      "அழகு": 7322,
      "பத்திய": 7323,
      "ளரும்": 7324,
      "ியோ": 7325,
      "பாஸ்": 7326,
      "செங்கு": 7327,
      "ையாளர்கள்": 7328,
      "இடையிலான": 7329,
      "ஹொங்கொ": 7330,
      "்டி": 7331,
      "இவற்றை": 7332,
      "தடி": 7333,
      "கூற்று": 7334,
      "என்பதாகும்": 7335,
      "ஸ்டன்": 7336,
      "An": 7337,
      "டிரா": 7338,
      "கோப்பை": 7339,
      "கட்டிடக்கலை": 7340,
      "''": 7341,
      "ஏர்": 7342,
      "பிரிவில்": 7343,
      "ஆதரி": 7344,
      "ஈர": 7345,
      "சக்": 7346,
      "குறைந்து": 7347,
      "பள்ளியில்": 7348,
      "வதே": 7349,
      "போராட்டம்": 7350,
      "ஆராய்ச்ச": 7351,
      "ையர்": 7352,
      "கொண்டிருப்ப": 7353,
      "பதிப்பகம்": 7354,
      "ழுத்த": 7355,
      "ர்களுடன்": 7356,
      "நிறைவேற்ற": 7357,
      "76": 7358,
      "பச்சை": 7359,
      "ந்தொ": 7360,
      "மூட": 7361,
      "நீரி": 7362,
      "78": 7363,
      "அர்த்த": 7364,
      "மாணி": 7365,
      "நாவ": 7366,
      "வரிச": 7367,
      "யுத்த": 7368,
      "ளுக்கும்": 7369,
      "1973": 7370,
      "பணிகள்": 7371,
      "கிடையாது": 7372,
      "யன்": 7373,
      "ரஸ்": 7374,
      "ந்தம்": 7375,
      "விற": 7376,
      "வேகம்": 7377,
      "குறைந்தது": 7378,
      "செலுத்து": 7379,
      "ell": 7380,
      "ங்கின": 7381,
      "முதல்த": 7382,
      "க்களுக்கு": 7383,
      "அம்மன்": 7384,
      "க்ட்": 7385,
      "ஞா": 7386,
      "ங்கர்": 7387,
      "ச்சல்": 7388,
      "குடியரசுத்": 7389,
      "தோற்றுவி": 7390,
      "சேலம்": 7391,
      "நேற்று": 7392,
      "வெளியானது": 7393,
      "மக்களால்": 7394,
      "கூறுகிறார்": 7395,
      "பின்பற்ற": 7396,
      "பகுதிகளை": 7397,
      "பறவை": 7398,
      "ப்பதன்": 7399,
      "ஆகவே": 7400,
      "1948": 7401,
      "நுண்ணுயி": 7402,
      "for": 7403,
      "பசி": 7404,
      "போரி": 7405,
      "ண்ணி": 7406,
      "1930": 7407,
      "நிச்ச": 7408,
      "ியைத்": 7409,
      "உரிமைகள்": 7410,
      "வழக்கில்": 7411,
      "இனம்": 7412,
      "ீரல்": 7413,
      "ub": 7414,
      "ஊடு": 7415,
      "ஊக்கு": 7416,
      "வருவாய்": 7417,
      "திருவ": 7418,
      "சீக்கிய": 7419,
      "கிறாள்": 7420,
      "கணின": 7421,
      "வலுவ": 7422,
      "ஏற்றுக்": 7423,
      "அனைத்துலக": 7424,
      "41": 7425,
      "400": 7426,
      "புகு": 7427,
      "லுடன்": 7428,
      "குடியிரு": 7429,
      "அமீ": 7430,
      "க்டோ": 7431,
      "கிறோம்": 7432,
      "அளவிற்கு": 7433,
      "ட்டியது": 7434,
      "குடியர": 7435,
      "உருவாகும்": 7436,
      "St": 7437,
      "ிரம்": 7438,
      "நோக்கிய": 7439,
      "க்களையும்": 7440,
      "டான்": 7441,
      "பதிய": 7442,
      "னிடம்": 7443,
      "எவ்வளவு": 7444,
      "விளங்குகிறது": 7445,
      "கொலம்ப": 7446,
      "மேடை": 7447,
      "பரிமாற்ற": 7448,
      "qu": 7449,
      "IP": 7450,
      "டபிள்": 7451,
      "பாகு": 7452,
      "சுகாதார": 7453,
      "பட்டி": 7454,
      "ஒன்றியம்": 7455,
      "ஸ்வரர்": 7456,
      "லியோ": 7457,
      "குழாய": 7458,
      "மைக்ரோசா": 7459,
      "நகைச்சுவை": 7460,
      "1965": 7461,
      "ச்சின்": 7462,
      "பேட்": 7463,
      "ம்கள்": 7464,
      "ச்சுவ": 7465,
      "ஆப்க": 7466,
      "துப்பா": 7467,
      "வெளிப்புற": 7468,
      "அனுப்பி": 7469,
      "மயமா": 7470,
      "பகுப்பாய்வு": 7471,
      "வேண்டி": 7472,
      "கிரீ": 7473,
      "வேளாண்மை": 7474,
      "நதி": 7475,
      "ப்பார்": 7476,
      "ட்டது": 7477,
      "பொறுத்த": 7478,
      "sp": 7479,
      "கட்சிய": 7480,
      "லலிதா": 7481,
      "59": 7482,
      "ெய": 7483,
      "க்கின்றனர்": 7484,
      "சமைய": 7485,
      "கொண்டதாக": 7486,
      "தவறு": 7487,
      "கைப்பற்றிய": 7488,
      "ராவ்": 7489,
      "சொற்கள்": 7490,
      "58": 7491,
      "துண": 7492,
      "எதிர்க்க": 7493,
      "முடிவில்": 7494,
      "ஜேம்ஸ்": 7495,
      "மருத்துவர்": 7496,
      "ஜின்": 7497,
      "என்பதே": 7498,
      "66": 7499,
      "ங்களான": 7500,
      "லிங்": 7501,
      "முறையின்": 7502,
      "முடிந்தது": 7503,
      "சிவப்பு": 7504,
      "கால்பந்து": 7505,
      "காங்கிரசு": 7506,
      "ீழ": 7507,
      "தோன்றும்": 7508,
      "வேன்": 7509,
      "தொடர்ச்சியாக": 7510,
      "காண்க": 7511,
      "all": 7512,
      "ud": 7513,
      "டிஸ்": 7514,
      "கருவிய": 7515,
      "வழிமுறை": 7516,
      "ஜை": 7517,
      "தஞ்சா": 7518,
      "போன்": 7519,
      "கூடும்": 7520,
      "வெளிநாட்டு": 7521,
      "பத்திர": 7522,
      "ப்பதை": 7523,
      "செம்": 7524,
      "ராணி": 7525,
      "இருந்தும்": 7526,
      "ஞ்சை": 7527,
      "புலிகள்": 7528,
      "புரிந்த": 7529,
      "யாழ்ப்பாணம்": 7530,
      "ஆடை": 7531,
      "நன்ன": 7532,
      "ரர்": 7533,
      "பரிசோதனை": 7534,
      "வழக்கமான": 7535,
      "வட்டார": 7536,
      "பிரிட்டிஷ்": 7537,
      "காணப்படு": 7538,
      "சிக்கலான": 7539,
      "நியூயார்க்": 7540,
      "கையின்": 7541,
      "ய்யா": 7542,
      "கோப்பு": 7543,
      "எலக": 7544,
      "சான்ற": 7545,
      "வலைத்தள": 7546,
      "போன்றவற்றை": 7547,
      "ஆடு": 7548,
      "மும்பை": 7549,
      "கட்டுப்படுத்த": 7550,
      "ொன்று": 7551,
      "கருநாடக": 7552,
      "வதாகும்": 7553,
      "ஆந்திர": 7554,
      "க்கணி": 7555,
      "லக்": 7556,
      "மின்க": 7557,
      "ங்களே": 7558,
      "அமைப்பை": 7559,
      "முகவரி": 7560,
      "டெக்": 7561,
      "நியூசிலா": 7562,
      "வெளியிடப்பட்ட": 7563,
      "வதிலும்": 7564,
      "பாடும்": 7565,
      "உயர்த்த": 7566,
      "இயற்றிய": 7567,
      "நோக்கு": 7568,
      "ve": 7569,
      "தம": 7570,
      "ல்லாம்": 7571,
      "துரை": 7572,
      "கார்ட": 7573,
      "பேரி": 7574,
      "நாட்களில்": 7575,
      "பார்க்கும்": 7576,
      "ஹூ": 7577,
      "தொடு": 7578,
      "திருநெல்": 7579,
      "இலிருந்து": 7580,
      "தீர்க்க": 7581,
      "நெடுஞ்சாலை": 7582,
      "ையுடன்": 7583,
      "ராணுவ": 7584,
      "அரசி": 7585,
      "க்கப்பட்டனர்": 7586,
      "போதுமான": 7587,
      "உடலில்": 7588,
      "ந்திரா": 7589,
      "ஒவ்வொ": 7590,
      "வழங்குகிறது": 7591,
      "ிறோம்": 7592,
      "1968": 7593,
      "ச்சியான": 7594,
      "ஓடி": 7595,
      "தங்கிய": 7596,
      "ரஜ": 7597,
      "விழ": 7598,
      "வெட்டி": 7599,
      "கிளர்": 7600,
      "ியாளர்": 7601,
      "கோள்": 7602,
      "தழ்": 7603,
      "ர்ர்": 7604,
      "ட்டத்தில்": 7605,
      "புவியியல்": 7606,
      "பின": 7607,
      "பொன்ன": 7608,
      "தொழில்நுட்பம்": 7609,
      "அண்ண": 7610,
      "ண்டுகள்": 7611,
      "நகரத்தில்": 7612,
      "விளையாட": 7613,
      "அணுக்கரு": 7614,
      "மாநிலம்": 7615,
      "மணிக்கு": 7616,
      "இடைவெளி": 7617,
      "ist": 7618,
      "வினால்": 7619,
      "புலம்": 7620,
      "மாகத்": 7621,
      "கோரி": 7622,
      "இலக்கண": 7623,
      "நிரந்தர": 7624,
      "ல்ஸ்": 7625,
      "டாமல்": 7626,
      "தெரிந்த": 7627,
      "செய்யப்பட்டார்": 7628,
      "முற்றிலும்": 7629,
      "வங்காளதேச": 7630,
      "அவனது": 7631,
      "பேராசிரியர்": 7632,
      "முற்ப": 7633,
      "விவசாயி": 7634,
      "விண்க": 7635,
      "வைக்கும்": 7636,
      "ியாவில்": 7637,
      "சாகி": 7638,
      "வாரம்": 7639,
      "போலி": 7640,
      "தொற்று": 7641,
      "நிலவு": 7642,
      "கோடை": 7643,
      "என்பதும்": 7644,
      "காலகட்டத்தில்": 7645,
      "க்குடி": 7646,
      "மின்னோ": 7647,
      "வேண்டா": 7648,
      "வியட்": 7649,
      "ங்களைச்": 7650,
      "முகலாய": 7651,
      "விடுவி": 7652,
      "கார்த்தி": 7653,
      "சிவபெரு": 7654,
      "வருகை": 7655,
      "நூல்களை": 7656,
      "ஆர்வம்": 7657,
      "ஹார்": 7658,
      "துவாக": 7659,
      "தலைவர்கள்": 7660,
      "நிரூ": 7661,
      "நன்மை": 7662,
      "விலுள்ள": 7663,
      "முதல்வர்": 7664,
      "ஃப்ட்": 7665,
      "தலைமையிலான": 7666,
      "பாகிஸ்தான்": 7667,
      "56": 7668,
      "ிகள்": 7669,
      "லைத்": 7670,
      "நிலைகள்": 7671,
      "ஸ்க்": 7672,
      "புராணம்": 7673,
      "ஊக்குவி": 7674,
      "த்துத்": 7675,
      "தெரிந்து": 7676,
      "துவக்க": 7677,
      "uc": 7678,
      "நாதர்": 7679,
      "மலையாள": 7680,
      "org": 7681,
      "வர்க்க": 7682,
      "தூண்ட": 7683,
      "மால": 7684,
      "உயரம்": 7685,
      "இடங்கள்": 7686,
      "ஏற்படுகிறது": 7687,
      "டேவிட்": 7688,
      "\".": 7689,
      "IS": 7690,
      "தட்ட": 7691,
      "விபர": 7692,
      "ரயில்": 7693,
      "வைத்தார்": 7694,
      "உணர": 7695,
      "வளரும்": 7696,
      "பிடித்த": 7697,
      "அறிவித்தார்": 7698,
      "பிரச்சனை": 7699,
      "ையன்": 7700,
      "கொடி": 7701,
      "ஆப்பிரிக்க": 7702,
      "ட்சு": 7703,
      "பரா": 7704,
      "என்பதைக்": 7705,
      "ate": 7706,
      "அல்லாத": 7707,
      "அயர்": 7708,
      "எழுதியுள்ளார்": 7709,
      "ெழுத்து": 7710,
      "ப்பினை": 7711,
      "சுவி": 7712,
      "சாரம்": 7713,
      "எலக்ட்": 7714,
      "மகளி": 7715,
      "செய்வதற்கு": 7716,
      "முதல்தர": 7717,
      "தென": 7718,
      "திருப்ப": 7719,
      "மனிதர்கள்": 7720,
      "விஷ்": 7721,
      "சுட்ட": 7722,
      "வேட்பா": 7723,
      "வென்": 7724,
      "வழங்கியது": 7725,
      "சார்ந்து": 7726,
      "ங்களுள்": 7727,
      "எல்லோ": 7728,
      "ஊரில்": 7729,
      "அரசன்": 7730,
      "்கோ": 7731,
      "ப்பையும்": 7732,
      "தில்லி": 7733,
      "தீர்த்த": 7734,
      "அளவை": 7735,
      "முக்கியமாக": 7736,
      "வளர்ந்த": 7737,
      "களாகவும்": 7738,
      "பச்ச": 7739,
      "பெண்களின்": 7740,
      "ருக்கான": 7741,
      "மைக்கு": 7742,
      "நடத்தை": 7743,
      "கணக்கிட": 7744,
      "நம்பு": 7745,
      "செல்வாக்கு": 7746,
      "சிந்து": 7747,
      "இலத்தீன்": 7748,
      "அத்தியா": 7749,
      "டச்சு": 7750,
      "1956": 7751,
      "ற்றம்": 7752,
      "முட்டை": 7753,
      "காஞ்சி": 7754,
      "பாலா": 7755,
      "நடந்தது": 7756,
      "சோதன": 7757,
      "வெளிப்பட": 7758,
      "படங்களில்": 7759,
      "உணர்ச்சி": 7760,
      "விலேயே": 7761,
      "பாலின": 7762,
      "சுற்றுச்சூ": 7763,
      "ச்சொல்": 7764,
      "விப": 7765,
      "சுட்டி": 7766,
      "தெரிகிறது": 7767,
      "தேவைப்படும்": 7768,
      "ல்கத்தா": 7769,
      "பிடித்து": 7770,
      "புத்தகம்": 7771,
      "என்பதில்": 7772,
      "கேரளா": 7773,
      "தொழிலாளர்": 7774,
      "சதவி": 7775,
      "பண்டி": 7776,
      "வத": 7777,
      "மானு": 7778,
      "டியம்": 7779,
      "இயற்ற": 7780,
      "மொபைல்": 7781,
      "பத்ம": 7782,
      "க்கட": 7783,
      "தாஸ்": 7784,
      "ரைச்": 7785,
      "நோக்கம்": 7786,
      "பேரரசர்": 7787,
      "என்றழைக்கப்படும்": 7788,
      "சிவாஜி": 7789,
      "பயன்படுத்தப்பட்டது": 7790,
      "விருத்தி": 7791,
      "சமயங்களில்": 7792,
      "விளைவுகள்": 7793,
      "வீழ்ச்சி": 7794,
      "னன்": 7795,
      "ச்சில்": 7796,
      "தோறும்": 7797,
      "முடிகிறது": 7798,
      "1964": 7799,
      "வீழ்த்த": 7800,
      "கடற்படை": 7801,
      "வெங்க": 7802,
      "அவற்று": 7803,
      "பழக்க": 7804,
      "ளர்களை": 7805,
      "ப்பானது": 7806,
      "மைக்கே": 7807,
      "கோவை": 7808,
      "அதிகாரம்": 7809,
      "அச்சி": 7810,
      "க்கவில்லை": 7811,
      "சிட்": 7812,
      "தாழ்": 7813,
      "ப்பாளர்கள்": 7814,
      "ஸ்தி": 7815,
      "1944": 7816,
      "புத்தூர்": 7817,
      "விமானம்": 7818,
      "தென்கிழ": 7819,
      "பாவ": 7820,
      "நடக்கும்": 7821,
      "தமிழீழ": 7822,
      "்ச்சிய": 7823,
      "நிகழும்": 7824,
      "மாறியது": 7825,
      "வறு": 7826,
      "ஷோ": 7827,
      "ஒருவராக": 7828,
      "தூய": 7829,
      "1959": 7830,
      "நிராக": 7831,
      "மத்": 7832,
      "யும்": 7833,
      "லைன்": 7834,
      "ரோஸ்": 7835,
      "ஒன்றி": 7836,
      "72": 7837,
      "96": 7838,
      "்களாக": 7839,
      "ஃபீ": 7840,
      "ஏழா": 7841,
      "தேவால": 7842,
      "இறைவன்": 7843,
      "பரப்பளவு": 7844,
      "கிறிஸ்தவ": 7845,
      "ath": 7846,
      "உம்": 7847,
      "ங்டன்": 7848,
      "எனலாம்": 7849,
      "உரிமையா": 7850,
      "வகைப்படுத்த": 7851,
      "ரெட்": 7852,
      "கொண்டுவர": 7853,
      "விட்டன": 7854,
      "ப்பட்டி": 7855,
      "தேசியக்": 7856,
      "பிரதேசம்": 7857,
      "விடை": 7858,
      "முக்கோ": 7859,
      "ரிஸ்": 7860,
      "ரியை": 7861,
      "கூட்டமைப்பு": 7862,
      "தோல்வி": 7863,
      "மழ": 7864,
      "லிலும்": 7865,
      "பெட்ரோ": 7866,
      "ினாலும்": 7867,
      "நன்றாக": 7868,
      "--": 7869,
      "ஒற்று": 7870,
      "க்கால்": 7871,
      "புரு": 7872,
      "கும்ப": 7873,
      "NA": 7874,
      "1963": 7875,
      "வெளியேறி": 7876,
      "ப்படுத்தியது": 7877,
      "51": 7878,
      "அம்ப": 7879,
      "தலைப்பு": 7880,
      "குறைபாடு": 7881,
      "சண்": 7882,
      "ack": 7883,
      "ஐரோப்பாவில்": 7884,
      "தூண்டு": 7885,
      "நிறுத்தி": 7886,
      "நல்லூர்": 7887,
      "ஈடுபட்டு": 7888,
      "யாக": 7889,
      "தொல்கா": 7890,
      "கருத்த": 7891,
      "வட்டத்தில்": 7892,
      "போர்னியா": 7893,
      "நெட்வொ": 7894,
      "விடுகிறது": 7895,
      "ஆற்றின்": 7896,
      "எங்கள்": 7897,
      "என்பதற்கு": 7898,
      "டெட்": 7899,
      "1957": 7900,
      "உட்பட்ட": 7901,
      "சதவிகி": 7902,
      "மௌ": 7903,
      "இழப்பு": 7904,
      "வெளியிட்டது": 7905,
      "போட்டியிலும்": 7906,
      "அகல": 7907,
      "பஸ்": 7908,
      "பொம்": 7909,
      "tit": 7910,
      "கமான": 7911,
      "ற்றில்": 7912,
      "தொடக்கம்": 7913,
      "பெருமாள்": 7914,
      "ர்ட்ஸ்": 7915,
      "()": 7916,
      "மேற்கத்திய": 7917,
      "பாக்டீ": 7918,
      "பவை": 7919,
      "இரயில்": 7920,
      "அறிஞர்": 7921,
      "செயல்படும்": 7922,
      "கரன்": 7923,
      "1952": 7924,
      "மில்லிய": 7925,
      "அவ்வ": 7926,
      "கணக்கில்": 7927,
      "அவர்களுடைய": 7928,
      "வதைக்": 7929,
      "per": 7930,
      "னான்": 7931,
      "வார்டு": 7932,
      "இயக்கிய": 7933,
      "விரைவாக": 7934,
      "கடற்கரை": 7935,
      "சங்கில": 7936,
      "மித்": 7937,
      "சுற்றிய": 7938,
      "இயலும்": 7939,
      "நகரா": 7940,
      "கடலில்": 7941,
      "நிர்வாகம்": 7942,
      "லட்சம்": 7943,
      "இலை": 7944,
      "ணும்": 7945,
      "களவில்": 7946,
      "சேத": 7947,
      "எழுந்த": 7948,
      "இடத்தை": 7949,
      "ஊட்ட": 7950,
      "அமைக்கப்பட்டது": 7951,
      "காட்டும்": 7952,
      "நிகழ்ச்சியில்": 7953,
      "சத்திய": 7954,
      "உருவாக்கினார்": 7955,
      "எளிதில்": 7956,
      "அப்து": 7957,
      "நிறுவப்பட்டது": 7958,
      "னியன்": 7959,
      "சம்பவ": 7960,
      "சிங்கப்பூர்": 7961,
      "விலங்குகள்": 7962,
      "திகதி": 7963,
      "தொல்ல": 7964,
      "ிருந்தால்": 7965,
      "க்கிடையே": 7966,
      "சீர்": 7967,
      "ஏழை": 7968,
      "சய": 7969,
      "சன்ன": 7970,
      "ஸ்மா": 7971,
      "மைப்பின்": 7972,
      "மின்னணு": 7973,
      "கழிவு": 7974,
      "86": 7975,
      "ஆராய்": 7976,
      "எரு": 7977,
      "ூடாக": 7978,
      "ச்சியம்": 7979,
      "மங்கோலிய": 7980,
      "இசையில்": 7981,
      "ீர": 7982,
      "லியின்": 7983,
      "டாத": 7984,
      "பாடகர்": 7985,
      "இப்பேரூராட்சி": 7986,
      "க்கும்போது": 7987,
      "தொடர்பில்": 7988,
      "பதில": 7989,
      "இருக்கின்றது": 7990,
      "கருத்துக்கள்": 7991,
      "வணை": 7992,
      "ஸ்ச": 7993,
      "ஆகியவற்று": 7994,
      "ிருந்தாலும்": 7995,
      "பிரான்ஸ்": 7996,
      "வைத்துக்": 7997,
      "ஏற்படுத்தும்": 7998,
      "த்தாலும்": 7999,
      "1966": 8000,
      "தலுக்கு": 8001,
      "கோயில்கள்": 8002,
      "அவசர": 8003,
      "பின்னா": 8004,
      "உலா": 8005,
      "தழ": 8006,
      "பிரம்ம": 8007,
      "வெளிப்படுத்த": 8008,
      "ராமசாமி": 8009,
      "திட்டங்கள்": 8010,
      "1958": 8011,
      "கிராம்": 8012,
      "எனத்": 8013,
      "ஏவு": 8014,
      "ர்களா": 8015,
      "தாகவே": 8016,
      "நிறம்": 8017,
      "அதிகபட்ச": 8018,
      "மண்டலம்": 8019,
      "யத்தில்": 8020,
      "சடங்கு": 8021,
      "கொஞ்சம்": 8022,
      "ம்தான்": 8023,
      "துன்ப": 8024,
      "தென்ப": 8025,
      "விழிப்பு": 8026,
      "ுதல்": 8027,
      "முழ": 8028,
      "கடத்த": 8029,
      "தூய்": 8030,
      "நுகர்வ": 8031,
      "01": 8032,
      "உன்": 8033,
      "டால்": 8034,
      "புற்றுநோய்": 8035,
      "ஆண்டுகளாக": 8036,
      "கேட்": 8037,
      "சொல்லும்": 8038,
      "கடுமையாக": 8039,
      "கண்ணாடி": 8040,
      "பறி": 8041,
      "மந்த": 8042,
      "விவிலிய": 8043,
      "ov": 8044,
      "இவ": 8045,
      "கர்த்தா": 8046,
      "அணிக்காக": 8047,
      "ஆடி": 8048,
      "கூகு": 8049,
      "பழமையான": 8050,
      "எளிதாக": 8051,
      "ப்படியான": 8052,
      "நேரு": 8053,
      "குழுவின்": 8054,
      "மகளிர்": 8055,
      "நலம்": 8056,
      "வதையும்": 8057,
      "மாளி": 8058,
      "தாக்கம்": 8059,
      "இங்குள்ள": 8060,
      "மாணவர்": 8061,
      "காயமடை": 8062,
      "திசு": 8063,
      "பெரியார்": 8064,
      "வந்துள்ளது": 8065,
      "தவறான": 8066,
      "und": 8067,
      "நபர்கள்": 8068,
      "ஒட்டுமொத்த": 8069,
      "ூட": 8070,
      "வெர்": 8071,
      "ப்படியாக": 8072,
      "சாரா": 8073,
      "அவசியம்": 8074,
      "மெண்ட்": 8075,
      "மெக்சி": 8076,
      "சேர்த்த": 8077,
      "தனியாக": 8078,
      "செய்யலாம்": 8079,
      "கருத்துக்களை": 8080,
      "பங்கேற்ற": 8081,
      "ூட்ட": 8082,
      "வைத்திய": 8083,
      "2019": 8084,
      "பீட்டர்": 8085,
      "ஜார்ஜ்": 8086,
      "ob": 8087,
      "மகே": 8088,
      "மந்தி": 8089,
      "ண்டில்": 8090,
      "பிராம": 8091,
      "அழைத்து": 8092,
      "இந்நிலையில்": 8093,
      "முன்பே": 8094,
      "பாக்கித்தான்": 8095,
      "ஆரிய": 8096,
      "ஏதே": 8097,
      "த்துக்கான": 8098,
      "வம்ச": 8099,
      "ஒற்ற": 8100,
      "லான்": 8101,
      "தஞ்சாவூர்": 8102,
      "wik": 8103,
      "படத்தை": 8104,
      "பிளே": 8105,
      "சுந்தரம்": 8106,
      "ஓட்டு": 8107,
      "நகரு": 8108,
      "முகா": 8109,
      "தேவன்": 8110,
      "பயனர்": 8111,
      "பொருட்டு": 8112,
      "பெற்றவர்": 8113,
      "திரைப்படங்களில்": 8114,
      "வாழ்த்து": 8115,
      "பாண்டியன்": 8116,
      "லாஸ்": 8117,
      "கொண்டவை": 8118,
      "வந்தன": 8119,
      "1961": 8120,
      "கூட்டம்": 8121,
      "கணேசன்": 8122,
      "எனப்படுகிறது": 8123,
      "முதலான": 8124,
      "மொழியின்": 8125,
      "குடும்பத்தில்": 8126,
      "Un": 8127,
      "மயில": 8128,
      "அமைப்பில்": 8129,
      "தலைமுறை": 8130,
      "பார்வைய": 8131,
      "Al": 8132,
      "ண்டே": 8133,
      "லாக்": 8134,
      "த்தொகை": 8135,
      "பிரான்சி": 8136,
      "ஆலோசனை": 8137,
      "US": 8138,
      "வேலு": 8139,
      "கோபுர": 8140,
      "னியம்": 8141,
      "நாத்": 8142,
      "னுள்ள": 8143,
      "புதுப்பி": 8144,
      "ஆட்டோ": 8145,
      "சனி": 8146,
      "தற்கொ": 8147,
      "தலைவன்": 8148,
      "ஒன்றான": 8149,
      "ஜென்": 8150,
      "%,": 8151,
      "1954": 8152,
      "முயன்ற": 8153,
      "மருந்துகள்": 8154,
      "தெரியும்": 8155,
      "கறு": 8156,
      "சபா": 8157,
      "ங்களாகும்": 8158,
      "ன்னிய": 8159,
      "பெயர்ந்த": 8160,
      "கடவுள": 8161,
      "ியலில்": 8162,
      "பாட்டா": 8163,
      "பட்டா": 8164,
      "அகில": 8165,
      "அறியப்படுகிறது": 8166,
      "இவர்களில்": 8167,
      "விரோ": 8168,
      "கோடு": 8169,
      "ரோஜா": 8170,
      "ப்போர்": 8171,
      "மலைய": 8172,
      "இருபது": 8173,
      "சந்தர்": 8174,
      "திசைய": 8175,
      "காவிரி": 8176,
      "வெறும்": 8177,
      "கிங்": 8178,
      "என்பதையும்": 8179,
      "மோகன்": 8180,
      "பொருளின்": 8181,
      "ill": 8182,
      "விநாயகர்": 8183,
      "தாழ": 8184,
      "என்பர்": 8185,
      "மீள": 8186,
      "இந்திரா": 8187,
      "இடி": 8188,
      "ஈர்": 8189,
      "சால்": 8190,
      "ஆற்று": 8191,
      "நய": 8192,
      "வேளையில்": 8193,
      "தொரு": 8194,
      "எழுத்த": 8195,
      "நூலின்": 8196,
      "அடிப்படையிலான": 8197,
      "ப்பகுதிய": 8198,
      "அதிமுக": 8199,
      "அடைந்து": 8200,
      "மகாரா": 8201,
      "ஜெயலலிதா": 8202,
      "பன்றி": 8203,
      "க்கச்": 8204,
      "ங்கின்": 8205,
      "த்துள்ள": 8206,
      "வைக்கப்பட்ட": 8207,
      "நிரு": 8208,
      "வேற்று": 8209,
      "கொண்டிருந்தார்": 8210,
      "உளவியல்": 8211,
      "மேரி": 8212,
      "சிறையில்": 8213,
      "படப்பிடி": 8214,
      "தடைய": 8215,
      "கோயம்": 8216,
      "கூர்": 8217,
      "டியூ": 8218,
      "காட்சிய": 8219,
      "க்காலம்": 8220,
      "உணர்ந்த": 8221,
      "அரசுத்தலைவர்": 8222,
      "ஜெர்மனி": 8223,
      "த்துள்ளனர்": 8224,
      "ராபர்ட்": 8225,
      "ப்பிள்ளை": 8226,
      "பிரித்த": 8227,
      "மனையில்": 8228,
      "நகரத்தின்": 8229,
      "படுத்தி": 8230,
      "தற்காலி": 8231,
      "ஊதிய": 8232,
      "ங்கர": 8233,
      "தடுப்பு": 8234,
      "sh": 8235,
      "லங்கா": 8236,
      "காலி": 8237,
      "வெண்ண": 8238,
      "ினார்கள்": 8239,
      "க்கூடாது": 8240,
      "ப்யூ": 8241,
      "வுள்ள": 8242,
      "ஒருமுறை": 8243,
      "பரந்த": 8244,
      "தம்பி": 8245,
      "மாறுபட்ட": 8246,
      "பாதிப்பு": 8247,
      "ஆகியோரின்": 8248,
      "சீர்திருத்த": 8249,
      "அமிலம்": 8250,
      "ok": 8251,
      "ூரி": 8252,
      "முனைய": 8253,
      "காச": 8254,
      "ற்கள்": 8255,
      "லுக்கும்": 8256,
      "க்கொள்ளும்": 8257,
      "உங்களுக்கு": 8258,
      "என்பவற்ற": 8259,
      "திருப்பு": 8260,
      "கலந்த": 8261,
      "ப்பொருள": 8262,
      "பிளாக்": 8263,
      "தெரியவில்லை": 8264,
      "செயற்பாடு": 8265,
      "உதவுகிறது": 8266,
      "அதற்கான": 8267,
      "ப்ரோ": 8268,
      "மாட": 8269,
      "காலத்தின்": 8270,
      "க்கூட": 8271,
      "இவ்வகை": 8272,
      "ஆரோக்கிய": 8273,
      "சாரி": 8274,
      "தோழ": 8275,
      "நோய்கள்": 8276,
      "79": 8277,
      "ிறாள்": 8278,
      "ரிச்ச": 8279,
      "படுகின்றன": 8280,
      "அதிகரிக்கும்": 8281,
      "தண்ணீ": 8282,
      "வாக்கம்": 8283,
      "வரம்பு": 8284,
      "மிகச்சிற": 8285,
      "கட்டளை": 8286,
      "விழாவில்": 8287,
      "ஆர்க": 8288,
      "சொற்": 8289,
      "பிரிவுகள்": 8290,
      "மோசமான": 8291,
      "Sh": 8292,
      "ிடும்": 8293,
      "கிபி": 8294,
      "இருக்கிறார்": 8295,
      "முறையான": 8296,
      "கட்டிய": 8297,
      "கருதப்படும்": 8298,
      "இளைஞ": 8299,
      "தந்தைய": 8300,
      "க்குகள்": 8301,
      "தாள": 8302,
      "மோர்": 8303,
      "அனுப்பு": 8304,
      "்களால்": 8305,
      "இசைக்": 8306,
      "எடுக்கப்பட்ட": 8307,
      "Re": 8308,
      "சேன": 8309,
      "விளையாடு": 8310,
      "அடர்த்தி": 8311,
      "ஆவார்கள்": 8312,
      "குந்த": 8313,
      "போகும்": 8314,
      "சிஸ்ட": 8315,
      "பிரபு": 8316,
      "சிறுநீ": 8317,
      "பொருளாதாரம்": 8318,
      "திருநெல்வேலி": 8319,
      "தாசன்": 8320,
      "பேஸ்": 8321,
      "துறைகளில்": 8322,
      "இடைப்பட்ட": 8323,
      "திட": 8324,
      "வேட்ட": 8325,
      "இராஜ": 8326,
      "ஸ்தா": 8327,
      "யுனை": 8328,
      "முதலீட்டா": 8329,
      "மடி": 8330,
      "முன்னரே": 8331,
      "கர்நாடக": 8332,
      "திறந்து": 8333,
      "சர்ச்சை": 8334,
      "யின": 8335,
      "க்குட்பட்ட": 8336,
      "நெருங்கிய": 8337,
      "பட்": 8338,
      "மத்தின்": 8339,
      "மூர்": 8340,
      "ட்ச்": 8341,
      "விரிவான": 8342,
      "குரூ": 8343,
      "்களைக்": 8344,
      "நிரூபி": 8345,
      "வனுக்கு": 8346,
      "பாலு": 8347,
      "1920": 8348,
      "நடத்து": 8349,
      "நிலைமை": 8350,
      "நமக்கு": 8351,
      "முறையும்": 8352,
      "ருக்குப்": 8353,
      "1946": 8354,
      "நீதிமன்றத்தில்": 8355,
      "செருமன": 8356,
      "மலேசிய": 8357,
      "Ar": 8358,
      "வகம்": 8359,
      "வளம்": 8360,
      "ங்களிலிருந்து": 8361,
      "டியை": 8362,
      "எதிரி": 8363,
      "பழனி": 8364,
      "ப்படுகின்ற": 8365,
      "பொதுவு": 8366,
      "ுரிமை": 8367,
      "ருதி": 8368,
      "திசம்பர்": 8369,
      "மெய": 8370,
      "பிரிந்து": 8371,
      "இணைக்கும்": 8372,
      "அவர்களால்": 8373,
      "மலையில்": 8374,
      "1941": 8375,
      "பயணிகள்": 8376,
      "உபயோகி": 8377,
      "டார்": 8378,
      "மேற்கில்": 8379,
      "வரலாற்றா": 8380,
      "நிறுவி": 8381,
      "துருக்கிய": 8382,
      "ஊடாக": 8383,
      "ட்டே": 8384,
      "இருப": 8385,
      "திருக்குற": 8386,
      "நெதர்": 8387,
      "சந்தையில்": 8388,
      "மூலதன": 8389,
      "52": 8390,
      "புளோ": 8391,
      "ஸ்டார்": 8392,
      "பொருளியல்": 8393,
      "இவற்றுள்": 8394,
      "ah": 8395,
      "கிழக்கில்": 8396,
      "ஆட்சியின்": 8397,
      "அமைக்க": 8398,
      "வழிபாடு": 8399,
      "க்காகவும்": 8400,
      "கையும்": 8401,
      "மஸ்": 8402,
      "ஷெ": 8403,
      "ல்கு": 8404,
      "1949": 8405,
      "சூழலில்": 8406,
      "க்கன்": 8407,
      "சித்தா": 8408,
      "உடன்ப": 8409,
      "மருந்த": 8410,
      "பகுதியாகும்": 8411,
      "ஹம்": 8412,
      "விசைய": 8413,
      "வாள்": 8414,
      "ப்படுகின்றனர்": 8415,
      "மானி": 8416,
      "கோர்": 8417,
      "தொகுதிய": 8418,
      "எடுத்துச்": 8419,
      "எடுத்தார்": 8420,
      "திணை": 8421,
      "மன்றம்": 8422,
      "இங்கிலாந்தின்": 8423,
      "கக்": 8424,
      "நூலகம்": 8425,
      "இனங்கள்": 8426,
      "எட்டா": 8427,
      "வழிய": 8428,
      "தொலைவிலும்": 8429,
      "உயரத்தில்": 8430,
      "அல்லாஹ்": 8431,
      "சஸ்": 8432,
      "ாடு": 8433,
      "ீர்கள்": 8434,
      "பின்பற்று": 8435,
      "தமிழ்நாட்டின்": 8436,
      "ராஜே": 8437,
      "எண்கள்": 8438,
      "ஃப": 8439,
      "ட்டிங்": 8440,
      "அதிபர்": 8441,
      "வணிகம்": 8442,
      "கொழுப்பு": 8443,
      "68": 8444,
      "தாங்கி": 8445,
      "ினான்": 8446,
      "தோராய": 8447,
      "சமர": 8448,
      "மக்களும்": 8449,
      "பற்றா": 8450,
      "ையார்": 8451,
      "பாரத": 8452,
      "பாகிஸ்தான": 8453,
      "up": 8454,
      "தமான": 8455,
      "லங்கள்": 8456,
      "போட": 8457,
      "வரையான": 8458,
      "வெல்ல": 8459,
      "மையைக்": 8460,
      "பெற்றுள்ளன": 8461,
      "என்பதன்": 8462,
      "வாழ்க்கையில்": 8463,
      "ஆளுந": 8464,
      "எக்": 8465,
      "சிக": 8466,
      "கேம்": 8467,
      "கொள்ளவில்லை": 8468,
      "மொழியை": 8469,
      "1942": 8470,
      "அங்கீகரி": 8471,
      "முனையில்": 8472,
      "அமர்": 8473,
      "நகரங்கள்": 8474,
      "சான்றி": 8475,
      "வருவது": 8476,
      "1953": 8477,
      "பக்கத்தில்": 8478,
      "ib": 8479,
      "ஒடு": 8480,
      "நேபா": 8481,
      "நாட்களுக்கு": 8482,
      "பிரீ": 8483,
      "பல்கலைக்": 8484,
      "ne": 8485,
      "செயல்பட்டு": 8486,
      "சிறுவர்": 8487,
      "இன்ப": 8488,
      "போதே": 8489,
      "ுவின்": 8490,
      "தயாரிப்பாளர்": 8491,
      "ிலிருந்தும்": 8492,
      "67": 8493,
      "இங்க": 8494,
      "இதற்கான": 8495,
      "தங்களின்": 8496,
      "யை": 8497,
      "க்கங்கள்": 8498,
      "சமூகம்": 8499,
      "செயல்திறன்": 8500,
      "உத்திய": 8501,
      "ஓய்": 8502,
      "கமல்": 8503,
      "ப்ரா": 8504,
      "டிஜி": 8505,
      "ட்டுப்": 8506,
      "கொன்ற": 8507,
      "முடியாமல்": 8508,
      "அழகிய": 8509,
      "கூகுள்": 8510,
      "காது": 8511,
      "வாணி": 8512,
      "செய்யா": 8513,
      "முறைகளை": 8514,
      "அந்தத்": 8515,
      "தூதர": 8516,
      "ஜனதா": 8517,
      "அச": 8518,
      "வாட": 8519,
      "நீட்டி": 8520,
      "தாகத்": 8521,
      "கொடுக்கும்": 8522,
      "குற்றச்சா": 8523,
      "சராசரியாக": 8524,
      "தேர்ந்தெடுக்க": 8525,
      "அண்மையில்": 8526,
      "துப்பாக்கி": 8527,
      "வையில்": 8528,
      "முல்லை": 8529,
      "ச்சந்திரன்": 8530,
      "ப்பாளராக": 8531,
      "இவ்வூ": 8532,
      "வெளிவந்தது": 8533,
      "1939": 8534,
      "வென்றார்": 8535,
      "மாற்றியமை": 8536,
      "வீதி": 8537,
      "குறிப்பிடுகிறது": 8538,
      "மொழிபெய": 8539,
      "ையாகவும்": 8540,
      "ஜென": 8541,
      "குழுக்கள்": 8542,
      "பெருமளவில்": 8543,
      "con": 8544,
      "உத்தி": 8545,
      "தார்": 8546,
      "றே": 8547,
      "புக்": 8548,
      "வழியே": 8549,
      "செயல்பட": 8550,
      "பெருமளவு": 8551,
      "பங்கா": 8552,
      "ரக்": 8553,
      "சிட்டி": 8554,
      "லிகள்": 8555,
      "மணியம்": 8556,
      "வளிமண்டல": 8557,
      "எசுப்பானிய": 8558,
      "அஞ்சல்": 8559,
      "ப்பாகும்": 8560,
      "திண்": 8561,
      "முத்த": 8562,
      "ளிக்கும்": 8563,
      "ர்களே": 8564,
      "டியின்": 8565,
      "படித்த": 8566,
      "கட்டண": 8567,
      "வாதிகள்": 8568,
      "இங்கிலாந்தில்": 8569,
      "ஜான": 8570,
      "நரசி": 8571,
      "அறிஞ": 8572,
      "குறைவு": 8573,
      "மன்னி": 8574,
      "ஏதேனும்": 8575,
      "எங்க": 8576,
      "ர்களுக்கான": 8577,
      "குறிக்கோ": 8578,
      "இயக்குன": 8579,
      "விற்கும்": 8580,
      "கன்னியாக": 8581,
      "மரியாதை": 8582,
      "காந்தா": 8583,
      "காணப்பட்ட": 8584,
      "தொகுதியில்": 8585,
      "வழங்கப்பட்ட": 8586,
      "வசந்த": 8587,
      "வியை": 8588,
      "தொடர்ச்சியான": 8589,
      "அளிக்க": 8590,
      "olog": 8591,
      "இட்": 8592,
      "உறி": 8593,
      "ப்பழ": 8594,
      "மாநகராட்சி": 8595,
      "அரே": 8596,
      "நகரை": 8597,
      "குழப்ப": 8598,
      "பொருள்கள்": 8599,
      "இதழில்": 8600,
      "எஞ்சிய": 8601,
      "லாகும்": 8602,
      "த்துறையில்": 8603,
      "ரணம்": 8604,
      "க்கிழமை": 8605,
      "விளங்கிய": 8606,
      "பறவைகள்": 8607,
      "கலிபோர்னியா": 8608,
      "்க்கா": 8609,
      "ட்சை": 8610,
      "மீள்": 8611,
      "ராதி": 8612,
      "சாதக": 8613,
      "அவனை": 8614,
      "ஈரோடு": 8615,
      "பியல்": 8616,
      "விவாத": 8617,
      "புதை": 8618,
      "சுவீ": 8619,
      "காலத்திற்கு": 8620,
      "ப்பதால்": 8621,
      "ட்ஜ்": 8622,
      "நூலை": 8623,
      "பொருட்களின்": 8624,
      "ஒதுக்க": 8625,
      "நாளி": 8626,
      "தொகையில்": 8627,
      "நிலா": 8628,
      "அமைத்து": 8629,
      "உருசியா": 8630,
      "மதிப்பிட": 8631,
      "அக்காலத்தில்": 8632,
      "ஒன்": 8633,
      "சிரி": 8634,
      "ளிக்க": 8635,
      "தமிழ்ச்": 8636,
      "திறமை": 8637,
      "சாக்": 8638,
      "ஊடுரு": 8639,
      "ஒன்றிணை": 8640,
      "வாலி": 8641,
      "கூட்டா": 8642,
      "ஒன்றும்": 8643,
      "அறிவிக்கப்பட்டது": 8644,
      "ஜனநாயக": 8645,
      "ஏற்படுத்திய": 8646,
      "சுதந்திரம்": 8647,
      "பெருங்கட": 8648,
      "காலா": 8649,
      "தரைய": 8650,
      "பொதுத்": 8651,
      "கரிம": 8652,
      "கிரிக்கெட்": 8653,
      "AP": 8654,
      "க்குறைய": 8655,
      "டிரை": 8656,
      "சியில்": 8657,
      "பெற்றனர்": 8658,
      "தானி": 8659,
      "த்திலிருந்த": 8660,
      "ஆட்சியில்": 8661,
      "பகிர்ந்து": 8662,
      "கருணாநிதி": 8663,
      "மைக்கேல்": 8664,
      "செறி": 8665,
      "சித்": 8666,
      "தாங்க": 8667,
      "மோச": 8668,
      "ind": 8669,
      "சோழன்": 8670,
      "ற்றது": 8671,
      "மைதான": 8672,
      "மீனா": 8673,
      "னார்கள்": 8674,
      "தலான": 8675,
      "வெட்ட": 8676,
      "கழித்து": 8677,
      "பாக்ஸ்": 8678,
      "இந்தோனே": 8679,
      "இட்டு": 8680,
      "யெ": 8681,
      "மெகா": 8682,
      "பயன்படுத்தப்பட்ட": 8683,
      "இணைத்து": 8684,
      "இராச்சியம்": 8685,
      "அதிகாரபூர்வ": 8686,
      "்சைடு": 8687,
      "குளம்": 8688,
      "மட்டுமல்": 8689,
      "1955": 8690,
      "ஆசிரியர்கள்": 8691,
      "பள்ளத்தா": 8692,
      "பழங்குடிய": 8693,
      "காய்": 8694,
      "நீரை": 8695,
      "படித்து": 8696,
      "பக்தி": 8697,
      "இவ்வாறான": 8698,
      "ஆட்சிய": 8699,
      "லார்": 8700,
      "சுவை": 8701,
      "1951": 8702,
      "ஏதாவது": 8703,
      "வளிய": 8704,
      "ரியாக": 8705,
      "கோணம்": 8706,
      "கருப்பு": 8707,
      "முடிவடை": 8708,
      "ங்காய்": 8709,
      "மாற்றப்பட்டது": 8710,
      "படுத்திய": 8711,
      "ந்தாட்ட": 8712,
      "மேற்குப்": 8713,
      "தாயார்": 8714,
      "அன்றைய": 8715,
      "]]": 8716,
      "னையும்": 8717,
      "தியே": 8718,
      "யாரும்": 8719,
      "பிரான்சின்": 8720,
      "கற்பனை": 8721,
      "சித்தி": 8722,
      "நூற்று": 8723,
      "த்திறன்": 8724,
      "கவலை": 8725,
      "ஆனந்த": 8726,
      "இத்திரைப்படம்": 8727,
      "திருத்தந்தை": 8728,
      "முக்கோண": 8729,
      "கன்னியாகு": 8730,
      "நின்ற": 8731,
      "றையின்": 8732,
      "மையானது": 8733,
      "உடனே": 8734,
      "அழைக்கப்பட்ட": 8735,
      "புரிந்தார்": 8736,
      "பயிர்": 8737,
      "வதைத்": 8738,
      "சீனாவில்": 8739,
      "க்டர்": 8740,
      "ர்களு": 8741,
      "காட்டுகிறது": 8742,
      "அரசியலமைப்பு": 8743,
      "காரி": 8744,
      "நிபுண": 8745,
      "ராகும்": 8746,
      "மோட்டார்": 8747,
      "பகுதிகளிலும்": 8748,
      "சட்டத்தின்": 8749,
      "அனைத்தையும்": 8750,
      "அருகில": 8751,
      "ங்களுக்குப்": 8752,
      "நான்காம்": 8753,
      "120": 8754,
      "செக்": 8755,
      "ர்களான": 8756,
      "பொதுமக்கள்": 8757,
      "அளிக்கும்": 8758,
      "அலுவலகம்": 8759,
      "ற்கும்": 8760,
      "கோவில": 8761,
      "நிழ": 8762,
      "இயக்குந": 8763,
      "தொடங்கப்பட்டது": 8764,
      "ஆல்பம்": 8765,
      "600": 8766,
      "எந்திர": 8767,
      "டையில்": 8768,
      "மில": 8769,
      "ய்த": 8770,
      "ப்பதில்லை": 8771,
      "பெத்": 8772,
      "தாக்கல்": 8773,
      "ஆண்டி": 8774,
      "இறந்தார்": 8775,
      "வியாபார": 8776,
      "சூரியன்": 8777,
      "53": 8778,
      "அபாய": 8779,
      "ஆனார்": 8780,
      "தனித்துவ": 8781,
      "அழிந்து": 8782,
      "ஓட்டங்களை": 8783,
      "லூயி": 8784,
      "பயன்படுகின்றன": 8785,
      "உருவாக்கம்": 8786,
      "ப்பைத்": 8787,
      "தூத்துக்கு": 8788,
      "தெற்கே": 8789,
      "நிர்ணயி": 8790,
      "pl": 8791,
      "கின்": 8792,
      "ம்பா": 8793,
      "புளூ": 8794,
      "டைம்": 8795,
      "மெல்ல": 8796,
      "நடிக்க": 8797,
      "செயல்பாடுகள்": 8798,
      "நகரங்களில்": 8799,
      "இசைத்தொகு": 8800,
      "பயிற்சிய": 8801,
      "வென்றது": 8802,
      "ரைகள்": 8803,
      "மீர்": 8804,
      "தலைநகர்": 8805,
      "அணியில்": 8806,
      "திட்டமிட": 8807,
      "பகுதியின்": 8808,
      "குறியீட்டு": 8809,
      "அறிகுறிகள்": 8810,
      "ஒத்தி": 8811,
      "இயலாது": 8812,
      "பணியில்": 8813,
      "க்குதல்": 8814,
      "பாபு": 8815,
      "வாங்கிய": 8816,
      "ட்சர்": 8817,
      "ப்போம்": 8818,
      "வன்முறை": 8819,
      "அதைப்": 8820,
      "இவர்களின்": 8821,
      "வெற்றிகரமாக": 8822,
      "சவா": 8823,
      "தைத்": 8824,
      "அறிஞர்கள்": 8825,
      "வேறுபாடுகள்": 8826,
      "நுரைய": 8827,
      "நடத்தப்பட்ட": 8828,
      "அட்டவணை": 8829,
      "லண்டன்": 8830,
      "மாக்": 8831,
      "பிரித்து": 8832,
      "ஜெர்மன்": 8833,
      "வலையமைப்பு": 8834,
      "படியாக": 8835,
      "பிந்தைய": 8836,
      "மிகை": 8837,
      "ரைடு": 8838,
      "ட்சியாக": 8839,
      "விளங்கியது": 8840,
      "சுரங்க": 8841,
      "ae": 8842,
      "கத்தை": 8843,
      "கணை": 8844,
      "ற்சியா": 8845,
      "குறிக்க": 8846,
      "ary": 8847,
      "நிறுவிய": 8848,
      "உடல்நல": 8849,
      "வீடுகள்": 8850,
      "செல்கிறது": 8851,
      "ஆகி": 8852,
      "ரத்த": 8853,
      "ொண்ட": 8854,
      "செவி": 8855,
      "வாகவும்": 8856,
      "குமார": 8857,
      "நாராயண": 8858,
      "71": 8859,
      "்கிறது": 8860,
      "ர்களைப்": 8861,
      "மையைப்": 8862,
      "இலகு": 8863,
      "பெறப்பட்ட": 8864,
      "கனடிய": 8865,
      "பயன்பாட்டில்": 8866,
      "சுல்தான": 8867,
      "ரஜினி": 8868,
      "AT": 8869,
      "பெற்றோர்": 8870,
      "அகற்ற": 8871,
      "பயன்பாட்ட": 8872,
      "இழந்த": 8873,
      "நிகழ்ச்சிகள்": 8874,
      "அறக்கட்ட": 8875,
      "09": 8876,
      "ம்பரம்": 8877,
      "நாடுகளுக்கு": 8878,
      "வடிவங்கள்": 8879,
      "1943": 8880,
      "ச்சாரம்": 8881,
      "சேர்ம": 8882,
      "man": 8883,
      "மிர": 8884,
      "பொற": 8885,
      "க்கான்": 8886,
      "தொடர்ந்த": 8887,
      "முடிவுகள்": 8888,
      "இயேசுவின்": 8889,
      "54": 8890,
      "அடிய": 8891,
      "புரிய": 8892,
      "தலைப்பில்": 8893,
      "வழங்கப்படுகிறது": 8894,
      "திரும்பிய": 8895,
      "அதிகரித்து": 8896,
      "ப்பொறி": 8897,
      "அதன்ப": 8898,
      "se": 8899,
      "தட்டு": 8900,
      "க்கத்தின்": 8901,
      "கொரியா": 8902,
      "அவளை": 8903,
      "நானூறு": 8904,
      "கிடைக்கிறது": 8905,
      "குறிப்பிடுகிறார்": 8906,
      "மீட்டர்கள்": 8907,
      "கரிக்க": 8908,
      "ப்புடன்": 8909,
      "ங்களா": 8910,
      "கருத்தில்": 8911,
      "தலி": 8912,
      "டைந்தது": 8913,
      "உயரமான": 8914,
      "பதவியில்": 8915,
      "உத்த": 8916,
      "த்மா": 8917,
      "தொடரின்": 8918,
      "காலமாக": 8919,
      "கணக்கி": 8920,
      "விட்டனர்": 8921,
      "நடைமுறையில்": 8922,
      "பிராந்திய": 8923,
      "ளர்களும்": 8924,
      "க்களைக்": 8925,
      "ஆஸ்திரேலிய": 8926,
      "காட்டிய": 8927,
      "தாரா": 8928,
      "கோப": 8929,
      "ஸ்டை": 8930,
      "கனவு": 8931,
      "மாதங்கள்": 8932,
      "நியாய": 8933,
      "if": 8934,
      "ஜப்பானிய": 8935,
      "ப்ளி": 8936,
      "தாது": 8937,
      "ஜின": 8938,
      "முறிய": 8939,
      "தாங்கள்": 8940,
      "தேட": 8941,
      "இந்நூல்": 8942,
      "அடைந்தது": 8943,
      "கூறியுள்ளார்": 8944,
      "பாக்டீரியா": 8945,
      "தலில்": 8946,
      "ரானது": 8947,
      "வராகவும்": 8948,
      "கடிதம்": 8949,
      "மேளகர்த்தா": 8950,
      "்கி": 8951,
      "முகம்மது": 8952,
      "விரைவு": 8953,
      "சாப்பி": 8954,
      "பிரசா": 8955,
      "அழைக்கப்பட்டது": 8956,
      "தேசம்": 8957,
      "தமிழகத்தின்": 8958,
      "கடவுளின்": 8959,
      "oh": 8960,
      "pro": 8961,
      "இப்பகுதி": 8962,
      "சகா": 8963,
      "ப்படுவதில்லை": 8964,
      "மானம்": 8965,
      "நிலைப்பள்ளி": 8966,
      "இடம்பெற்றது": 8967,
      "யோக": 8968,
      ");": 8969,
      "89": 8970,
      "ran": 8971,
      "ஆசை": 8972,
      "ஹால்": 8973,
      "முதி": 8974,
      "ப்பெண்": 8975,
      "அலங்கா": 8976,
      "என்கிறார்": 8977,
      "இத்தாலி": 8978,
      "காவல்து": 8979,
      "தளர்": 8980,
      "விருந்த": 8981,
      "வடிவத்தில்": 8982,
      "சவ": 8983,
      "விடய": 8984,
      "சேர்ந்தார்": 8985,
      "Com": 8986,
      "ஆழ்": 8987,
      "வசன": 8988,
      "நிலைகளில்": 8989,
      "தவிர்த்து": 8990,
      "ஆகியவற்றைக்": 8991,
      "சிக்கல்": 8992,
      "உள்நாட்டுப்": 8993,
      "வலிமை": 8994,
      "சமீபத்தில்": 8995,
      "Con": 8996,
      "எப்": 8997,
      "வற்றில்": 8998,
      "இந்திர": 8999,
      "காணும்": 9000,
      "தெரிவித்துள்ளார்": 9001,
      "அன்னை": 9002,
      "தங்களை": 9003,
      "ரத்து": 9004,
      "பயன்படுத்தலாம்": 9005,
      "வனம்": 9006,
      "சிறுகதைகள்": 9007,
      "மட்டக்கள": 9008,
      "இடைக்கால": 9009,
      "காந்த்": 9010,
      "கத்": 9011,
      "ட்ரிக்": 9012,
      "இயலாத": 9013,
      "ப்பெருக்க": 9014,
      "சாம்பியன்": 9015,
      "நிராகரி": 9016,
      "Pro": 9017,
      "வண்": 9018,
      "கோப்ப": 9019,
      "நிலையங்கள்": 9020,
      "மேற்கொண்டு": 9021,
      "தேர்ந்தெடுக்கப்பட்டார்": 9022,
      "63": 9023,
      "ோட்ட": 9024,
      "பாம்பு": 9025,
      "படகு": 9026,
      "ப்பொருட": 9027,
      "நந்த": 9028,
      "துளை": 9029,
      "ருடைய": 9030,
      "ின்றார்கள்": 9031,
      "லிக்": 9032,
      "அவ்வா": 9033,
      "தென்னிந்த": 9034,
      "கோயம்புத்தூர்": 9035,
      "69": 9036,
      "ரகு": 9037,
      "களிடம்": 9038,
      "போற்ற": 9039,
      "கோலா": 9040,
      "மீன்கள்": 9041,
      "பாரதிய": 9042,
      "ஐதர": 9043,
      "ஸ்பெ": 9044,
      "தென்னாப்பி": 9045,
      "74": 9046,
      "ியர்": 9047,
      "வைட்ட": 9048,
      "கம்பெ": 9049,
      "வெப்பம்": 9050,
      "சென்றது": 9051,
      "ரஷ்யா": 9052,
      "இரை": 9053,
      "பயங்கர": 9054,
      "சமண": 9055,
      "பங்களிப்பு": 9056,
      "விக்கிர": 9057,
      "யுனி": 9058,
      "பெற்றுக்": 9059,
      "முதன்முதலில்": 9060,
      "பிற்காலத்தில்": 9061,
      "நட்பு": 9062,
      "ப்பற்றி": 9063,
      "லாந்தில்": 9064,
      "காலகட்ட": 9065,
      "தூது": 9066,
      "குழாய்": 9067,
      "ug": 9068,
      "அத்தகைய": 9069,
      "விஷ்ணு": 9070,
      "ஷனல்": 9071,
      "செய்யவும்": 9072,
      "த்தார்கள்": 9073,
      "செல்லு": 9074,
      "அழற்சி": 9075,
      "புலிகளின்": 9076,
      "ational": 9077,
      "பிரதிநிதித்துவ": 9078,
      "இண்ட": 9079,
      "சமிக்": 9080,
      "இதுவும்": 9081,
      "சொல்லா": 9082,
      "வர்களால்": 9083,
      "வழங்கினார்": 9084,
      "வதாகக்": 9085,
      "மின்த": 9086,
      "உற்": 9087,
      "க்காட்ட": 9088,
      "பற்றிக்": 9089,
      "ையின": 9090,
      "க்குள்ள": 9091,
      "மாநாடு": 9092,
      "ப்பாட்டை": 9093,
      "கருப்பை": 9094,
      "வடக்கே": 9095,
      "அடங்கு": 9096,
      "க்கூடியது": 9097,
      "தரவுத்தள": 9098,
      "இவர்களுக்கு": 9099,
      "ஓடு": 9100,
      "நன்": 9101,
      "ரையை": 9102,
      "களினால்": 9103,
      "பாலம்": 9104,
      "தேவர்": 9105,
      "ளுக்கான": 9106,
      "அழைக்கப்படுகின்றன": 9107,
      "முறையாகும்": 9108,
      "ign": 9109,
      "வேண்டாம்": 9110,
      "சுற்றுச்சூழல்": 9111,
      "நோக்கில்": 9112,
      "முயற்சிகள்": 9113,
      "கொண்டிருக்கின்றன": 9114,
      "83": 9115,
      "துண்டு": 9116,
      "தலைவி": 9117,
      "படியும்": 9118,
      "கடினமான": 9119,
      "ஆபத்து": 9120,
      "பாசி": 9121,
      "முன்னதாக": 9122,
      "மடைந்த": 9123,
      "ஹொங்கொங்": 9124,
      "சமிக்ஞ": 9125,
      "தூக்க": 9126,
      "1937": 9127,
      "ஈழத்து": 9128,
      "ட்கா": 9129,
      "மேக்": 9130,
      "முடிவெ": 9131,
      "தோன்றியது": 9132,
      "இழந்து": 9133,
      "பாராட்ட": 9134,
      "சதவீதம்": 9135,
      "னஸ்": 9136,
      "பொழி": 9137,
      "அவள": 9138,
      "இயங்கி": 9139,
      "2021": 9140,
      "இருக்கிற": 9141,
      "உருவாக்கியது": 9142,
      "ப்பிரிவு": 9143,
      "நாட்காட்டி": 9144,
      "ஃபை": 9145,
      "அமு": 9146,
      "ஊர்வ": 9147,
      "லையில்": 9148,
      "முறு": 9149,
      "ஒருவன்": 9150,
      "ரீம்": 9151,
      "பார்ப்ப": 9152,
      "கிராமத்தில்": 9153,
      "கூடுதலான": 9154,
      "திகழ்க": 9155,
      "கசிய": 9156,
      "பாண்டி": 9157,
      "புரூ": 9158,
      "சூட்ட": 9159,
      "சூறா": 9160,
      "வனே": 9161,
      "விமர்சனம்": 9162,
      "ஒப்படை": 9163,
      "ஹர்": 9164,
      "ப்படம்": 9165,
      "தெல்லாம்": 9166,
      "வீசி": 9167,
      "ஆண்டுக்கு": 9168,
      "பெரும்பான்மை": 9169,
      "கிறிஸ்து": 9170,
      "பராமரி": 9171,
      "எத்தனை": 9172,
      "மானால்": 9173,
      "்களுக்கான": 9174,
      "காணப்படுகின்றது": 9175,
      "எரிமலை": 9176,
      "மேம்பாட்டு": 9177,
      "பூமியின்": 9178,
      "போஸ்": 9179,
      "மேய": 9180,
      "நீக்க": 9181,
      "செயற்கைக்கோ": 9182,
      "ஐந்தாவது": 9183,
      "இத்": 9184,
      "பழு": 9185,
      "பனை": 9186,
      "பின்னால்": 9187,
      "படிப்படியாக": 9188,
      "மறுத்து": 9189,
      "சுற்றுப்பய": 9190,
      "பாரசீக": 9191,
      "AS": 9192,
      "எர்": 9193,
      "வள்": 9194,
      "முப்ப": 9195,
      "தாண்டி": 9196,
      "என்பவை": 9197,
      "அரசர்": 9198,
      "கேப்": 9199,
      "நோர்": 9200,
      "வெளிப்பாடு": 9201,
      "இந்தியன்": 9202,
      "நாயக்கர்": 9203,
      "வசதிகள்": 9204,
      "ரையா": 9205,
      "டிக்கு": 9206,
      "இணைக்கப்பட்ட": 9207,
      "அனைவருக்கும்": 9208,
      "நிரல்": 9209,
      "07": 9210,
      "உங்கள": 9211,
      "லொ": 9212,
      "செயல்பாட்டு": 9213,
      "கிழக்குப்": 9214,
      "கிழக்கே": 9215,
      "குழுவில்": 9216,
      "கொடுத்தார்": 9217,
      "நாவல": 9218,
      "கைக்கு": 9219,
      "என்பதோடு": 9220,
      "மீதும்": 9221,
      "நேரி": 9222,
      "செய்யப்படுகின்றன": 9223,
      "நூல்களில்": 9224,
      "1936": 9225,
      "பும்": 9226,
      "ூரு": 9227,
      "களோடு": 9228,
      "போய": 9229,
      "மிர்": 9230,
      "மாகி": 9231,
      "பகுத்த": 9232,
      "சீட": 9233,
      "சீனி": 9234,
      "திட்டத்தை": 9235,
      "ஏற்றுமதி": 9236,
      "நொதி": 9237,
      "பேராசிரிய": 9238,
      "ஹரி": 9239,
      "ப்பியல்": 9240,
      "தேடு": 9241,
      "கோபால": 9242,
      "மையையும்": 9243,
      "அறிவிப்பு": 9244,
      "தெரிவித்த": 9245,
      "விதிகள்": 9246,
      "ass": 9247,
      "அமைந்திருக்கும்": 9248,
      "57": 9249,
      "ம்பிக்": 9250,
      "பிற்பகுதியில்": 9251,
      "நீரின்": 9252,
      "நாடுகளிலும்": 9253,
      "விளையாடினார்": 9254,
      "உற்பத்தியா": 9255,
      "பருத்தி": 9256,
      "உட்கொள்ள": 9257,
      "பன்னிர": 9258,
      "துரி": 9259,
      "ர்கால": 9260,
      "சைக்": 9261,
      "பரின்": 9262,
      "நெஞ்ச": 9263,
      "மரங்கள்": 9264,
      "மூலக்கூ": 9265,
      "மண்டபம்": 9266,
      "ஆப்பிள்": 9267,
      "ment": 9268,
      "பகை": 9269,
      "முதலி": 9270,
      "நடித்துள்ளார்": 9271,
      "அற்பு": 9272,
      "ண்டின்": 9273,
      "நாய்": 9274,
      "ரைன்": 9275,
      "இயற்": 9276,
      "சிறீ": 9277,
      "ையாகக்": 9278,
      "உடலின்": 9279,
      "டாக்": 9280,
      "தாவரங்கள்": 9281,
      "உதவியுடன்": 9282,
      "ஒருங்கிணைந்த": 9283,
      "ie": 9284,
      "சலி": 9285,
      "புகைய": 9286,
      "வரியில்": 9287,
      "வெண": 9288,
      "தியோ": 9289,
      "எனில்": 9290,
      "மென": 9291,
      "கருத்தை": 9292,
      "்களுடன்": 9293,
      "முழுவது": 9294,
      "வளர்த்த": 9295,
      "பண்ணை": 9296,
      "தோன்றி": 9297,
      "பேரரச": 9298,
      "போட்டியிட்ட": 9299,
      "னாய்": 9300,
      "மேற்கோ": 9301,
      "யிர்": 9302,
      "சேர்ந்தவர்": 9303,
      "புத்தகங்கள்": 9304,
      "இலாப": 9305,
      "92": 9306,
      "ட்டுக்": 9307,
      "மெர்": 9308,
      "நிறுவப்பட்ட": 9309,
      "க்கொண்டது": 9310,
      "பயன்படுத்துகின்றன": 9311,
      "ஆன்மீ": 9312,
      "தெளிவு": 9313,
      "ஆப்கானி": 9314,
      "தொல்லியல்": 9315,
      "உபக": 9316,
      "னியின்": 9317,
      "குறும்": 9318,
      "தொடர": 9319,
      "டென்னி": 9320,
      "கூட்டத்தில்": 9321,
      "மியூ": 9322,
      "வேகத்தில்": 9323,
      "அறியா": 9324,
      "சத்து": 9325,
      "றல்": 9326,
      "குளு": 9327,
      "வாகக்": 9328,
      "பரே": 9329,
      "டெர்": 9330,
      "நியூசிலாந்து": 9331,
      "எப்போது": 9332,
      "ஜப்பான்": 9333,
      "பூசை": 9334,
      "சமர்": 9335,
      "உயிரிய": 9336,
      "சாயன": 9337,
      "ப்படுத்துதல்": 9338,
      "ணியின்": 9339,
      "கம்பி": 9340,
      "தமிழா": 9341,
      "நிறுவனங்களின்": 9342,
      "சிரம": 9343,
      "62": 9344,
      "பண்டா": 9345,
      "ஹவு": 9346,
      "குப்த": 9347,
      "மாம்": 9348,
      "ச்சோ": 9349,
      "1918": 9350,
      "பேரில்": 9351,
      "நானோ": 9352,
      "விமர்சி": 9353,
      "பின்னாளில்": 9354,
      "ஈர்க்க": 9355,
      "முட": 9356,
      "ந்துள்ள": 9357,
      "க்கிகள்": 9358,
      "்ச்சல்": 9359,
      "மாநிலங்களில்": 9360,
      "கண்டுபிடிப்பு": 9361,
      "நாடாளுமன்றம்": 9362,
      "தரையிற": 9363,
      "ஹில்": 9364,
      "குழி": 9365,
      "மெக்": 9366,
      "கடன": 9367,
      "தூரம்": 9368,
      "வாழ்வில்": 9369,
      "விதத்தில்": 9370,
      "வலைத்தளம்": 9371,
      "புவியின்": 9372,
      "வதம்": 9373,
      "சிங்கம்": 9374,
      "மேற்கே": 9375,
      "இப்பகுதியில்": 9376,
      "வர்ட்": 9377,
      "மூச்சு": 9378,
      "டாலர்": 9379,
      "நடிப்பு": 9380,
      "உலகக்": 9381,
      "செயல்பட்ட": 9382,
      "கரமான": 9383,
      "கைப்பற்றி": 9384,
      "இறுதிப்": 9385,
      "CC": 9386,
      "இதி": 9387,
      "புரியும்": 9388,
      "தேன்": 9389,
      "ினைக்": 9390,
      "அப்படியே": 9391,
      "வயிற்று": 9392,
      "குன்ற": 9393,
      "ப்பாதை": 9394,
      "நிறுவனத்தில்": 9395,
      "அமெரிக்கக்": 9396,
      "மணிமே": 9397,
      "சமன்பாடு": 9398,
      "அதற்க": 9399,
      "தொல்": 9400,
      "மையமாக": 9401,
      "ிருக்கிறார்கள்": 9402,
      "அறியப்படும்": 9403,
      "செய்கின்றன": 9404,
      "பிரதிபலி": 9405,
      "சீனாவின்": 9406,
      "அப்போதைய": 9407,
      "ge": 9408,
      "கங்கை": 9409,
      "ன்பு": 9410,
      "பொதுச்": 9411,
      "வர்த்தகம்": 9412,
      "ஆட்டம்": 9413,
      "உமிழ்": 9414,
      "செப்": 9415,
      "மாண்ட": 9416,
      "மிதி": 9417,
      "இயங்க": 9418,
      "தலைநக": 9419,
      "அரசுக்கு": 9420,
      "மொழிபெயர்ப்பு": 9421,
      "கன்னியாகுமரி": 9422,
      "எடி": 9423,
      "நிபந்த": 9424,
      "இவ்வு": 9425,
      "காட்சிகள்": 9426,
      "ர்களிடையே": 9427,
      "Ind": 9428,
      "தானியங்கி": 9429,
      "05": 9430,
      "our": 9431,
      "ற்றின்": 9432,
      "வாட்": 9433,
      "டைம்ஸ்": 9434,
      "மெதுவாக": 9435,
      "தோழி": 9436,
      "சார்லஸ்": 9437,
      "மதிப்பி": 9438,
      "வடக்கில்": 9439,
      "குறிப்பிட்டார்": 9440,
      "இம்மொழி": 9441,
      "காளி": 9442,
      "ிருத": 9443,
      "த்தினம்": 9444,
      "ஆரம்பித்து": 9445,
      "age": 9446,
      "சந்தர்ப்ப": 9447,
      "வையே": 9448,
      "ுக்குப்": 9449,
      "வரிகள்": 9450,
      "பழம்": 9451,
      "அங்கிருந்து": 9452,
      "1938": 9453,
      "82": 9454,
      "க்ள": 9455,
      "சிந்தி": 9456,
      "இருத்தல்": 9457,
      "தார்த்த": 9458,
      "வெற்ற": 9459,
      "கூட்டி": 9460,
      "நேர்கா": 9461,
      "சோன்": 9462,
      "வானியலாளர்": 9463,
      "ich": 9464,
      "ure": 9465,
      "டையும்": 9466,
      "விளி": 9467,
      "பெட்டி": 9468,
      "ராதா": 9469,
      "கொன்று": 9470,
      "பிரம்மா": 9471,
      "முடிச்சு": 9472,
      "ant": 9473,
      "எழுத்துக்கள்": 9474,
      "இயல்பான": 9475,
      "பாக்கித்தான": 9476,
      "பஞ்சாப்": 9477,
      "தங்கம்": 9478,
      "லண்ட": 9479,
      "மாறா": 9480,
      "மக்களா": 9481,
      "சார்பாக": 9482,
      "ிடமிருந்து": 9483,
      "புறக்கணி": 9484,
      "கனிம": 9485,
      "காகி": 9486,
      "மியின்": 9487,
      "பிற்ப": 9488,
      "பதிவுகள்": 9489,
      "உலகெ": 9490,
      "கட்டிடம்": 9491,
      "ையோர": 9492,
      "திரைக்கதை": 9493,
      "புள்ளிய": 9494,
      "02": 9495,
      "பிரசு": 9496,
      "பரவல": 9497,
      "படைப்புகள்": 9498,
      "நடைபெற்று": 9499,
      "end": 9500,
      "இருப்பதை": 9501,
      "பள்ளிகள்": 9502,
      "கொடுக்கப்பட்ட": 9503,
      "இராகத்தில்": 9504,
      "திகழ்": 9505,
      "ஷ்டி": 9506,
      "சலே": 9507,
      "ொளி": 9508,
      "சும": 9509,
      "தென்ன": 9510,
      "பெறவில்லை": 9511,
      "ஒலிம்பிக்": 9512,
      "தொகுதிகள்": 9513,
      "06": 9514,
      "எறி": 9515,
      "ஆகையால்": 9516,
      "டியான": 9517,
      "நீக்கம்": 9518,
      "இரவில்": 9519,
      "ியைச்": 9520,
      "ப்படுத்துகிறது": 9521,
      "பொருத்தமான": 9522,
      "அப்துல்": 9523,
      "அஸ்": 9524,
      "புயல்": 9525,
      "பெற்றன": 9526,
      "கலப்பு": 9527,
      "தேவையில்": 9528,
      "குற்றவா": 9529,
      "பிறந்தவர்": 9530,
      "மாகாணத்தில்": 9531,
      "நியமிக்கப்பட்டார்": 9532,
      "நேர்காண": 9533,
      "அயோ": 9534,
      "ஏதோ": 9535,
      "போடு": 9536,
      "கோழி": 9537,
      "பரப்பும்": 9538,
      "ராயன்": 9539,
      "மலையா": 9540,
      "சங்கர்": 9541,
      "பிரான்சிய": 9542,
      "கொள்வது": 9543,
      "ஆட்சியா": 9544,
      "வராவார்": 9545,
      "தடுத்து": 9546,
      "ீட்ட": 9547,
      "மாந்த": 9548,
      "இருந்ததால்": 9549,
      "துறையின்": 9550,
      "அனி": 9551,
      "அக்கா": 9552,
      "ஆண்டும்": 9553,
      "தொண்ட": 9554,
      "ரைட்": 9555,
      "அடையும்": 9556,
      "டேட்டா": 9557,
      "ஒப்பிடு": 9558,
      "ஆய்வாளர்கள்": 9559,
      "தற்கொலை": 9560,
      "ஸன்": 9561,
      "ாம்": 9562,
      "ங்குகள்": 9563,
      "்களைப்": 9564,
      "பட்டியலிட": 9565,
      "நைட்ர": 9566,
      "De": 9567,
      "ையெ": 9568,
      "ண்டல்": 9569,
      "வாளர்": 9570,
      "டைந்து": 9571,
      "ர்தல்": 9572,
      "இடத்தைப்": 9573,
      "நிச்சய": 9574,
      "84": 9575,
      "இதற்க": 9576,
      "திணி": 9577,
      "விவாதி": 9578,
      "வேட": 9579,
      "கைவிட": 9580,
      "உயர்வு": 9581,
      "முன்னால்": 9582,
      "காரணத்தால்": 9583,
      "பீட": 9584,
      "நாட்டுப்புற": 9585,
      "ish": 9586,
      "முன்பாக": 9587,
      "61": 9588,
      "கள்ள": 9589,
      "வில்ல": 9590,
      "இறக்கு": 9591,
      "வெண்பா": 9592,
      "கட்டுப்பாட்டில்": 9593,
      "களாலும்": 9594,
      "வர்ண": 9595,
      "பிரஸ்": 9596,
      "திருவள்ள": 9597,
      "டாம்": 9598,
      "நாடாக": 9599,
      "est": 9600,
      "ஈடுபடு": 9601,
      "இன்றிய": 9602,
      "ஏற்படுத்தியது": 9603,
      "கிருஷ்ணா": 9604,
      "பிராமண": 9605,
      "ஈரான": 9606,
      "கய": 9607,
      "சப்பானிய": 9608,
      "நோய்க்கு": 9609,
      "நிரலா": 9610,
      "தொடங்கின": 9611,
      "எண்ணிக்கையில்": 9612,
      "97": 9613,
      "CO": 9614,
      "செய்யப்பட்டுள்ளது": 9615,
      "த்திற்குள்": 9616,
      "விடுமுறை": 9617,
      "மூலமும்": 9618,
      "ட்ர": 9619,
      "முகமது": 9620,
      "மனிதர்": 9621,
      "திருச்சபை": 9622,
      "ஊக்க": 9623,
      "கரையில்": 9624,
      "உட்புற": 9625,
      "தவற": 9626,
      "மின்னஞ்சல்": 9627,
      "வருமானம்": 9628,
      "வித்தியாச": 9629,
      "தலின்": 9630,
      "ஹு": 9631,
      "விபத்து": 9632,
      "கூறுகின்றனர்": 9633,
      "வரையிலும்": 9634,
      "மியர்": 9635,
      "ஏனென்றால்": 9636,
      "அரண்மனை": 9637,
      "வேட்டையா": 9638,
      "அநே": 9639,
      "கொல்கத்தா": 9640,
      "சேவைய": 9641,
      "பெயரால்": 9642,
      "வெளியிடு": 9643,
      "ஒன்றின்": 9644,
      "திரைப்படத்தின்": 9645,
      "விலக்கு": 9646,
      "ப்பினார்": 9647,
      "அருணா": 9648,
      "போனது": 9649,
      "இயற்பியலாளர்": 9650,
      "நாதபுரம்": 9651,
      "இதற்காக": 9652,
      "ூட்டி": 9653,
      "ல்டு": 9654,
      "காட்": 9655,
      "செங்க": 9656,
      "தேர்ச்சி": 9657,
      "யிரி": 9658,
      "படைத்த": 9659,
      "பாகம்": 9660,
      "விளையாடி": 9661,
      "கருதுகின்றனர்": 9662,
      "CD": 9663,
      "உமா": 9664,
      "வீழ்": 9665,
      "செயல்படுகிறது": 9666,
      "மறைந்த": 9667,
      "தாழ்த்த": 9668,
      "ஐயர்": 9669,
      "கன்னி": 9670,
      "மாடு": 9671,
      "புத்தா": 9672,
      "மூடி": 9673,
      "சூத்திர": 9674,
      "திட்டத்தின்": 9675,
      "ory": 9676,
      "பொருளாக": 9677,
      "சிறப்புப்": 9678,
      "எவ்வித": 9679,
      "தெளிவான": 9680,
      "ஏறக்குறைய": 9681,
      "உவ": 9682,
      "மனதில்": 9683,
      "விமர்சக": 9684,
      "பெரும்பான்மையான": 9685,
      "எடைய": 9686,
      "ஜரா": 9687,
      "த்தையே": 9688,
      "வைக்கப்பட்டது": 9689,
      "சாதிய": 9690,
      "மெல்லிய": 9691,
      "அமைகிறது": 9692,
      "பாடக": 9693,
      "ரீதியில்": 9694,
      "ஸ்து": 9695,
      "நோய்த்த": 9696,
      "சுழற்சிய": 9697,
      "Sp": 9698,
      "நபி": 9699,
      "ியப்": 9700,
      "பிண": 9701,
      "பிளவு": 9702,
      "பயனுள்ள": 9703,
      "வருவாய": 9704,
      "அதைத்": 9705,
      "விவகார": 9706,
      "எளிமையான": 9707,
      "கமி": 9708,
      "தன்னா": 9709,
      "லவ்": 9710,
      "ப்பதும்": 9711,
      "ட்டியின்": 9712,
      "மிரா": 9713,
      "நிலையத்தில்": 9714,
      "செல்வம்": 9715,
      "புகழ": 9716,
      "பாயும்": 9717,
      "ஜப்பான": 9718,
      "மைத்திரி": 9719,
      "சிதம்ப": 9720,
      "பிரிக்கா": 9721,
      "அதிகப்படியான": 9722,
      "முடித்து": 9723,
      "விருதை": 9724,
      "மரணம்": 9725,
      "ஆணையம்": 9726,
      "ஒட்ட": 9727,
      "ந்தே": 9728,
      "சாட்ட": 9729,
      "ஹாலி": 9730,
      "பெறுகிறது": 9731,
      "ஆதிக்கம்": 9732,
      "நண்பர்கள்": 9733,
      "ொட": 9734,
      "தொடங்கும்": 9735,
      "காலநிலை": 9736,
      "செய்யு": 9737,
      "இடத்தையும்": 9738,
      "art": 9739,
      "கூறலாம்": 9740,
      "இதைப்": 9741,
      "சுரங்கள்": 9742,
      "எரிபொருள்": 9743,
      "தங்களுக்கு": 9744,
      "போர்டு": 9745,
      "இடர்": 9746,
      "உறுதிய": 9747,
      "வகைகளில்": 9748,
      "வளர்ப்பு": 9749,
      "ical": 9750,
      "பணியாற்றி": 9751,
      "பருவத்தில்": 9752,
      "முருக": 9753,
      "தற்காலத்தில்": 9754,
      "அசி": 9755,
      "மார": 9756,
      "கட்டப்பட்டது": 9757,
      "வளர": 9758,
      "இறைய": 9759,
      "ஹார்ட்": 9760,
      "04": 9761,
      "ஏதும்": 9762,
      "ஜாக": 9763,
      "ஸ்லா": 9764,
      "தேனி": 9765,
      "ம்பிய": 9766,
      "ப்பாடி": 9767,
      "கொண்டவர்": 9768,
      "தீவில்": 9769,
      "tive": 9770,
      "கப்பல்கள்": 9771,
      "ஆதரவளி": 9772,
      "திருவண்ணா": 9773,
      "மைப்பில்": 9774,
      "நிலத்தில்": 9775,
      "பயர்": 9776,
      "குறிப்ப": 9777,
      "கடமை": 9778,
      "தமிழகம்": 9779,
      "க்கோடு": 9780,
      "வுக்குப்": 9781,
      "நீர்ம": 9782,
      "ஹெச்": 9783,
      "க்சு": 9784,
      "1933": 9785,
      "ஆத்திரேலிய": 9786,
      "அக்கால": 9787,
      "வட்டி": 9788,
      "முளை": 9789,
      "காவிய": 9790,
      "உருவக": 9791,
      "ஸ்டெ": 9792,
      "உயிரு": 9793,
      "ism": 9794,
      "கட்டிடங்கள்": 9795,
      "க்கருவி": 9796,
      "En": 9797,
      "ஆல்க": 9798,
      "ப்ரி": 9799,
      "மிள": 9800,
      "கொங்கு": 9801,
      "அவனுக்கு": 9802,
      "இணையத்தில்": 9803,
      "க்காரர்கள்": 9804,
      "புள்ளிகள்": 9805,
      "திருச்சப": 9806,
      "ஊழல்": 9807,
      "ருமான": 9808,
      "வாசல்": 9809,
      "1929": 9810,
      "ப்பாய்": 9811,
      "வெளியீட்டு": 9812,
      "்களுக்கும்": 9813,
      "1935": 9814,
      "வருடங்கள்": 9815,
      "வரவேற்ப": 9816,
      "அவ்வப்போது": 9817,
      "முற்": 9818,
      "பித்த": 9819,
      "வெண்க": 9820,
      "நிமி": 9821,
      "நடனம்": 9822,
      "தானம்": 9823,
      "250": 9824,
      "உறவின": 9825,
      "எழுத்தாளர்கள்": 9826,
      "ஆளுநர்": 9827,
      "வரையறுக்கப்பட்ட": 9828,
      "பண்புகள்": 9829,
      "ஓரளவு": 9830,
      "ஆத்திரேலியா": 9831,
      "சங்கிலி": 9832,
      "ஷம்": 9833,
      "த்துக்காக": 9834,
      "போதிய": 9835,
      "வைண": 9836,
      "கினி": 9837,
      "லிவர்": 9838,
      "அதுவே": 9839,
      "குழந்தைகளுக்கு": 9840,
      "கால்நடை": 9841,
      "சேர்க்கை": 9842,
      "கூறியது": 9843,
      "மேம்பட்ட": 9844,
      "விவசாயம்": 9845,
      "பசிபிக்": 9846,
      "எட்ட": 9847,
[...]
