{
  "version": "1.0",
  "truncation": null,
  "padding": null,
  "added_tokens": [
    {
      "id": 0,
      "content": "<unk>",
      "single_word": false,
      "lstrip": false,
      "rstrip": false,
      "normalized": false,
      "special": true
    },
    {
      "id": 1,
      "content": "<pad>",
      "single_word": false,
      "lstrip": false,
      "rstrip": false,
      "normalized": false,
      "special": true
    },
    {
      "id": 2,
      "content": "<bos>",
      "single_word": false,
      "lstrip": false,
      "rstrip": false,
      "normalized": false,
      "special": true
    },
    {
      "id": 3,
      "content": "<eos>",
      "single_word": false,
      "lstrip": false,
      "rstrip": false,
      "normalized": false,
      "special": true
    }
  ],
  "normalizer": null,
  "pre_tokenizer": {
    "type": "Whitespace"
  },
  "post_processor": null,
  "decoder": {
    "type": "BPEDecoder",
    "suffix": "</w>"
  },
  "model": {
    "type": "BPE",
    "dropout": null,
    "unk_token": "<unk>",
    "continuing_subword_prefix": null,
    "end_of_word_suffix": null,
    "fuse_unk": false,
    "byte_fallback": false,
    "ignore_merges": false,
    "vocab": {
      "<unk>": 0,
      "<pad>": 1,
      "<bos>": 2,
      "<eos>": 3,
      "!": 4,
      "\"": 5,
      "#": 6,
      "$": 7,
      "%": 8,
      "&": 9,
      "'": 10,
      "(": 11,
      ")": 12,
      "*": 13,
      "+": 14,
      ",": 15,
      "-": 16,
      ".": 17,
      "/": 18,
      "0": 19,
      "1": 20,
      "2": 21,
      "3": 22,
      "4": 23,
      "5": 24,
      "6": 25,
      "7": 26,
      "8": 27,
      "9": 28,
      ":": 29,
      ";": 30,
      "<": 31,
      "=": 32,
      ">": 33,
      "?": 34,
      "@": 35,
      "A": 36,
      "B": 37,
      "C": 38,
      "D": 39,
      "E": 40,
      "F": 41,
      "G": 42,
      "H": 43,
      "I": 44,
      "J": 45,
      "K": 46,
      "L": 47,
      "M": 48,
      "N": 49,
      "O": 50,
      "P": 51,
      "Q": 52,
      "R": 53,
      "S": 54,
      "T": 55,
      "U": 56,
      "V": 57,
      "W": 58,
      "X": 59,
      "Y": 60,
      "Z": 61,
      "[": 62,
      "\\": 63,
      "]": 64,
      "^": 65,
      "_": 66,
      "`": 67,
      "a": 68,
      "b": 69,
      "c": 70,
      "d": 71,
      "e": 72,
      "f": 73,
      "g": 74,
      "h": 75,
      "i": 76,
      "j": 77,
      "k": 78,
      "l": 79,
      "m": 80,
      "n": 81,
      "o": 82,
      "p": 83,
      "q": 84,
      "r": 85,
      "s": 86,
      "t": 87,
      "u": 88,
      "v": 89,
      "w": 90,
      "x": 91,
      "y": 92,
      "z": 93,
      "{": 94,
      "|": 95,
      "}": 96,
      "~": 97,
      "": 98,
      "¡": 99,
      "¢": 100,
      "£": 101,
      "¥": 102,
      "§": 103,
      "¨": 104,
      "©": 105,
      "«": 106,
      "¬": 107,
      "­": 108,
      "®": 109,
      "¯": 110,
      "°": 111,
      "±": 112,
      "²": 113,
      "³": 114,
      "´": 115,
      "µ": 116,
      "·": 117,
      "¸": 118,
      "¹": 119,
      "º": 120,
      "»": 121,
      "¼": 122,
      "½": 123,
      "¾": 124,
      "À": 125,
      "Á": 126,
      "Â": 127,
      "Ä": 128,
      "Å": 129,
      "Ç": 130,
      "È": 131,
      "É": 132,
      "Í": 133,
      "Î": 134,
      "Ð": 135,
      "Ó": 136,
      "Ô": 137,
      "Ö": 138,
      "×": 139,
      "Ø": 140,
      "Ú": 141,
      "Û": 142,
      "Ü": 143,
      "ß": 144,
      "à": 145,
      "á": 146,
      "â": 147,
      "ã": 148,
      "ä": 149,
      "å": 150,
      "æ": 151,
      "ç": 152,
      "è": 153,
      "é": 154,
      "ê": 155,
      "ë": 156,
      "ì": 157,
      "í": 158,
      "î": 159,
      "ï": 160,
      "ð": 161,
      "ñ": 162,
      "ò": 163,
      "ó": 164,
      "ô": 165,
      "õ": 166,
      "ö": 167,
      "÷": 168,
      "ø": 169,
      "ù": 170,
      "ú": 171,
      "û": 172,
      "ü": 173,
      "ý": 174,
      "þ": 175,
      "Ā": 176,
      "ā": 177,
      "Ă": 178,
      "ă": 179,
      "ą": 180,
      "Ć": 181,
      "ć": 182,
      "Č": 183,
      "č": 184,
      "ď": 185,
      "Đ": 186,
      "đ": 187,
      "Ē": 188,
      "ē": 189,
      "ĕ": 190,
      "ė": 191,
      "ę": 192,
      "ě": 193,
      "ğ": 194,
      "Ġ": 195,
      "ġ": 196,
      "Ĥ": 197,
      "ħ": 198,
      "ĩ": 199,
      "ī": 200,
      "ĭ": 201,
      "İ": 202,
      "ı": 203,
      "ĵ": 204,
      "ļ": 205,
      "Ł": 206,
      "ł": 207,
      "ń": 208,
      "ň": 209,
      "ŋ": 210,
      "Ō": 211,
      "ō": 212,
      "ŏ": 213,
      "ő": 214,
      "œ": 215,
      "ř": 216,
      "Ś": 217,
      "ś": 218,
      "Ş": 219,
      "ş": 220,
      "Š": 221,
      "š": 222,
      "Ţ": 223,
      "ţ": 224,
      "ť": 225,
      "ũ": 226,
      "Ū": 227,
      "ū": 228,
      "ŭ": 229,
      "ů": 230,
      "ű": 231,
      "Ż": 232,
      "Ž": 233,
      "ž": 234,
      "ƒ": 235,
      "ơ": 236,
      "ƣ": 237,
      "ư": 238,
      "ǃ": 239,
      "ǎ": 240,
      "ǐ": 241,
      "ǒ": 242,
      "ǔ": 243,
      "ȁ": 244,
      "Ș": 245,
      "ȟ": 246,
      "Ɍ": 247,
      "ɐ": 248,
      "ɑ": 249,
      "ɒ": 250,
      "ɔ": 251,
      "ɕ": 252,
      "ɘ": 253,
      "ə": 254,
      "ɚ": 255,
      "ɛ": 256,
      "ɜ": 257,
      "ɝ": 258,
      "ɡ": 259,
      "ɣ": 260,
      "ɨ": 261,
      "ɪ": 262,
      "ɫ": 263,
      "ɬ": 264,
      "ɯ": 265,
      "ɰ": 266,
      "ɲ": 267,
      "ɴ": 268,
      "ɵ": 269,
      "ɹ": 270,
      "ɽ": 271,
      "ɾ": 272,
      "ʀ": 273,
      "ʁ": 274,
      "ʂ": 275,
      "ʃ": 276,
      "ʈ": 277,
      "ʊ": 278,
      "ʋ": 279,
      "ʌ": 280,
      "ʎ": 281,
      "ʑ": 282,
      "ʒ": 283,
      "ʔ": 284,
      "ʕ": 285,
      "ʤ": 286,
      "ʥ": 287,
      "ʨ": 288,
      "ʰ": 289,
      "ʲ": 290,
      "ʷ": 291,
      "ʹ": 292,
      "ʻ": 293,
      "ʼ": 294,
      "ʾ": 295,
      "ʿ": 296,
      "ˈ": 297,
      "ˌ": 298,
      "ː": 299,
      "˘": 300,
      "˚": 301,
      "ˤ": 302,
      "̀": 303,
      "́": 304,
      "̃": 305,
      "̅": 306,
      "̆": 307,
      "̌": 308,
      "̥": 309,
      "̪": 310,
      "̯": 311,
      "̽": 312,
      "͡": 313,
      "Έ": 314,
      "Ό": 315,
      "ΐ": 316,
      "Α": 317,
      "Β": 318,
      "Γ": 319,
      "Δ": 320,
      "Ε": 321,
      "Ζ": 322,
      "Η": 323,
      "Θ": 324,
      "Ι": 325,
      "Κ": 326,
      "Λ": 327,
      "Μ": 328,
      "Ν": 329,
      "Ξ": 330,
      "Ο": 331,
      "Π": 332,
      "Ρ": 333,
      "Σ": 334,
      "Τ": 335,
      "Υ": 336,
      "Φ": 337,
      "Χ": 338,
      "Ψ": 339,
      "Ω": 340,
      "ά": 341,
      "έ": 342,
      "ή": 343,
      "ί": 344,
      "α": 345,
      "β": 346,
      "γ": 347,
      "δ": 348,
      "ε": 349,
      "ζ": 350,
      "η": 351,
      "θ": 352,
      "ι": 353,
      "κ": 354,
      "λ": 355,
      "μ": 356,
      "ν": 357,
      "ξ": 358,
      "ο": 359,
      "π": 360,
      "ρ": 361,
      "ς": 362,
      "σ": 363,
      "τ": 364,
      "υ": 365,
      "φ": 366,
      "χ": 367,
      "ψ": 368,
      "ω": 369,
      "ϊ": 370,
      "ό": 371,
      "ύ": 372,
      "ώ": 373,
      "ϑ": 374,
      "ϒ": 375,
      "ϛ": 376,
      "Ђ": 377,
      "І": 378,
      "Ї": 379,
      "Ј": 380,
      "А": 381,
      "Б": 382,
      "В": 383,
      "Г": 384,
      "Д": 385,
      "Е": 386,
      "З": 387,
      "И": 388,
      "Й": 389,
      "К": 390,
      "Л": 391,
      "М": 392,
      "Н": 393,
      "О": 394,
      "П": 395,
      "Р": 396,
      "С": 397,
      "Т": 398,
      "У": 399,
      "Ф": 400,
      "Х": 401,
      "Ц": 402,
      "Ъ": 403,
      "Ь": 404,
      "Ю": 405,
      "Я": 406,
      "а": 407,
      "б": 408,
      "в": 409,
      "г": 410,
      "д": 411,
      "е": 412,
      "ж": 413,
      "з": 414,
      "и": 415,
      "й": 416,
      "к": 417,
      "л": 418,
      "м": 419,
      "н": 420,
      "о": 421,
      "п": 422,
      "р": 423,
      "с": 424,
      "т": 425,
      "у": 426,
      "ф": 427,
      "х": 428,
      "ц": 429,
      "ч": 430,
      "ш": 431,
      "щ": 432,
      "ъ": 433,
      "ы": 434,
      "ь": 435,
      "э": 436,
      "ю": 437,
      "я": 438,
      "ё": 439,
      "є": 440,
      "і": 441,
      "ј": 442,
      "ћ": 443,
      "џ": 444,
      "Ѡ": 445,
      "Ѥ": 446,
      "Ѧ": 447,
      "Ѩ": 448,
      "Ѭ": 449,
      "Ѿ": 450,
      "ғ": 451,
      "ҡ": 452,
      "ң": 453,
      "ұ": 454,
      "ҷ": 455,
      "һ": 456,
      "Ӏ": 457,
      "Ә": 458,
      "ә": 459,
      "ӣ": 460,
      "ӯ": 461,
      "Դ": 462,
      "Հ": 463,
      "ա": 464,
      "դ": 465,
      "կ": 466,
      "մ": 467,
      "յ": 468,
      "ն": 469,
      "ս": 470,
      "տ": 471,
      "ր": 472,
      "ք": 473,
      "֏": 474,
      "ְ": 475,
      "ֱ": 476,
      "ֲ": 477,
      "ִ": 478,
      "ֵ": 479,
      "ֶ": 480,
      "ַ": 481,
      "ָ": 482,
      "ֹ": 483,
      "ּ": 484,
      "־": 485,
      "ׁ": 486,
      "ׂ": 487,
      "א": 488,
      "ב": 489,
      "ג": 490,
      "ד": 491,
      "ה": 492,
      "ו": 493,
      "ז": 494,
      "ח": 495,
      "ט": 496,
      "י": 497,
      "ך": 498,
      "כ": 499,
      "ל": 500,
      "ם": 501,
      "מ": 502,
      "ן": 503,
      "נ": 504,
      "ס": 505,
      "ע": 506,
      "ף": 507,
      "פ": 508,
      "צ": 509,
      "ק": 510,
      "ר": 511,
      "ש": 512,
      "ת": 513,
      "װ": 514,
      "ء": 515,
      "آ": 516,
      "أ": 517,
      "ؤ": 518,
      "إ": 519,
      "ئ": 520,
      "ا": 521,
      "ب": 522,
      "ة": 523,
      "ت": 524,
      "ث": 525,
      "ج": 526,
      "ح": 527,
      "خ": 528,
      "د": 529,
      "ذ": 530,
      "ر": 531,
      "ز": 532,
      "س": 533,
      "ش": 534,
      "ص": 535,
      "ض": 536,
      "ط": 537,
      "ظ": 538,
      "ع": 539,
      "غ": 540,
      "ـ": 541,
      "ف": 542,
      "ق": 543,
      "ك": 544,
      "ل": 545,
      "م": 546,
      "ن": 547,
      "ه": 548,
      "و": 549,
      "ى": 550,
      "ي": 551,
      "ً": 552,
      "ٌ": 553,
      "ٍ": 554,
      "َ": 555,
      "ُ": 556,
      "ِ": 557,
      "ّ": 558,
      "ْ": 559,
      "ٔ": 560,
      "ٰ": 561,
      "ٹ": 562,
      "ٽ": 563,
      "پ": 564,
      "ڀ": 565,
      "چ": 566,
      "ڈ": 567,
      "ڌ": 568,
      "ڑ": 569,
      "ژ": 570,
      "ښ": 571,
      "ڠ": 572,
      "ڤ": 573,
      "ک": 574,
      "ګ": 575,
      "ڭ": 576,
      "گ": 577,
      "ں": 578,
      "ھ": 579,
      "ہ": 580,
      "ۆ": 581,
      "ۇ": 582,
      "ۈ": 583,
      "ی": 584,
      "ۍ": 585,
      "ے": 586,
      "ۓ": 587,
      "ە": 588,
      "ݢ": 589,
      "ހ": 590,
      "ނ": 591,
      "ރ": 592,
      "ބ": 593,
      "އ": 594,
      "ވ": 595,
      "މ": 596,
      "ފ": 597,
      "ދ": 598,
      "ތ": 599,
      "ލ": 600,
      "ގ": 601,
      "ޔ": 602,
      "ޝ": 603,
      "ަ": 604,
      "ާ": 605,
      "ި": 606,
      "ީ": 607,
      "ު": 608,
      "ޫ": 609,
      "ް": 610,
      "ँ": 611,
      "ं": 612,
      "ः": 613,
      "अ": 614,
      "आ": 615,
      "इ": 616,
      "ई": 617,
      "उ": 618,
      "ऊ": 619,
      "ऋ": 620,
      "ऌ": 621,
      "ऍ": 622,
      "ए": 623,
      "ओ": 624,
      "क": 625,
      "ख": 626,
      "ग": 627,
      "घ": 628,
      "ङ": 629,
      "च": 630,
      "छ": 631,
      "ज": 632,
      "झ": 633,
      "ञ": 634,
      "ट": 635,
      "ठ": 636,
      "ड": 637,
      "ढ": 638,
      "ण": 639,
      "त": 640,
      "थ": 641,
      "द": 642,
      "ध": 643,
      "न": 644,
      "प": 645,
      "फ": 646,
      "ब": 647,
      "भ": 648,
      "म": 649,
      "य": 650,
      "र": 651,
      "ल": 652,
      "ळ": 653,
      "व": 654,
      "श": 655,
      "ष": 656,
      "स": 657,
      "ह": 658,
      "़": 659,
      "ा": 660,
      "ि": 661,
      "ी": 662,
      "ु": 663,
      "ू": 664,
      "ृ": 665,
      "ॅ": 666,
      "े": 667,
      "ै": 668,
      "ो": 669,
      "ौ": 670,
      "्": 671,
      "ॐ": 672,
      "ॠ": 673,
      "ॡ": 674,
      "३": 675,
      "॰": 676,
      "ঁ": 677,
      "ং": 678,
      "অ": 679,
      "আ": 680,
      "ই": 681,
      "উ": 682,
      "ও": 683,
      "ক": 684,
      "খ": 685,
      "গ": 686,
      "ঘ": 687,
      "ঙ": 688,
      "চ": 689,
      "জ": 690,
      "ঝ": 691,
      "ঞ": 692,
      "ট": 693,
      "ঠ": 694,
      "ড": 695,
      "ণ": 696,
      "ত": 697,
      "থ": 698,
      "দ": 699,
      "ন": 700,
      "প": 701,
      "ফ": 702,
      "ব": 703,
      "ভ": 704,
      "ম": 705,
      "য": 706,
      "র": 707,
      "ল": 708,
      "শ": 709,
      "ষ": 710,
      "স": 711,
      "হ": 712,
      "়": 713,
      "া": 714,
      "ি": 715,
      "ী": 716,
      "ু": 717,
      "ে": 718,
      "ৈ": 719,
      "ো": 720,
      "্": 721,
      "ৎ": 722,
      "ৰ": 723,
      "ਅ": 724,
      "ਆ": 725,
      "ਈ": 726,
      "ਓ": 727,
      "ਕ": 728,
      "ਖ": 729,
      "ਗ": 730,
      "ਘ": 731,
      "ਜ": 732,
      "ਣ": 733,
      "ਤ": 734,
      "ਦ": 735,
      "ਧ": 736,
      "ਨ": 737,
      "ਪ": 738,
      "ਬ": 739,
      "ਭ": 740,
      "ਮ": 741,
      "ਰ": 742,
      "ਲ": 743,
      "ਵ": 744,
      "ਸ": 745,
      "ਹ": 746,
      "਼": 747,
      "ਾ": 748,
      "ਿ": 749,
      "ੀ": 750,
      "ੁ": 751,
      "ੇ": 752,
      "ੈ": 753,
      "ੋ": 754,
      "ੜ": 755,
      "੭": 756,
      "ੰ": 757,
      "ੱ": 758,
      "ં": 759,
      "આ": 760,
      "ઈ": 761,
      "ક": 762,
      "ગ": 763,
      "જ": 764,
      "ટ": 765,
      "ણ": 766,
      "ત": 767,
      "દ": 768,
      "ધ": 769,
      "ન": 770,
      "પ": 771,
      "બ": 772,
      "ભ": 773,
      "મ": 774,
      "ય": 775,
      "ર": 776,
      "લ": 777,
      "ળ": 778,
      "વ": 779,
      "શ": 780,
      "સ": 781,
      "હ": 782,
      "ા": 783,
      "િ": 784,
      "ી": 785,
      "ુ": 786,
      "ૂ": 787,
      "ે": 788,
      "ૈ": 789,
      "ો": 790,
      "્": 791,
      "କ": 792,
      "ଗ": 793,
      "ଙ": 794,
      "ଟ": 795,
      "ନ": 796,
      "ପ": 797,
      "ବ": 798,
      "ମ": 799,
      "ର": 800,
      "ଲ": 801,
      "ା": 802,
      "ି": 803,
      "ୀ": 804,
      "୍": 805,
      "ୟ": 806,
      "ஂ": 807,
      "ஃ": 808,
      "அ": 809,
      "ஆ": 810,
      "இ": 811,
      "ஈ": 812,
      "உ": 813,
      "ஊ": 814,
      "எ": 815,
      "ஏ": 816,
      "ஐ": 817,
      "ஒ": 818,
      "ஓ": 819,
      "ஔ": 820,
      "க": 821,
      "ங": 822,
      "ச": 823,
      "ஜ": 824,
      "ஞ": 825,
      "ட": 826,
      "஢": 827,
      "ண": 828,
      "த": 829,
      "ந": 830,
      "ன": 831,
      "ப": 832,
      "ம": 833,
      "ய": 834,
      "ர": 835,
      "ற": 836,
      "ல": 837,
      "ள": 838,
      "ழ": 839,
      "வ": 840,
      "ஶ": 841,
      "ஷ": 842,
      "ஸ": 843,
      "ஹ": 844,
      "ா": 845,
      "ி": 846,
      "ீ": 847,
      "ு": 848,
      "ூ": 849,
      "ெ": 850,
      "ே": 851,
      "ை": 852,
      "௉": 853,
      "ொ": 854,
      "ோ": 855,
      "ௌ": 856,
      "்": 857,
      "ௐ": 858,
      "ௗ": 859,
      "௦": 860,
      "௧": 861,
      "௨": 862,
      "௩": 863,
      "௪": 864,
      "௫": 865,
      "௬": 866,
      "௭": 867,
      "௮": 868,
      "௯": 869,
      "௰": 870,
      "௱": 871,
      "௲": 872,
      "௳": 873,
      "௴": 874,
      "௵": 875,
      "௶": 876,
      "௸": 877,
      "௹": 878,
      "ం": 879,
      "అ": 880,
      "ఆ": 881,
      "ఉ": 882,
      "ఎ": 883,
      "ఏ": 884,
      "ఒ": 885,
      "క": 886,
      "ఖ": 887,
      "గ": 888,
      "చ": 889,
      "జ": 890,
      "ట": 891,
      "డ": 892,
      "ణ": 893,
      "త": 894,
      "ద": 895,
      "ధ": 896,
      "న": 897,
      "ప": 898,
      "ఫ": 899,
      "బ": 900,
      "భ": 901,
      "మ": 902,
      "య": 903,
      "ర": 904,
      "ఱ": 905,
      "ల": 906,
      "ళ": 907,
      "వ": 908,
      "శ": 909,
      "ష": 910,
      "స": 911,
      "హ": 912,
      "ా": 913,
      "ి": 914,
      "ీ": 915,
      "ు": 916,
      "ూ": 917,
      "ృ": 918,
      "ె": 919,
      "ే": 920,
      "ై": 921,
      "ొ": 922,
      "ో": 923,
      "్": 924,
      "౼": 925,
      "ಂ": 926,
      "ಃ": 927,
      "ಅ": 928,
      "ಆ": 929,
      "ಎ": 930,
      "ಕ": 931,
      "ಖ": 932,
      "ಗ": 933,
      "ಘ": 934,
      "ಚ": 935,
      "ಛ": 936,
      "ಜ": 937,
      "ಝ": 938,
      "ಞ": 939,
      "ಟ": 940,
      "ಠ": 941,
      "ಡ": 942,
      "ಢ": 943,
      "ಣ": 944,
      "ತ": 945,
      "ಥ": 946,
      "ದ": 947,
      "ಧ": 948,
      "ನ": 949,
      "ಪ": 950,
      "ಫ": 951,
      "ಬ": 952,
      "ಭ": 953,
      "ಮ": 954,
      "ಯ": 955,
      "ರ": 956,
      "ಱ": 957,
      "ಲ": 958,
      "ಳ": 959,
      "ವ": 960,
      "ಶ": 961,
      "ಷ": 962,
      "ಸ": 963,
      "ಹ": 964,
      "ಾ": 965,
      "ಿ": 966,
      "ೀ": 967,
      "ು": 968,
      "ೂ": 969,
      "ೆ": 970,
      "ೇ": 971,
      "ೈ": 972,
      "ೊ": 973,
      "ೋ": 974,
      "ೌ": 975,
      "್": 976,
      "ೞ": 977,
      "ം": 978,
      "അ": 979,
      "ആ": 980,
      "ഇ": 981,
      "ഊ": 982,
      "എ": 983,
      "ഒ": 984,
      "ക": 985,
      "ഗ": 986,
      "ങ": 987,
      "ച": 988,
      "ഛ": 989,
      "ജ": 990,
      "ഞ": 991,
      "ട": 992,
      "ഠ": 993,
      "ഡ": 994,
      "ണ": 995,
      "ത": 996,
      "ഥ": 997,
      "ദ": 998,
      "ധ": 999,
      "ന": 1000,
      "പ": 1001,
      "ഫ": 1002,
      "ബ": 1003,
      "ഭ": 1004,
      "മ": 1005,
      "യ": 1006,
      "ര": 1007,
      "റ": 1008,
      "ല": 1009,
      "ള": 1010,
      "ഴ": 1011,
      "വ": 1012,
      "ശ": 1013,
      "ഷ": 1014,
      "സ": 1015,
      "ഹ": 1016,
      "ാ": 1017,
      "ി": 1018,
      "ീ": 1019,
      "ു": 1020,
      "ൂ": 1021,
      "ൃ": 1022,
      "െ": 1023,
      "േ": 1024,
      "ൈ": 1025,
      "ൊ": 1026,
      "ോ": 1027,
      "്": 1028,
      "ൗ": 1029,
      "ൻ": 1030,
      "ർ": 1031,
      "ൾ": 1032,
      "ං": 1033,
      "අ": 1034,
      "ඇ": 1035,
      "උ": 1036,
      "එ": 1037,
      "ඔ": 1038,
      "ක": 1039,
      "ග": 1040,
      "ජ": 1041,
      "ට": 1042,
      "ඩ": 1043,
      "ණ": 1044,
      "ත": 1045,
      "ද": 1046,
      "ධ": 1047,
      "න": 1048,
      "ප": 1049,
      "බ": 1050,
      "ම": 1051,
      "ඹ": 1052,
      "ය": 1053,
      "ර": 1054,
      "ල": 1055,
      "ව": 1056,
      "ශ": 1057,
      "ෂ": 1058,
      "ස": 1059,
      "හ": 1060,
      "ළ": 1061,
      "්": 1062,
      "ා": 1063,
      "ැ": 1064,
      "ි": 1065,
      "ී": 1066,
      "ු": 1067,
      "ූ": 1068,
      "ෙ": 1069,
      "ේ": 1070,
      "ො": 1071,
      "ก": 1072,
      "ข": 1073,
      "ค": 1074,
      "ง": 1075,
      "จ": 1076,
      "ช": 1077,
      "ญ": 1078,
      "ณ": 1079,
      "ด": 1080,
      "ต": 1081,
      "ท": 1082,
      "ธ": 1083,
      "น": 1084,
      "บ": 1085,
      "ป": 1086,
      "ผ": 1087,
      "พ": 1088,
      "ม": 1089,
      "ย": 1090,
      "ร": 1091,
      "ล": 1092,
      "ว": 1093,
      "ศ": 1094,
      "ส": 1095,
      "ห": 1096,
      "อ": 1097,
      "ะ": 1098,
      "ั": 1099,
      "า": 1100,
      "ำ": 1101,
      "ิ": 1102,
      "ี": 1103,
      "ื": 1104,
      "ุ": 1105,
      "ู": 1106,
      "เ": 1107,
      "แ": 1108,
      "โ": 1109,
      "ไ": 1110,
      "่": 1111,
      "้": 1112,
      "๋": 1113,
      "์": 1114,
      "ງ": 1115,
      "ຈ": 1116,
      "ດ": 1117,
      "ທ": 1118,
      "ນ": 1119,
      "ປ": 1120,
      "ມ": 1121,
      "ລ": 1122,
      "ວ": 1123,
      "ອ": 1124,
      "ະ": 1125,
      "ັ": 1126,
      "າ": 1127,
      "ື": 1128,
      "ຽ": 1129,
      "ເ": 1130,
      "་": 1131,
      "།": 1132,
      "ག": 1133,
      "ང": 1134,
      "ཎ": 1135,
      "ད": 1136,
      "ན": 1137,
      "པ": 1138,
      "བ": 1139,
      "མ": 1140,
      "ཙ": 1141,
      "ཚ": 1142,
      "ཛ": 1143,
      "འ": 1144,
      "ར": 1145,
      "ལ": 1146,
      "ས": 1147,
      "ཧ": 1148,
      "ཨ": 1149,
      "ཱ": 1150,
      "ི": 1151,
      "ུ": 1152,
      "ེ": 1153,
      "ོ": 1154,
      "ཾ": 1155,
      "ྃ": 1156,
      "ྒ": 1157,
      "ྟ": 1158,
      "ྨ": 1159,
      "ྱ": 1160,
      "ྲ": 1161,
      "ྷ": 1162,
      "က": 1163,
      "န": 1164,
      "ရ": 1165,
      "သ": 1166,
      "ု": 1167,
      "ေ": 1168,
      "း": 1169,
      "္": 1170,
      "်": 1171,
      "ွ": 1172,
      "ှ": 1173,
      "ა": 1174,
      "ბ": 1175,
      "ე": 1176,
      "ვ": 1177,
      "ზ": 1178,
      "თ": 1179,
      "ი": 1180,
      "კ": 1181,
      "ლ": 1182,
      "მ": 1183,
      "ნ": 1184,
      "ო": 1185,
      "რ": 1186,
      "ს": 1187,
      "უ": 1188,
      "ქ": 1189,
      "ღ": 1190,
      "შ": 1191,
      "ძ": 1192,
      "ხ": 1193,
      "ჯ": 1194,
      "ᄛ": 1195,
      "ᄼ": 1196,
      "ᄾ": 1197,
      "ᅎ": 1198,
      "ᅐ": 1199,
      "ᅔ": 1200,
      "ᅕ": 1201,
      "ለ": 1202,
      "ላ": 1203,
      "ሥ": 1204,
      "ሴ": 1205,
      "ኃ": 1206,
      "ይ": 1207,
      "፡": 1208,
      "ᐃ": 1209,
      "ᐤ": 1210,
      "ᑦ": 1211,
      "ᓄ": 1212,
      "ᓇ": 1213,
      "ᓗ": 1214,
      "ᕗ": 1215,
      "ᖃ": 1216,
      "ᚼ": 1217,
      "ᛒ": 1218,
      "ញ": 1219,
      "ន": 1220,
      "ព": 1221,
      "ភ": 1222,
      "េ": 1223,
      "ំ": 1224,
      "្": 1225,
      "ᱟ": 1226,
      "ᱤ": 1227,
      "ᱨ": 1228,
      "ᱪ": 1229,
      "ᱺ": 1230,
      "ᵻ": 1231,
      "ḇ": 1232,
      "ḍ": 1233,
      "ḏ": 1234,
      "ḗ": 1235,
      "Ḥ": 1236,
      "ḥ": 1237,
      "ḫ": 1238,
      "ḵ": 1239,
      "ḷ": 1240,
      "ḻ": 1241,
      "ṃ": 1242,
      "ṅ": 1243,
      "ṇ": 1244,
      "ṛ": 1245,
      "ṟ": 1246,
      "Ṣ": 1247,
      "ṣ": 1248,
      "ṭ": 1249,
      "ṯ": 1250,
      "ạ": 1251,
      "ả": 1252,
      "ấ": 1253,
      "ậ": 1254,
      "ẻ": 1255,
      "ế": 1256,
      "ễ": 1257,
      "ệ": 1258,
      "ố": 1259,
      "ồ": 1260,
      "ộ": 1261,
      "ớ": 1262,
      "ờ": 1263,
      "ừ": 1264,
      "ữ": 1265,
      "ỹ": 1266,
      "ἀ": 1267,
      "ἄ": 1268,
      "Ἀ": 1269,
      "Ἁ": 1270,
      "ἐ": 1271,
      "ἑ": 1272,
      "ἔ": 1273,
      "Ἐ": 1274,
      "Ἔ": 1275,
      "ἡ": 1276,
      "ἤ": 1277,
      "ἥ": 1278,
      "ἧ": 1279,
      "Ἠ": 1280,
      "Ἡ": 1281,
      "ἰ": 1282,
      "ἱ": 1283,
      "ἴ": 1284,
      "ἵ": 1285,
      "ἶ": 1286,
      "ἷ": 1287,
      "Ἰ": 1288,
      "Ἱ": 1289,
      "Ἴ": 1290,
      "ὁ": 1291,
      "ὄ": 1292,
      "ὐ": 1293,
      "ὑ": 1294,
      "ὕ": 1295,
      "ὡ": 1296,
      "ὤ": 1297,
      "ὥ": 1298,
      "Ὠ": 1299,
      "ὰ": 1300,
      "ὴ": 1301,
      "ὶ": 1302,
      "ὸ": 1303,
      "ὺ": 1304,
      "ᾀ": 1305,
      "ᾎ": 1306,
      "ᾰ": 1307,
      "ᾱ": 1308,
      "ᾶ": 1309,
      "ῆ": 1310,
      "ῖ": 1311,
      "ῤ": 1312,
      "ῥ": 1313,
      "ῦ": 1314,
      "ῳ": 1315,
      "ῴ": 1316,
      "ῶ": 1317,
      "ῷ": 1318,
      "​": 1319,
      "‌": 1320,
      "‍": 1321,
      "‎": 1322,
      "‏": 1323,
      "–": 1324,
      "—": 1325,
      "‘": 1326,
      "’": 1327,
      "‚": 1328,
      "‛": 1329,
      "“": 1330,
      "”": 1331,
      "„": 1332,
      "†": 1333,
      "‡": 1334,
      "•": 1335,
      "…": 1336,
      "‰": 1337,
      "‱": 1338,
      "′": 1339,
      "″": 1340,
      "‹": 1341,
      "›": 1342,
      "⁄": 1343,
      "⁣": 1344,
      "⁽": 1345,
      "⁾": 1346,
      "₃": 1347,
      "₤": 1348,
      "₨": 1349,
      "€": 1350,
      "₮": 1351,
      "₱": 1352,
      "₳": 1353,
      "₴": 1354,
      "₹": 1355,
      "₼": 1356,
      "℃": 1357,
      "ℓ": 1358,
      "№": 1359,
      "℘": 1360,
      "ℝ": 1361,
      "℡": 1362,
      "™": 1363,
      "⅓": 1364,
      "⅛": 1365,
      "←": 1366,
      "↑": 1367,
      "→": 1368,
      "↓": 1369,
      "↔": 1370,
      "⇌": 1371,
      "⇒": 1372,
      "∂": 1373,
      "∅": 1374,
      "∆": 1375,
      "∈": 1376,
      "∉": 1377,
      "∑": 1378,
      "−": 1379,
      "∗": 1380,
      "√": 1381,
      "∝": 1382,
      "∞": 1383,
      "∠": 1384,
      "∧": 1385,
      "∩": 1386,
      "∪": 1387,
      "∫": 1388,
      "≈": 1389,
      "≠": 1390,
      "≡": 1391,
      "≤": 1392,
      "≥": 1393,
      "⊗": 1394,
      "⊙": 1395,
      "⋅": 1396,
      "⌕": 1397,
      "①": 1398,
      "②": 1399,
      "■": 1400,
      "☄": 1401,
      "☎": 1402,
      "☏": 1403,
      "☸": 1404,
      "☺": 1405,
      "☻": 1406,
      "♄": 1407,
      "♠": 1408,
      "♣": 1409,
      "♥": 1410,
      "♦": 1411,
      "♭": 1412,
      "⚕": 1413,
      "⚽": 1414,
      "✆": 1415,
      "✓": 1416,
      "ⲉ": 1417,
      "ⲏ": 1418,
      "ⲓ": 1419,
      "Ⲙ": 1420,
      "ⲙ": 1421,
      "ⲛ": 1422,
      "Ⲣ": 1423,
      "ⲧ": 1424,
      "ⲭ": 1425,
      "《": 1426,
      "》": 1427,
      "あ": 1428,
      "い": 1429,
      "う": 1430,
      "え": 1431,
      "か": 1432,
      "き": 1433,
      "ぎ": 1434,
      "く": 1435,
      "ぐ": 1436,
      "こ": 1437,
      "ご": 1438,
      "さ": 1439,
      "ざ": 1440,
      "し": 1441,
      "じ": 1442,
      "ず": 1443,
      "せ": 1444,
      "た": 1445,
      "だ": 1446,
      "ち": 1447,
      "っ": 1448,
      "つ": 1449,
      "て": 1450,
      "で": 1451,
      "と": 1452,
      "な": 1453,
      "に": 1454,
      "の": 1455,
      "は": 1456,
      "ば": 1457,
      "び": 1458,
      "ふ": 1459,
      "ぶ": 1460,
      "へ": 1461,
      "ほ": 1462,
      "ま": 1463,
      "み": 1464,
      "や": 1465,
      "ゅ": 1466,
      "ょ": 1467,
      "ら": 1468,
      "り": 1469,
      "る": 1470,
      "ろ": 1471,
      "ゑ": 1472,
      "ん": 1473,
      "ア": 1474,
      "イ": 1475,
      "ウ": 1476,
      "ェ": 1477,
      "オ": 1478,
      "カ": 1479,
      "ガ": 1480,
      "ギ": 1481,
      "ク": 1482,
      "ケ": 1483,
      "コ": 1484,
      "ザ": 1485,
      "シ": 1486,
      "ス": 1487,
      "ズ": 1488,
      "タ": 1489,
      "ダ": 1490,
      "チ": 1491,
      "ッ": 1492,
      "ツ": 1493,
      "テ": 1494,
      "ト": 1495,
      "ド": 1496,
      "ナ": 1497,
      "ニ": 1498,
      "ノ": 1499,
      "ハ": 1500,
      "バ": 1501,
      "パ": 1502,
      "フ": 1503,
      "プ": 1504,
      "ベ": 1505,
      "ポ": 1506,
      "マ": 1507,
      "ム": 1508,
      "メ": 1509,
      "モ": 1510,
      "ヤ": 1511,
      "ュ": 1512,
      "ョ": 1513,
      "ラ": 1514,
      "リ": 1515,
      "ル": 1516,
      "レ": 1517,
      "ロ": 1518,
      "ワ": 1519,
      "ン": 1520,
      "・": 1521,
      "ー": 1522,
      "ㄴ": 1523,
      "ㅎ": 1524,
      "ㅏ": 1525,
      "ㅱ": 1526,
      "ㅸ": 1527,
      "ㅿ": 1528,
      "ㆁ": 1529,
      "ㆄ": 1530,
      "ㆆ": 1531,
      "ㆍ": 1532,
      "一": 1533,
      "七": 1534,
      "三": 1535,
      "上": 1536,
      "不": 1537,
      "与": 1538,
      "世": 1539,
      "丝": 1540,
      "両": 1541,
      "中": 1542,
      "临": 1543,
      "丸": 1544,
      "丹": 1545,
      "么": 1546,
      "之": 1547,
      "乌": 1548,
      "乗": 1549,
      "乘": 1550,
      "九": 1551,
      "也": 1552,
      "书": 1553,
      "乱": 1554,
      "事": 1555,
      "二": 1556,
      "云": 1557,
      "五": 1558,
      "井": 1559,
      "亞": 1560,
      "交": 1561,
      "京": 1562,
      "亲": 1563,
      "人": 1564,
      "仁": 1565,
      "仕": 1566,
      "仙": 1567,
      "代": 1568,
      "们": 1569,
      "仮": 1570,
      "众": 1571,
      "会": 1572,
      "伤": 1573,
      "伽": 1574,
      "佛": 1575,
      "你": 1576,
      "來": 1577,
      "係": 1578,
      "保": 1579,
      "信": 1580,
      "俣": 1581,
      "俵": 1582,
      "倍": 1583,
      "做": 1584,
      "傍": 1585,
      "傣": 1586,
      "元": 1587,
      "兄": 1588,
      "光": 1589,
      "兔": 1590,
      "党": 1591,
      "內": 1592,
      "八": 1593,
      "公": 1594,
      "六": 1595,
      "共": 1596,
      "关": 1597,
      "冂": 1598,
      "円": 1599,
      "冉": 1600,
      "写": 1601,
      "冬": 1602,
      "冰": 1603,
      "凱": 1604,
      "凵": 1605,
      "出": 1606,
      "刀": 1607,
      "分": 1608,
      "切": 1609,
      "列": 1610,
      "刘": 1611,
      "初": 1612,
      "刺": 1613,
      "剑": 1614,
      "剛": 1615,
      "剣": 1616,
      "剧": 1617,
      "劉": 1618,
      "劍": 1619,
      "力": 1620,
      "加": 1621,
      "动": 1622,
      "勇": 1623,
      "勹": 1624,
      "化": 1625,
      "北": 1626,
      "匚": 1627,
      "区": 1628,
      "區": 1629,
      "十": 1630,
      "千": 1631,
      "午": 1632,
      "半": 1633,
      "卓": 1634,
      "南": 1635,
      "博": 1636,
      "卜": 1637,
      "卡": 1638,
      "印": 1639,
      "危": 1640,
      "厘": 1641,
      "原": 1642,
      "县": 1643,
      "参": 1644,
      "又": 1645,
      "双": 1646,
      "口": 1647,
      "古": 1648,
      "只": 1649,
      "可": 1650,
      "台": 1651,
      "史": 1652,
      "号": 1653,
      "司": 1654,
      "合": 1655,
      "吉": 1656,
      "名": 1657,
      "向": 1658,
      "君": 1659,
      "吳": 1660,
      "吴": 1661,
      "吾": 1662,
      "呐": 1663,
      "呑": 1664,
      "命": 1665,
      "和": 1666,
      "哈": 1667,
      "哲": 1668,
      "啦": 1669,
      "喀": 1670,
      "喊": 1671,
      "喜": 1672,
      "嘉": 1673,
      "噶": 1674,
      "四": 1675,
      "団": 1676,
      "国": 1677,
      "國": 1678,
      "園": 1679,
      "圓": 1680,
      "土": 1681,
      "在": 1682,
      "地": 1683,
      "场": 1684,
      "坐": 1685,
      "坡": 1686,
      "城": 1687,
      "塔": 1688,
      "塘": 1689,
      "塞": 1690,
      "境": 1691,
      "墨": 1692,
      "壁": 1693,
      "士": 1694,
      "壺": 1695,
      "夊": 1696,
      "夏": 1697,
      "夕": 1698,
      "夢": 1699,
      "大": 1700,
      "天": 1701,
      "太": 1702,
      "夫": 1703,
      "央": 1704,
      "失": 1705,
      "奇": 1706,
      "奎": 1707,
      "奔": 1708,
      "奧": 1709,
      "女": 1710,
      "好": 1711,
      "如": 1712,
      "妃": 1713,
      "姚": 1714,
      "姦": 1715,
      "婆": 1716,
      "子": 1717,
      "字": 1718,
      "孙": 1719,
      "孝": 1720,
      "学": 1721,
      "孫": 1722,
      "學": 1723,
      "安": 1724,
      "宗": 1725,
      "定": 1726,
      "宜": 1727,
      "宣": 1728,
      "家": 1729,
      "富": 1730,
      "寧": 1731,
      "寺": 1732,
      "寿": 1733,
      "尊": 1734,
      "小": 1735,
      "尔": 1736,
      "尖": 1737,
      "尼": 1738,
      "居": 1739,
      "屯": 1740,
      "山": 1741,
      "岡": 1742,
      "岳": 1743,
      "岸": 1744,
      "峡": 1745,
      "峰": 1746,
      "島": 1747,
      "川": 1748,
      "州": 1749,
      "巫": 1750,
      "巴": 1751,
      "巾": 1752,
      "币": 1753,
      "市": 1754,
      "布": 1755,
      "帝": 1756,
      "師": 1757,
      "帽": 1758,
      "幌": 1759,
      "平": 1760,
      "年": 1761,
      "幸": 1762,
      "幻": 1763,
      "广": 1764,
      "庆": 1765,
      "床": 1766,
      "府": 1767,
      "度": 1768,
      "庭": 1769,
      "康": 1770,
      "廣": 1771,
      "延": 1772,
      "廿": 1773,
      "式": 1774,
      "弟": 1775,
      "彐": 1776,
      "彡": 1777,
      "彩": 1778,
      "影": 1779,
      "彷": 1780,
      "徨": 1781,
      "德": 1782,
      "心": 1783,
      "忍": 1784,
      "志": 1785,
      "忠": 1786,
      "怀": 1787,
      "怎": 1788,
      "怡": 1789,
      "恆": 1790,
      "悌": 1791,
      "意": 1792,
      "感": 1793,
      "慧": 1794,
      "慰": 1795,
      "慶": 1796,
      "戈": 1797,
      "戏": 1798,
      "成": 1799,
      "我": 1800,
      "戒": 1801,
      "戦": 1802,
      "戸": 1803,
      "扎": 1804,
      "拉": 1805,
      "拳": 1806,
      "拾": 1807,
      "持": 1808,
      "振": 1809,
      "排": 1810,
      "摩": 1811,
      "撒": 1812,
      "撲": 1813,
      "操": 1814,
      "攻": 1815,
      "故": 1816,
      "敗": 1817,
      "敢": 1818,
      "敬": 1819,
      "数": 1820,
      "數": 1821,
      "文": 1822,
      "斯": 1823,
      "新": 1824,
      "方": 1825,
      "施": 1826,
      "族": 1827,
      "日": 1828,
      "旧": 1829,
      "明": 1830,
      "易": 1831,
      "星": 1832,
      "春": 1833,
      "昭": 1834,
      "時": 1835,
      "晋": 1836,
      "晟": 1837,
      "景": 1838,
      "智": 1839,
      "曇": 1840,
      "曲": 1841,
      "書": 1842,
      "曹": 1843,
      "曼": 1844,
      "會": 1845,
      "月": 1846,
      "有": 1847,
      "朗": 1848,
      "朝": 1849,
      "期": 1850,
      "木": 1851,
      "末": 1852,
      "本": 1853,
      "札": 1854,
      "朱": 1855,
      "机": 1856,
      "李": 1857,
      "村": 1858,
      "来": 1859,
      "杨": 1860,
      "東": 1861,
      "林": 1862,
      "柔": 1863,
      "校": 1864,
      "根": 1865,
      "格": 1866,
      "栽": 1867,
      "桥": 1868,
      "梆": 1869,
      "梦": 1870,
      "梭": 1871,
      "楊": 1872,
      "楼": 1873,
      "槟": 1874,
      "樂": 1875,
      "樓": 1876,
      "樟": 1877,
      "横": 1878,
      "檗": 1879,
      "欣": 1880,
      "歌": 1881,
      "正": 1882,
      "武": 1883,
      "死": 1884,
      "毅": 1885,
      "毛": 1886,
      "民": 1887,
      "気": 1888,
      "氣": 1889,
      "水": 1890,
      "永": 1891,
      "江": 1892,
      "沖": 1893,
      "沙": 1894,
      "沟": 1895,
      "沢": 1896,
      "沱": 1897,
      "河": 1898,
      "油": 1899,
      "治": 1900,
      "泉": 1901,
      "法": 1902,
      "波": 1903,
      "泰": 1904,
      "洋": 1905,
      "洛": 1906,
      "洞": 1907,
      "津": 1908,
      "洲": 1909,
      "浜": 1910,
      "浪": 1911,
      "海": 1912,
      "涛": 1913,
      "清": 1914,
      "済": 1915,
      "温": 1916,
      "港": 1917,
      "湖": 1918,
      "湾": 1919,
      "漠": 1920,
      "漢": 1921,
      "潘": 1922,
      "澤": 1923,
      "灣": 1924,
      "火": 1925,
      "灸": 1926,
      "炎": 1927,
      "烈": 1928,
      "烏": 1929,
      "熊": 1930,
      "燃": 1931,
      "爆": 1932,
      "父": 1933,
      "爸": 1934,
      "片": 1935,
      "版": 1936,
      "物": 1937,
      "特": 1938,
      "牽": 1939,
      "犹": 1940,
      "狂": 1941,
      "狐": 1942,
      "独": 1943,
      "猫": 1944,
      "猴": 1945,
      "猿": 1946,
      "獣": 1947,
      "獨": 1948,
      "王": 1949,
      "玛": 1950,
      "环": 1951,
      "现": 1952,
      "珍": 1953,
      "珠": 1954,
      "理": 1955,
      "琛": 1956,
      "瑠": 1957,
      "瑪": 1958,
      "璃": 1959,
      "璠": 1960,
      "瓜": 1961,
      "甕": 1962,
      "生": 1963,
      "用": 1964,
      "田": 1965,
      "由": 1966,
      "甲": 1967,
      "电": 1968,
      "男": 1969,
      "町": 1970,
      "界": 1971,
      "疆": 1972,
      "病": 1973,
      "症": 1974,
      "白": 1975,
      "百": 1976,
      "的": 1977,
      "皇": 1978,
      "盆": 1979,
      "盘": 1980,
      "盛": 1981,
      "相": 1982,
      "省": 1983,
      "看": 1984,
      "県": 1985,
      "真": 1986,
      "瞿": 1987,
      "知": 1988,
      "短": 1989,
      "砂": 1990,
      "碧": 1991,
      "磨": 1992,
      "示": 1993,
      "礼": 1994,
      "社": 1995,
      "祖": 1996,
      "祝": 1997,
      "神": 1998,
      "祭": 1999,
      "禄": 2000,
      "禅": 2001,
      "福": 2002,
      "禪": 2003,
      "禮": 2004,
      "秋": 2005,
      "種": 2006,
      "稲": 2007,
      "穴": 2008,
      "空": 2009,
      "立": 2010,
      "章": 2011,
      "端": 2012,
      "竺": 2013,
      "笑": 2014,
      "笛": 2015,
      "節": 2016,
      "簫": 2017,
      "精": 2018,
      "紀": 2019,
      "紅": 2020,
      "純": 2021,
      "索": 2022,
      "紫": 2023,
      "細": 2024,
      "統": 2025,
      "經": 2026,
      "線": 2027,
      "縣": 2028,
      "红": 2029,
      "纳": 2030,
      "维": 2031,
      "绸": 2032,
      "绿": 2033,
      "编": 2034,
      "罗": 2035,
      "羂": 2036,
      "羅": 2037,
      "義": 2038,
      "習": 2039,
      "翔": 2040,
      "者": 2041,
      "耐": 2042,
      "聖": 2043,
      "聪": 2044,
      "育": 2045,
      "胎": 2046,
      "胡": 2047,
      "脈": 2048,
      "脏": 2049,
      "腑": 2050,
      "自": 2051,
      "至": 2052,
      "臺": 2053,
      "臼": 2054,
      "航": 2055,
      "般": 2056,
      "船": 2057,
      "艾": 2058,
      "节": 2059,
      "花": 2060,
      "苦": 2061,
      "英": 2062,
      "茉": 2063,
      "茶": 2064,
      "草": 2065,
      "荷": 2066,
      "荼": 2067,
      "莉": 2068,
      "莫": 2069,
      "菩": 2070,
      "華": 2071,
      "菹": 2072,
      "萊": 2073,
      "萨": 2074,
      "著": 2075,
      "葦": 2076,
      "蔘": 2077,
      "蔵": 2078,
      "薩": 2079,
      "薬": 2080,
      "藍": 2081,
      "藏": 2082,
      "藝": 2083,
      "藤": 2084,
      "藥": 2085,
      "藩": 2086,
      "蘭": 2087,
      "虎": 2088,
      "虛": 2089,
      "號": 2090,
      "蛇": 2091,
      "蜀": 2092,
      "蜜": 2093,
      "融": 2094,
      "螺": 2095,
      "行": 2096,
      "術": 2097,
      "衣": 2098,
      "补": 2099,
      "裂": 2100,
      "補": 2101,
      "西": 2102,
      "見": 2103,
      "观": 2104,
      "视": 2105,
      "触": 2106,
      "言": 2107,
      "記": 2108,
      "詠": 2109,
      "詣": 2110,
      "詩": 2111,
      "誉": 2112,
      "誠": 2113,
      "調": 2114,
      "謙": 2115,
      "记": 2116,
      "谈": 2117,
      "谷": 2118,
      "豆": 2119,
      "豊": 2120,
      "豬": 2121,
      "貅": 2122,
      "貓": 2123,
      "貔": 2124,
      "貴": 2125,
      "賞": 2126,
      "败": 2127,
      "赤": 2128,
      "赫": 2129,
      "起": 2130,
      "越": 2131,
      "跆": 2132,
      "路": 2133,
      "蹴": 2134,
      "身": 2135,
      "軍": 2136,
      "輪": 2137,
      "轮": 2138,
      "辉": 2139,
      "辱": 2140,
      "農": 2141,
      "运": 2142,
      "迦": 2143,
      "迪": 2144,
      "通": 2145,
      "逝": 2146,
      "進": 2147,
      "逸": 2148,
      "道": 2149,
      "達": 2150,
      "邓": 2151,
      "郎": 2152,
      "郡": 2153,
      "部": 2154,
      "都": 2155,
      "鄂": 2156,
      "鄧": 2157,
      "酒": 2158,
      "野": 2159,
      "金": 2160,
      "針": 2161,
      "鈔": 2162,
      "鈴": 2163,
      "鉑": 2164,
      "鉤": 2165,
      "銀": 2166,
      "銮": 2167,
      "錢": 2168,
      "鐘": 2169,
      "鐵": 2170,
      "铸": 2171,
      "锦": 2172,
      "镜": 2173,
      "長": 2174,
      "长": 2175,
      "門": 2176,
      "閣": 2177,
      "闍": 2178,
      "闘": 2179,
      "阮": 2180,
      "阳": 2181,
      "阿": 2182,
      "际": 2183,
      "限": 2184,
      "院": 2185,
      "陵": 2186,
      "陽": 2187,
      "隆": 2188,
      "際": 2189,
      "雄": 2190,
      "雅": 2191,
      "集": 2192,
      "雲": 2193,
      "雳": 2194,
      "雷": 2195,
      "震": 2196,
      "霊": 2197,
      "霹": 2198,
      "靈": 2199,
      "青": 2200,
      "非": 2201,
      "鞠": 2202,
      "顏": 2203,
      "風": 2204,
      "风": 2205,
      "飛": 2206,
      "飞": 2207,
      "館": 2208,
      "馆": 2209,
      "香": 2210,
      "馬": 2211,
      "马": 2212,
      "高": 2213,
      "魁": 2214,
      "魏": 2215,
      "魯": 2216,
      "鮭": 2217,
      "鲁": 2218,
      "鳩": 2219,
      "鳳": 2220,
      "鸭": 2221,
      "麻": 2222,
      "黃": 2223,
      "黄": 2224,
      "黒": 2225,
      "黛": 2226,
      "齊": 2227,
      "齐": 2228,
      "龍": 2229,
      "龙": 2230,
      "Ꙗ": 2231,
      "ꦂ": 2232,
      "ꦕ": 2233,
      "ꦝ": 2234,
      "ꦤ": 2235,
      "ꦧ": 2236,
      "ꦫ": 2237,
      "ꦶ": 2238,
      "ꦸ": 2239,
      "꧀": 2240,
      "검": 2241,
      "게": 2242,
      "겹": 2243,
      "경": 2244,
      "국": 2245,
      "그": 2246,
      "글": 2247,
      "김": 2248,
      "남": 2249,
      "니": 2250,
      "다": 2251,
      "대": 2252,
      "데": 2253,
      "도": 2254,
      "라": 2255,
      "렐": 2256,
      "례": 2257,
      "룹": 2258,
      "를": 2259,
      "마": 2260,
      "메": 2261,
      "문": 2262,
      "반": 2263,
      "번": 2264,
      "본": 2265,
      "사": 2266,
      "살": 2267,
      "삼": 2268,
      "서": 2269,
      "선": 2270,
      "성": 2271,
      "쉽": 2272,
      "승": 2273,
      "시": 2274,
      "신": 2275,
      "양": 2276,
      "예": 2277,
      "옴": 2278,
      "왕": 2279,
      "울": 2280,
      "위": 2281,
      "일": 2282,
      "자": 2283,
      "점": 2284,
      "정": 2285,
      "조": 2286,
      "주": 2287,
      "지": 2288,
      "천": 2289,
      "치": 2290,
      "프": 2291,
      "하": 2292,
      "한": 2293,
      "홍": 2294,
      "훔": 2295,
      "": 2296,
      "": 2297,
      "": 2298,
      "": 2299,
      "": 2300,
      "﻿": 2301,
      "（": 2302,
      "）": 2303,
      "，": 2304,
      "／": 2305,
      "；": 2306,
      "ｗ": 2307,
      "ｰ": 2308,
      "ｱ": 2309,
      "ﾀ": 2310,
      "ﾆ": 2311,
      "￥": 2312,
      "￼": 2313,
      "�": 2314,
      "𐎢": 2315,
      "𐎤": 2316,
      "𐎽": 2317,
      "𐏁": 2318,
      "𑀓": 2319,
      "𑀯": 2320,
      "𑀶": 2321,
      "𑀷": 2322,
      "𑀼": 2323,
      "𑁆": 2324,
      "𑂔": 2325,
      "𑂣": 2326,
      "𑂦": 2327,
      "𑂩": 2328,
      "𑂭": 2329,
      "𑂰": 2330,
      "𑂲": 2331,
      "𑂳": 2332,
      "𑂷": 2333,
      "𑖟": 2334,
      "𑖠": 2335,
      "𑖭": 2336,
      "𑖰": 2337,
      "𑖽": 2338,
      "𑖿": 2339,
      "👬": 2340,
      "🜨": 2341,
      "்க": 2342,
      "்த": 2343,
      "ம்": 2344,
      "ன்": 2345,
      "ல்": 2346,
      "ப்": 2347,
      "்ட": 2348,
      "க்க": 2349,
      "ிய": 2350,
      "ப்ப": 2351,
      "ும்": 2352,
      "ர்": 2353,
      "த்த": 2354,
      "ள்": 2355,
      "து": 2356,
      "ரு": 2357,
      "ட்ட": 2358,
      "ந்த": 2359,
      "ில்": 2360,
      "ின்": 2361,
      "ற்": 2362,
      "ைய": 2363,
      "ங்க": 2364,
      "ாக": 2365,
      "தி": 2366,
      "ற்ற": 2367,
      "ுக": 2368,
      "வி": 2369,
      "ண்ட": 2370,
      "ான": 2371,
      "ிற": 2372,
      "கு": 2373,
      "மு": 2374,
      "ரி": 2375,
      "்ச": 2376,
      "டு": 2377,
      "ில": 2378,
      "ன்ற": 2379,
      "ர்க": 2380,
      "டி": 2381,
      "பா": 2382,
      "ள்ள": 2383,
      "கா": 2384,
      "க்": 2385,
      "க்கு": 2386,
      "ார்": 2387,
      "பி": 2388,
      "செ": 2389,
      "வா": 2390,
      "பெ": 2391,
      "லை": 2392,
      "மா": 2393,
      "த்": 2394,
      "ப்பட": 2395,
      "ரா": 2396,
      "போ": 2397,
      "த்து": 2398,
      "மி": 2399,
      "கள": 2400,
      "ப்பட்ட": 2401,
      "பு": 2402,
      "ந்து": 2403,
      "மை": 2404,
      "வர": 2405,
      "லா": 2406,
      "சு": 2407,
      "நா": 2408,
      "சி": 2409,
      "வு": 2410,
      "வெ": 2411,
      "று": 2412,
      "கொ": 2413,
      "றி": 2414,
      "இரு": 2415,
      "ஸ்": 2416,
      "மே": 2417,
      "ப்பு": 2418,
      "தொ": 2419,
      "ங்கள": 2420,
      "வே": 2421,
      "மற்ற": 2422,
      "ற்க": 2423,
      "ய்": 2424,
      "தா": 2425,
      "வை": 2426,
      "கள்": 2427,
      "ச்ச": 2428,
      "ின": 2429,
      "19": 2430,
      "கி": 2431,
      "ஒரு": 2432,
      "மற்றும்": 2433,
      "த்தில்": 2434,
      "ன்ப": 2435,
      "ட்டு": 2436,
      "ர்கள்": 2437,
      "ண்": 2438,
      "ங்கள்": 2439,
      "ரை": 2440,
      "இந்த": 2441,
      "ண்டு": 2442,
      "ல்ல": 2443,
      "ட்": 2444,
      "ழு": 2445,
      "ிரு": 2446,
      "ியா": 2447,
      "ன்ன": 2448,
      "ுகள்": 2449,
      "வர்": 2450,
      "தே": 2451,
      "ளி": 2452,
      "பொ": 2453,
      "டை": 2454,
      "றை": 2455,
      "ுகள": 2456,
      "ால்": 2457,
      "ிறது": 2458,
      "க்கும்": 2459,
      "என்ற": 2460,
      "ின்ற": 2461,
      "ச்": 2462,
      "மாக": 2463,
      "சா": 2464,
      "நில": 2465,
      "00": 2466,
      "ழ்": 2467,
      "ணி": 2468,
      "ஆக": 2469,
      "திய": 2470,
      "உள்ள": 2471,
      "மான": 2472,
      "ரிய": 2473,
      "டுத்த": 2474,
      "ையில்": 2475,
      "ர்கள": 2476,
      "கோ": 2477,
      "தன": 2478,
      "னர்": 2479,
      "மூ": 2480,
      "லி": 2481,
      "ிர": 2482,
      "வில்": 2483,
      "செய": 2484,
      "ையும்": 2485,
      "வும்": 2486,
      "பய": 2487,
      "ட்ச": 2488,
      "ப்பா": 2489,
      "்கள்": 2490,
      "முத": 2491,
      "ழி": 2492,
      "லும்": 2493,
      "ம்ப": 2494,
      "தமி": 2495,
      "கூ": 2496,
      "ுக்கு": 2497,
      "டிய": 2498,
      "என": 2499,
      "ணை": 2500,
      "க்கப்பட்ட": 2501,
      "த்தை": 2502,
      "கை": 2503,
      "ற்ப": 2504,
      "மெ": 2505,
      "டன்": 2506,
      "னை": 2507,
      "அவ": 2508,
      "தை": 2509,
      "விய": 2510,
      "என்ப": 2511,
      "்கள": 2512,
      "க்கா": 2513,
      "பே": 2514,
      "அமை": 2515,
      "பல": 2516,
      "ப்படுக": 2517,
      "நி": 2518,
      "ற்று": 2519,
      "ஆம்": 2520,
      "தொட": 2521,
      "னி": 2522,
      "டைய": 2523,
      "குறி": 2524,
      "மீ": 2525,
      "தன்": 2526,
      "த்தின்": 2527,
      "சே": 2528,
      "நீ": 2529,
      "அர": 2530,
      "இய": 2531,
      "தற்க": 2532,
      "ர்த": 2533,
      "இர": 2534,
      "க்கிய": 2535,
      "மைய": 2536,
      "இது": 2537,
      "வது": 2538,
      "ப்பி": 2539,
      "ரும்": 2540,
      "சிய": 2541,
      "பிர": 2542,
      "தாக": 2543,
      "ுவ": 2544,
      "கொண்ட": 2545,
      "200": 2546,
      "வீ": 2547,
      "சிற": 2548,
      "நிற": 2549,
      "ுள்ள": 2550,
      "ட்டி": 2551,
      "ைக்": 2552,
      "வ்": 2553,
      "மொ": 2554,
      "ின்றன": 2555,
      "தெ": 2556,
      "பின்": 2557,
      "ன்று": 2558,
      "அதி": 2559,
      "கர": 2560,
      "ரைப்பட": 2561,
      "்கு": 2562,
      "வாக": 2563,
      "திரு": 2564,
      "பிற": 2565,
      "கரு": 2566,
      "கால": 2567,
      "அல்ல": 2568,
      "இல": 2569,
      "வின்": 2570,
      "ங்கு": 2571,
      "ரோ": 2572,
      "விள": 2573,
      "யா": 2574,
      "உரு": 2575,
      "வரு": 2576,
      "பெற்ற": 2577,
      "வழ": 2578,
      "பொரு": 2579,
      "ளிய": 2580,
      "செய்": 2581,
      "சை": 2582,
      "தலை": 2583,
      "அல்லது": 2584,
      "நாட": 2585,
      "ிலும்": 2586,
      "பகு": 2587,
      "த்தி": 2588,
      "ஆண்ட": 2589,
      "ஞ்ச": 2590,
      "பாட": 2591,
      "லக": 2592,
      "ஆகிய": 2593,
      "இட": 2594,
      "இல்": 2595,
      "ாள": 2596,
      "திரைப்பட": 2597,
      "ைப்": 2598,
      "க்கள": 2599,
      "நூ": 2600,
      "இருந்த": 2601,
      "ரம்": 2602,
      "ப்புகள்": 2603,
      "ுக்": 2604,
      "வெளி": 2605,
      "அறி": 2606,
      "ட்சி": 2607,
      "ண்ண": 2608,
      "லிய": 2609,
      "நோ": 2610,
      "ஸ்ட": 2611,
      "ப்படும்": 2612,
      "எழு": 2613,
      "உய": 2614,
      "சில": 2615,
      "முறை": 2616,
      "க்கள்": 2617,
      "தோ": 2618,
      "பட": 2619,
      "பயன்ப": 2620,
      "ூர்": 2621,
      "ர்த்த": 2622,
      "தில்": 2623,
      "தமிழ": 2624,
      "லம்": 2625,
      "தர": 2626,
      "லாம்": 2627,
      "மேற்க": 2628,
      "கம்": 2629,
      "என்று": 2630,
      "ரிக்க": 2631,
      "ஆண்டு": 2632,
      "போன்ற": 2633,
      "போது": 2634,
      "கே": 2635,
      "ிருந்த": 2636,
      "பெய": 2637,
      "க்கி": 2638,
      "செய்த": 2639,
      "களில்": 2640,
      "கார": 2641,
      "நே": 2642,
      "20": 2643,
      "பர": 2644,
      "மிக": 2645,
      "பட்ட": 2646,
      "ழை": 2647,
      "தொடர்": 2648,
      "ர்க்க": 2649,
      "வெளிய": 2650,
      "களை": 2651,
      "வந்த": 2652,
      "செய்ய": 2653,
      "வற்ற": 2654,
      "ங்களில்": 2655,
      "வள": 2656,
      "றிய": 2657,
      "ப்படுகிறது": 2658,
      "முதல்": 2659,
      "தீ": 2660,
      "கட": 2661,
      "சோ": 2662,
      "இணை": 2663,
      "இந்திய": 2664,
      "நட": 2665,
      "தமிழ்": 2666,
      "நிலை": 2667,
      "வரை": 2668,
      "ான்": 2669,
      "பதி": 2670,
      "பிரி": 2671,
      "சொ": 2672,
      "நடி": 2673,
      "ிருந்து": 2674,
      "சூ": 2675,
      "ஆகும்": 2676,
      "18": 2677,
      "த்திற": 2678,
      "சீ": 2679,
      "என்பது": 2680,
      "வட்ட": 2681,
      "வான": 2682,
      "ற்றி": 2683,
      "டும்": 2684,
      "ராக": 2685,
      "னா": 2686,
      "முக": 2687,
      "ியில்": 2688,
      "க்கம்": 2689,
      "எதி": 2690,
      "ரே": 2691,
      "அமெ": 2692,
      "வடி": 2693,
      "அள": 2694,
      "அடி": 2695,
      "நெ": 2696,
      "தற்கு": 2697,
      "நகர": 2698,
      "ியல்": 2699,
      "ொரு": 2700,
      "ையா": 2701,
      "மேலும்": 2702,
      "ப்பட்டது": 2703,
      "ாகும்": 2704,
      "த்துவ": 2705,
      "லில்": 2706,
      "கொண்டு": 2707,
      "நிறுவ": 2708,
      "ையை": 2709,
      "பயன்படுத்த": 2710,
      "வரி": 2711,
      "பொது": 2712,
      "கண": 2713,
      "தம்": 2714,
      "ையின்": 2715,
      "சம": 2716,
      "படி": 2717,
      "ர்ந்த": 2718,
      "நிக": 2719,
      "அதிக": 2720,
      "டா": 2721,
      "பூ": 2722,
      "ஏற்ப": 2723,
      "ண்டும்": 2724,
      "ுடன்": 2725,
      "வேறு": 2726,
      "உலக": 2727,
      "),": 2728,
      "த்திய": 2729,
      "னால்": 2730,
      "தல்": 2731,
      "குறை": 2732,
      "உருவா": 2733,
      "ச்சி": 2734,
      "காண": 2735,
      "ுகிறது": 2736,
      "மொழி": 2737,
      "குறிப்பி": 2738,
      "விட": 2739,
      "ுக்க": 2740,
      "தும்": 2741,
      "இருந்து": 2742,
      "ப்படுத்த": 2743,
      "முற": 2744,
      "வல": 2745,
      "ணம்": 2746,
      "ங்களை": 2747,
      "நிறுவன": 2748,
      "இவர்": 2749,
      "ப்பாட்ட": 2750,
      "ரின்": 2751,
      "டுத்து": 2752,
      "கட்ட": 2753,
      "ியின்": 2754,
      "ேய": 2755,
      "முன்ன": 2756,
      "மும்": 2757,
      "199": 2758,
      "முடி": 2759,
      "விரு": 2760,
      "ஒன்ற": 2761,
      "ங்கி": 2762,
      "அவர்": 2763,
      "ிலிருந்து": 2764,
      "ர்ட": 2765,
      "இருக்க": 2766,
      "பகுதி": 2767,
      "ற்றிய": 2768,
      "ானது": 2769,
      "த்திர": 2770,
      "வர்கள்": 2771,
      "கல": 2772,
      "பெரும்": 2773,
      "மாவட்ட": 2774,
      "மர": 2775,
      "ங்": 2776,
      "ையாக": 2777,
      "வரது": 2778,
      "நு": 2779,
      "ங்கில": 2780,
      "கர்": 2781,
      "மின்": 2782,
      "என்ன": 2783,
      "வில": 2784,
      "ண்டா": 2785,
      "சார்": 2786,
      "மரு": 2787,
      "ுகளில்": 2788,
      "வழி": 2789,
      "ப்பின": 2790,
      "வர்கள": 2791,
      "னு": 2792,
      "தொழ": 2793,
      "க்கொ": 2794,
      "வகை": 2795,
      "ல்கள": 2796,
      "தொகு": 2797,
      "த்தா": 2798,
      "டம்": 2799,
      "பெரு": 2800,
      "களின்": 2801,
      "உட": 2802,
      "ின்றது": 2803,
      "கல்": 2804,
      "இரா": 2805,
      "வாழ": 2806,
      "இலங்க": 2807,
      "க்கூ": 2808,
      "அந்த": 2809,
      "ந்திர": 2810,
      "ுகளை": 2811,
      "உறு": 2812,
      "ட்டை": 2813,
      "துடு": 2814,
      "மோ": 2815,
      "மதி": 2816,
      "த்திற்கு": 2817,
      "ல்கள்": 2818,
      "மாற்ற": 2819,
      "ஷ்": 2820,
      "ப்போ": 2821,
      "ோள": 2822,
      "தூ": 2823,
      "முக்கிய": 2824,
      "துடுப்பாட்ட": 2825,
      "வரலா": 2826,
      "வழங்க": 2827,
      "உள்ளது": 2828,
      "தார": 2829,
      "ள்ளது": 2830,
      "க்கை": 2831,
      "ர்வ": 2832,
      "கீ": 2833,
      "ஜெ": 2834,
      "த்தார்": 2835,
      "தியில்": 2836,
      "சட்ட": 2837,
      "ரில்": 2838,
      "செயல்": 2839,
      "மக்கள்": 2840,
      "கைய": 2841,
      "்கா": 2842,
      "லு": 2843,
      "ஸ்த": 2844,
      "ஆண்டில்": 2845,
      "இந்தியா": 2846,
      "சன்": 2847,
      "ிறார்": 2848,
      "பரி": 2849,
      "வரும்": 2850,
      "ிருக்க": 2851,
      "ரீ": 2852,
      "உண": 2853,
      "மூலம்": 2854,
      "கட்டு": 2855,
      "அமெரிக்க": 2856,
      "ினார்": 2857,
      "198": 2858,
      "்ச்ச": 2859,
      "இவ்": 2860,
      "மக்கள": 2861,
      "இருக்கும்": 2862,
      "10": 2863,
      "தனி": 2864,
      "ளர்": 2865,
      "ளை": 2866,
      "வன்": 2867,
      "இற": 2868,
      "மன்ற": 2869,
      "ஆனால்": 2870,
      "திரைப்படங்கள்": 2871,
      "மல்": 2872,
      "ச்சு": 2873,
      "ளா": 2874,
      "ந்தை": 2875,
      "மன": 2876,
      "தால்": 2877,
      "லோ": 2878,
      "பின்னர்": 2879,
      "வுகள்": 2880,
      "தவி": 2881,
      "மனி": 2882,
      "தனது": 2883,
      "ள்ளி": 2884,
      "அழை": 2885,
      "ினை": 2886,
      "வன": 2887,
      "க்கப்பட்டது": 2888,
      "197": 2889,
      "அக": 2890,
      "டெ": 2891,
      "படை": 2892,
      "ியாக": 2893,
      "அதன்": 2894,
      "என்னும்": 2895,
      "வட": 2896,
      "வடிவ": 2897,
      "க்கோ": 2898,
      "இதன்": 2899,
      "நாட்ட": 2900,
      "பெற": 2901,
      "யு": 2902,
      "எஸ்": 2903,
      "பல்": 2904,
      "ப்படுகின்றன": 2905,
      "ங்கா": 2906,
      "அண": 2907,
      "மேற்கோள": 2908,
      "யூ": 2909,
      "ந்தி": 2910,
      "அது": 2911,
      "யி": 2912,
      "முழு": 2913,
      "ப்பெ": 2914,
      "மார்": 2915,
      "வெளியி": 2916,
      "வேண்டும்": 2917,
      "ங்கிய": 2918,
      "பண": 2919,
      "காரண": 2920,
      "சன": 2921,
      "அனை": 2922,
      "சின்": 2923,
      "வாய்": 2924,
      "ராஜ": 2925,
      "யம்": 2926,
      "ற்றா": 2927,
      "தான": 2928,
      "மல": 2929,
      "மேற்கோள்கள்": 2930,
      "மாநில": 2931,
      "மூல": 2932,
      "னார்": 2933,
      "வில்லை": 2934,
      "ப்பை": 2935,
      "பால": 2936,
      "15": 2937,
      "உயி": 2938,
      "அரு": 2939,
      "பேர": 2940,
      "ஆய்": 2941,
      "17": 2942,
      "டுவ": 2943,
      "வியல்": 2944,
      "யில்": 2945,
      "நேர": 2946,
      "கலை": 2947,
      "பழ": 2948,
      "நடை": 2949,
      "இரண்டு": 2950,
      "an": 2951,
      "அரசிய": 2952,
      "ம்பர்": 2953,
      "விளையா": 2954,
      "பை": 2955,
      "ுள்ளது": 2956,
      "கண்ட": 2957,
      "ின்றனர்": 2958,
      "ஜி": 2959,
      "ராம": 2960,
      "ந்தது": 2961,
      "பாக": 2962,
      "நிய": 2963,
      "ந்": 2964,
      "er": 2965,
      "கூற": 2966,
      "்த்த": 2967,
      "196": 2968,
      "க்கான": 2969,
      "தல": 2970,
      "16": 2971,
      "அடிப்பட": 2972,
      "ங்களின்": 2973,
      "ோர்": 2974,
      "திற": 2975,
      "தனை": 2976,
      "நிலைய": 2977,
      "இரண்டா": 2978,
      "பெயர்": 2979,
      "எல்": 2980,
      "ஃப்": 2981,
      "ருக்கு": 2982,
      "பிடி": 2983,
      "பாடு": 2984,
      "ளம்": 2985,
      "குழ": 2986,
      "இசை": 2987,
      "அனு": 2988,
      "ர்களின்": 2989,
      "தேச": 2990,
      "எம்": 2991,
      "த்தது": 2992,
      "ரிக்கா": 2993,
      "குறிப்பிட": 2994,
      "மிகவும்": 2995,
      "ராய": 2996,
      "பர்": 2997,
      "தொலை": 2998,
      "ியை": 2999,
      "ுகின்றன": 3000,
      "ஆங்கில": 3001,
      "மது": 3002,
      "உள்ளன": 3003,
      "12": 3004,
      "ட்ப": 3005,
      "்க்க": 3006,
      "அவரது": 3007,
      "பெரிய": 3008,
      "ர்வு": 3009,
      "வருக": 3010,
      "அமைந்து": 3011,
      "புக": 3012,
      "மாகும்": 3013,
      "ண்ட்": 3014,
      "நிகழ்": 3015,
      "கன": 3016,
      "விட்ட": 3017,
      "திட்ட": 3018,
      "லின்": 3019,
      "நூற்றா": 3020,
      "on": 3021,
      "ணைய": 3022,
      "ரான": 3023,
      "வீர": 3024,
      "மையான": 3025,
      "194": 3026,
      "தயா": 3027,
      "ுகளின்": 3028,
      "்த்": 3029,
      "போர்": 3030,
      "ாலும்": 3031,
      "நான": 3032,
      "குழு": 3033,
      "கிழ": 3034,
      "ஆர்": 3035,
      "எதிர்": 3036,
      "ரம்ப": 3037,
      "வார்": 3038,
      "தான்": 3039,
      "நாடு": 3040,
      "அட": 3041,
      "இடம்": 3042,
      "ேயே": 3043,
      "வளர்": 3044,
      "என்": 3045,
      "தொழில்": 3046,
      "இவை": 3047,
      "அல": 3048,
      "ஸ்க": 3049,
      "பீ": 3050,
      "என்றும்": 3051,
      "ாகவும்": 3052,
      "இன": 3053,
      "புற": 3054,
      "ப்பின்": 3055,
      "ார்கள்": 3056,
      "நிகழ": 3057,
      "பிரா": 3058,
      "களும்": 3059,
      "195": 3060,
      "மன்": 3061,
      "எண்": 3062,
      "விருது": 3063,
      "நாள்": 3064,
      "நீர்": 3065,
      "சர்": 3066,
      "சங்க": 3067,
      "11": 3068,
      "நாட்டு": 3069,
      "அரசியல்": 3070,
      "மலை": 3071,
      "ரெ": 3072,
      "ண்டி": 3073,
      "ஸ்ட்": 3074,
      "லே": 3075,
      "வோ": 3076,
      "அரசு": 3077,
      "ப்பில்": 3078,
      "தக": 3079,
      "ினர்": 3080,
      "வாழ்": 3081,
      "in": 3082,
      "ற்கு": 3083,
      "பார்க்க": 3084,
      "இயக்க": 3085,
      "இலங்கை": 3086,
      "மில்": 3087,
      "ிருக்கும்": 3088,
      "விடு": 3089,
      "சிரிய": 3090,
      "வக": 3091,
      "தனால்": 3092,
      "அணி": 3093,
      "தேசிய": 3094,
      "ெடு": 3095,
      "14": 3096,
      "மொழ": 3097,
      "ப்பாக": 3098,
      "கொள்ள": 3099,
      "ழக": 3100,
      "புதிய": 3101,
      "ள்க": 3102,
      "ானிய": 3103,
      "தமிழ்த்": 3104,
      "ேற்ற": 3105,
      "ப்ர": 3106,
      "இவற்ற": 3107,
      "சியா": 3108,
      "யில": 3109,
      "ஆகியவற்ற": 3110,
      "வய": 3111,
      "ட்டிய": 3112,
      "ன்னை": 3113,
      "சேர்ந்த": 3114,
      "மட்டு": 3115,
      "களுக்கு": 3116,
      "முன்": 3117,
      "ற்சி": 3118,
      "ப்பட்டு": 3119,
      "அவை": 3120,
      "போட்டி": 3121,
      "ர்க்": 3122,
      "மூன்று": 3123,
      "பாட்ட": 3124,
      "மண": 3125,
      "விளை": 3126,
      "ந்தார்": 3127,
      "ங்களும்": 3128,
      "அமெரிக்கா": 3129,
      "புர": 3130,
      "எடுத்து": 3131,
      "குடிய": 3132,
      "மணி": 3133,
      "இணைப்புகள்": 3134,
      "மனித": 3135,
      "இத": 3136,
      ").": 3137,
      "000": 3138,
      "பாது": 3139,
      "நடித்த": 3140,
      "உறுப்பின": 3141,
      "13": 3142,
      "கிடை": 3143,
      "லாக": 3144,
      "வெற்றி": 3145,
      "சிறந்த": 3146,
      "இருந்தது": 3147,
      "நாய": 3148,
      "ஒன்று": 3149,
      "ar": 3150,
      "முதன்": 3151,
      "இருப்ப": 3152,
      "பொதுவாக": 3153,
      "க்கார": 3154,
      "த்தல்": 3155,
      "இறு": 3156,
      "அளி": 3157,
      "மருத்துவ": 3158,
      "ண்டிய": 3159,
      "பாதுகா": 3160,
      "தியாக": 3161,
      "வரைய": 3162,
      "செல்ல": 3163,
      "னின்": 3164,
      "்ச்சி": 3165,
      "பணி": 3166,
      "எழுத்த": 3167,
      "த்தொ": 3168,
      "பற்றிய": 3169,
      "ஹா": 3170,
      "மர்": 3171,
      "ுக்கும்": 3172,
      "ஒவ்": 3173,
      "அம்": 3174,
      "நோய": 3175,
      "வுக்கு": 3176,
      "ரியா": 3177,
      "பல்க": 3178,
      "பயன்": 3179,
      "at": 3180,
      "ப்பகு": 3181,
      "த்தில": 3182,
      "வெப்ப": 3183,
      "al": 3184,
      "ட்டா": 3185,
      "வொரு": 3186,
      "கன்": 3187,
      "லீ": 3188,
      "கல்ல": 3189,
      "மாறு": 3190,
      "தெரி": 3191,
      "ியம்": 3192,
      "தயாரி": 3193,
      "மறு": 3194,
      "ாளர்": 3195,
      "தள": 3196,
      "பல்வேறு": 3197,
      "பண்": 3198,
      "த்துக்கு": 3199,
      "டோ": 3200,
      "க்கிறது": 3201,
      "ிற்கு": 3202,
      "டியா": 3203,
      "வாழ்க்க": 3204,
      "பிறகு": 3205,
      "வைய": 3206,
      "ினால்": 3207,
      "ங்கும்": 3208,
      "ன்னா": 3209,
      "ஐக்கிய": 3210,
      "வல்": 3211,
      "இன்": 3212,
      "செல்": 3213,
      "பொருள்": 3214,
      "அனைத்து": 3215,
      "தற்": 3216,
      "க்கூடிய": 3217,
      "அவர்கள": 3218,
      "அழைக்க": 3219,
      "த்திற்க": 3220,
      "திகள்": 3221,
      "ங்களுக்கு": 3222,
      "சைய": 3223,
      "ுடைய": 3224,
      "அவற்ற": 3225,
      "சமூ": 3226,
      "அவர்கள்": 3227,
      "போல": 3228,
      "துறை": 3229,
      "காட்ட": 3230,
      "நுட்ப": 3231,
      "மானது": 3232,
      "காரணமாக": 3233,
      "வரலாறு": 3234,
      "டும்ப": 3235,
      "வெளிவந்த": 3236,
      "தர்": 3237,
      "மட்ட": 3238,
      "ரூ": 3239,
      "ஒப்ப": 3240,
      "ட்டர்": 3241,
      "பார்": 3242,
      "en": 3243,
      "ஆற்ற": 3244,
      "இந்": 3245,
      "பொருள": 3246,
      "ுக்கான": 3247,
      "193": 3248,
      "பல்கலை": 3249,
      "க்காக": 3250,
      "கருத": 3251,
      "பெற்று": 3252,
      "புத்த": 3253,
      "மைப்பு": 3254,
      "ந்தா": 3255,
      "வம்": 3256,
      "தற்காக": 3257,
      "கணி": 3258,
      "..": 3259,
      "கண்டு": 3260,
      "ர்ட்": 3261,
      "மிய": 3262,
      "்களை": 3263,
      "ுகளுக்கு": 3264,
      "அறிய": 3265,
      "ளர்கள்": 3266,
      "உருவாக்க": 3267,
      "ப்படி": 3268,
      "ால": 3269,
      "உற்ப": 3270,
      "தற்கான": 3271,
      "கூட்ட": 3272,
      "முடிய": 3273,
      "நக": 3274,
      "ல்க": 3275,
      "இதில்": 3276,
      "ரால்": 3277,
      "புல": 3278,
      "உத": 3279,
      "டே": 3280,
      "தாகும்": 3281,
      "நூற்றாண்ட": 3282,
      "கிற": 3283,
      "உரி": 3284,
      "அமைப்பு": 3285,
      "ராட்சி": 3286,
      "த்துடன்": 3287,
      "ழா": 3288,
      "முய": 3289,
      "மன்ன": 3290,
      "படுத்த": 3291,
      "கெ": 3292,
      "ினும்": 3293,
      "சார்ந்த": 3294,
      "புரி": 3295,
      "சமய": 3296,
      "டுக்க": 3297,
      "அடை": 3298,
      "மீது": 3299,
      "வணி": 3300,
      "குடும்ப": 3301,
      "தொடர்ந்து": 3302,
      "ம்பி": 3303,
      "சரி": 3304,
      "வச": 3305,
      "சமூக": 3306,
      "பொருட": 3307,
      "கட்டி": 3308,
      "லியன்": 3309,
      "ஓர்": 3310,
      "or": 3311,
      "மண்ட": 3312,
      "க்த": 3313,
      "அரச": 3314,
      "சிறு": 3315,
      "இலக்கிய": 3316,
      "இங்கு": 3317,
      "அன்று": 3318,
      "செய்யப்பட்ட": 3319,
      "பாதி": 3320,
      "ுகளும்": 3321,
      "சொல்ல": 3322,
      "இடை": 3323,
      "ினி": 3324,
      "நியூ": 3325,
      "முறைய": 3326,
      "குரு": 3327,
      "க்ஸ்": 3328,
      "ஒவ்வொரு": 3329,
      "இணைய": 3330,
      "நிர": 3331,
      "சிவ": 3332,
      "லெ": 3333,
      "மட்டுமே": 3334,
      "ிலான": 3335,
      "செய்து": 3336,
      "பல்கலைக்க": 3337,
      "பற்றி": 3338,
      "இரண்டாம்": 3339,
      "இவரது": 3340,
      "எனும்": 3341,
      "கொள்க": 3342,
      "அங்க": 3343,
      "ப்பிய": 3344,
      "லாத": 3345,
      "நிர்": 3346,
      "எந்த": 3347,
      "வாறு": 3348,
      "னோ": 3349,
      "மேல்": 3350,
      "யோ": 3351,
      "த்தம்": 3352,
      "ச்சிய": 3353,
      "கீழ்": 3354,
      "மாத": 3355,
      "பெற்றது": 3356,
      "நிறு": 3357,
      "சிக்க": 3358,
      "ண்மை": 3359,
      "விரி": 3360,
      "காலத்தில்": 3361,
      "தோன்ற": 3362,
      "ஐரோ": 3363,
      "இள": 3364,
      "ப்படு": 3365,
      "நினை": 3366,
      "ஆரம்ப": 3367,
      "ைத்": 3368,
      "பயி": 3369,
      "சுற்று": 3370,
      "வதற்கு": 3371,
      "பெரும்பா": 3372,
      "அம": 3373,
      "ுகொ": 3374,
      "ச்சா": 3375,
      "பேரர": 3376,
      "கதை": 3377,
      "அளவு": 3378,
      "உயர்": 3379,
      "வரின்": 3380,
      "மம்": 3381,
      "வழக்க": 3382,
      "அறிவி": 3383,
      "கல்வி": 3384,
      "ச்சை": 3385,
      "25": 3386,
      "பிரித்த": 3387,
      "பில்": 3388,
      "ாள்": 3389,
      "அதே": 3390,
      "க்ச": 3391,
      "னிய": 3392,
      "குறிப்பிட்ட": 3393,
      "நாடக": 3394,
      "னில்": 3395,
      "பகுதிய": 3396,
      "ஜ்": 3397,
      "கவி": 3398,
      "னம்": 3399,
      "பார": 3400,
      "இம்": 3401,
      "டல்": 3402,
      "மீண்டும்": 3403,
      "துணை": 3404,
      "பிய": 3405,
      "ஜூ": 3406,
      "ஒரே": 3407,
      "ட்டம்": 3408,
      "பிறப்புகள்": 3409,
      "தொடர்பு": 3410,
      "சம்": 3411,
      "ல்ப": 3412,
      "கல்லூ": 3413,
      "்ட்": 3414,
      "களிலும்": 3415,
      "ic": 3416,
      "முறையில்": 3417,
      "திர": 3418,
      "்களின்": 3419,
      "சென்னை": 3420,
      "பெண": 3421,
      "ஒலி": 3422,
      "ிருந்தது": 3423,
      "ஒளி": 3424,
      "ப்பது": 3425,
      "த்தையும்": 3426,
      "தேர்வு": 3427,
      "ட்சிய": 3428,
      "மேற்கு": 3429,
      "பொறு": 3430,
      "நப": 3431,
      "நிறை": 3432,
      "நீதி": 3433,
      "கார்": 3434,
      "2008": 3435,
      "ப்பான": 3436,
      "தேவை": 3437,
      "றும்": 3438,
      "வலை": 3439,
      "மூன்ற": 3440,
      "பாட்டு": 3441,
      "வராக": 3442,
      "ந்திய": 3443,
      "தமிழக": 3444,
      "ணுவ": 3445,
      "சிறப்பு": 3446,
      "டையே": 3447,
      "எண்ணி": 3448,
      "ஒப்பந்த": 3449,
      "ள்ளன": 3450,
      "ஹெ": 3451,
      "ன்ஸ்": 3452,
      "த்தக்க": 3453,
      "நிலையில்": 3454,
      "ஞர்": 3455,
      "ல்த": 3456,
      "நிதி": 3457,
      "தமிழ்நாடு": 3458,
      "குழந்தை": 3459,
      "னும்": 3460,
      "போட்ட": 3461,
      "ஜா": 3462,
      "ாக்": 3463,
      "தேர்த": 3464,
      "வண": 3465,
      "தொழில": 3466,
      "நோய்": 3467,
      "ஆட்சி": 3468,
      "எண்ண": 3469,
      "ள்ளார்": 3470,
      "ோடு": 3471,
      "னைய": 3472,
      "உட்": 3473,
      "பகுதியில்": 3474,
      "பரு": 3475,
      "யர்": 3476,
      "ன்க": 3477,
      "ஞ்சா": 3478,
      "க்குப்": 3479,
      "களையும்": 3480,
      "es": 3481,
      "தைய": 3482,
      "னே": 3483,
      "தாகவும்": 3484,
      "த்தைக்": 3485,
      "லாளர்": 3486,
      "கூடிய": 3487,
      "மகா": 3488,
      "கண்டுபிடி": 3489,
      "மறை": 3490,
      "தொகுதி": 3491,
      "னெ": 3492,
      "டர்": 3493,
      "நாள": 3494,
      "ர்த்தி": 3495,
      "சேவை": 3496,
      "பேர்": 3497,
      "இதனால்": 3498,
      "அறிமுக": 3499,
      "சேர்": 3500,
      "ங்கம்": 3501,
      "ுள்": 3502,
      "கிறி": 3503,
      "டுகள்": 3504,
      "30": 3505,
      "்டோ": 3506,
      "ுள்ளன": 3507,
      "யின்": 3508,
      "பணியா": 3509,
      "தில்லை": 3510,
      "த்திலும்": 3511,
      "ாகப்": 3512,
      "மனை": 3513,
      "என்பதை": 3514,
      "நான்கு": 3515,
      "ஆறு": 3516,
      "மையில்": 3517,
      "ன்னி": 3518,
      "றைய": 3519,
      "கிரு": 3520,
      "is": 3521,
      "த்தைப்": 3522,
      "நாக": 3523,
      "நகர்": 3524,
      "சர": 3525,
      "தொடங்க": 3526,
      "இராக": 3527,
      "விர": 3528,
      "த்தால்": 3529,
      "சிறிய": 3530,
      "ப்படுகின்றது": 3531,
      "டப்பட்ட": 3532,
      "வாக்க": 3533,
      "சென்ற": 3534,
      "ள்ளை": 3535,
      "முடியும்": 3536,
      "க்கப்பட்டு": 3537,
      "2007": 3538,
      "மேற்கொ": 3539,
      "ஜெர்": 3540,
      "எழுதிய": 3541,
      "ீடு": 3542,
      "ஈடு": 3543,
      "த்துக்": 3544,
      "பங்க": 3545,
      "வேலை": 3546,
      "ஏற்பட்ட": 3547,
      "துடுப்பாட்டக்கார": 3548,
      "த்தும்": 3549,
      "ஆவார்": 3550,
      "இத்த": 3551,
      "2006": 3552,
      "பாடல்": 3553,
      "ிட்ட": 3554,
      "இந்தியாவின்": 3555,
      "ப்படுவ": 3556,
      "பெண்": 3557,
      "களைக்": 3558,
      "இங்கில": 3559,
      "பான": 3560,
      "விட்டு": 3561,
      "காலம்": 3562,
      "2009": 3563,
      "வினை": 3564,
      "னியா": 3565,
      "கண்ண": 3566,
      "ருந்து": 3567,
      "ாத": 3568,
      "சுர": 3569,
      "பில": 3570,
      "வார": 3571,
      "வணிக": 3572,
      "உள்ளட": 3573,
      "ியது": 3574,
      "செய்தி": 3575,
      "அல்": 3576,
      "பால்": 3577,
      "தங்கள்": 3578,
      "ப்த": 3579,
      "இங்கிலா": 3580,
      "வான்": 3581,
      "பக்க": 3582,
      "ந்தைய": 3583,
      "அடைய": 3584,
      "வித": 3585,
      "உயிரி": 3586,
      "ணு": 3587,
      "முடியா": 3588,
      "நடவடி": 3589,
      "ப்பொரு": 3590,
      "உற்பத்தி": 3591,
      "அமைந்துள்ளது": 3592,
      "வங்க": 3593,
      "க்கல்": 3594,
      "குறைந்த": 3595,
      "துடுப்பாட்டப்": 3596,
      "வுகள": 3597,
      "நடு": 3598,
      "நல்ல": 3599,
      "தாவது": 3600,
      "ளவு": 3601,
      "ப்போது": 3602,
      "கருத்து": 3603,
      "பெற்றார்": 3604,
      "இருக்கிறது": 3605,
      "மான்": 3606,
      "த்தின": 3607,
      "அதிகார": 3608,
      "தொழில்நுட்ப": 3609,
      "பொருளா": 3610,
      "பங்கு": 3611,
      "செலு": 3612,
      "சாலை": 3613,
      "எனினும்": 3614,
      "வகு": 3615,
      "வாழும்": 3616,
      "வந்து": 3617,
      "நிறுவனம்": 3618,
      "பிரான்": 3619,
      "ருக்க": 3620,
      "சிகி": 3621,
      "எழுத்து": 3622,
      "புது": 3623,
      "நவ": 3624,
      "நாடுகள்": 3625,
      "ஏற்படுத்த": 3626,
      "ஜன": 3627,
      "வகைய": 3628,
      "இழ": 3629,
      "கரி": 3630,
      "ுள்ளார்": 3631,
      "ர்த்து": 3632,
      "மாவட்டம்": 3633,
      "ிறார்கள்": 3634,
      "பின்ன": 3635,
      "யாழ்": 3636,
      "முதலில்": 3637,
      "22": 3638,
      "க்கில்": 3639,
      "அழி": 3640,
      "இந்து": 3641,
      "விடுதலை": 3642,
      "கிறது": 3643,
      "மொத்த": 3644,
      "கிராம": 3645,
      "மேற்ப": 3646,
      "it": 3647,
      "மாண": 3648,
      "சில்": 3649,
      "ஜோ": 3650,
      "இன்ற": 3651,
      "தரவு": 3652,
      "ளு": 3653,
      "ஆசிரிய": 3654,
      "ிற்க": 3655,
      "21": 3656,
      "கட்சி": 3657,
      "ரல்": 3658,
      "மூன்றா": 3659,
      "இயக்கு": 3660,
      "கைப்ப": 3661,
      "பள்ளி": 3662,
      "இத்தி": 3663,
      "விழா": 3664,
      "ாளர்கள்": 3665,
      "இல்லை": 3666,
      "இந்தியத்": 3667,
      "க்கப்படும்": 3668,
      "தன்ன": 3669,
      "போரா": 3670,
      "50": 3671,
      "அதை": 3672,
      "இசு": 3673,
      "மானிய": 3674,
      "24": 3675,
      "மத்திய": 3676,
      "ப்பே": 3677,
      "அளவில்": 3678,
      "ுகின்றது": 3679,
      "த்திலிருந்து": 3680,
      "சொல்": 3681,
      "கில": 3682,
      "ணா": 3683,
      "ழுது": 3684,
      "ஆய": 3685,
      "அவ்": 3686,
      "ன்மை": 3687,
      "ஆன": 3688,
      "தாய": 3689,
      "அமைந்த": 3690,
      "புரம்": 3691,
      "அறிவியல்": 3692,
      "தாரண": 3693,
      "ட்டில்": 3694,
      "கீழ": 3695,
      "மையாக": 3696,
      "எரி": 3697,
      "ர்களை": 3698,
      "்களில்": 3699,
      "இயற்க": 3700,
      "நூல்": 3701,
      "ஆகியவை": 3702,
      "சூழ": 3703,
      "பத": 3704,
      "லான": 3705,
      "ர்களும்": 3706,
      "விற்கு": 3707,
      "கடை": 3708,
      "வாழ்க்கை": 3709,
      "இதை": 3710,
      "முனை": 3711,
      "வாதி": 3712,
      "சட்டமன்ற": 3713,
      "குறிய": 3714,
      "ஆய்வு": 3715,
      "நாட்டின்": 3716,
      "க்கொண்ட": 3717,
      "க்கொள்ள": 3718,
      "சந்த": 3719,
      "போக்கு": 3720,
      "வால்": 3721,
      "மாற": 3722,
      "இராணுவ": 3723,
      "க்கால": 3724,
      "ர்களுக்கு": 3725,
      "நடத்த": 3726,
      "ுகிறார்": 3727,
      "ப்பினும்": 3728,
      "கூட": 3729,
      "மாதி": 3730,
      "விமான": 3731,
      "மத": 3732,
      "உண்": 3733,
      "23": 3734,
      "இன்ன": 3735,
      "கோயில்": 3736,
      "வேக": 3737,
      "ion": 3738,
      "கட்டிட": 3739,
      "வளர்ச்சி": 3740,
      "ஞ்சி": 3741,
      "ஆட்ட": 3742,
      "விதி": 3743,
      "உற": 3744,
      "பெரும்பாலும்": 3745,
      "நபர்கள்": 3746,
      "ஜே": 3747,
      "வகையில்": 3748,
      "நிர்வாக": 3749,
      "தாக்கு": 3750,
      "வியா": 3751,
      "ப்ட": 3752,
      "தற்போது": 3753,
      "பாடுகள்": 3754,
      "உடல்": 3755,
      "ிருந்தார்": 3756,
      "பல்கலைக்கழக": 3757,
      "டாக": 3758,
      "ஸ்ரீ": 3759,
      "தின": 3760,
      "எடுத்துக்கா": 3761,
      "லர்": 3762,
      "திரும்": 3763,
      "உள்": 3764,
      "இறை": 3765,
      "அமைப்ப": 3766,
      "வர்த்த": 3767,
      "பிரதேச": 3768,
      "ப்பூர்": 3769,
      "க்கே": 3770,
      "ஞ்சு": 3771,
      "கால்": 3772,
      "விளையாட்டு": 3773,
      "ிட": 3774,
      "am": 3775,
      "மிகு": 3776,
      "வென்ற": 3777,
      "சரா": 3778,
      "போல்": 3779,
      "பெரும்பால": 3780,
      "விளக்க": 3781,
      "இருப்பினும்": 3782,
      "ங்களையும்": 3783,
      "பிரித்தானிய": 3784,
      "வரிசை": 3785,
      "செய்யும்": 3786,
      "தெரிவி": 3787,
      "ிலேயே": 3788,
      "உணவு": 3789,
      "சக்த": 3790,
      "ச்செ": 3791,
      "ஆராய": 3792,
      "வேண்டிய": 3793,
      "பெரும்பாலான": 3794,
      "புகழ்": 3795,
      "கோயில": 3796,
      "முதலா": 3797,
      "மெய்": 3798,
      "நம்பி": 3799,
      "ரசு": 3800,
      "கொடு": 3801,
      "கிழக்கு": 3802,
      "ன்பொரு": 3803,
      "ிருப்ப": 3804,
      "கூடு": 3805,
      "வலி": 3806,
      "சார": 3807,
      "தாய்": 3808,
      "எழுத": 3809,
      "பாய்": 3810,
      "ந்தனர்": 3811,
      "சுமார்": 3812,
      "ஓட்ட": 3813,
      "லியா": 3814,
      "லாமல்": 3815,
      "களாக": 3816,
      "மில்லியன்": 3817,
      "கொல்ல": 3818,
      "யாழ்ப்பா": 3819,
      "கொண்டது": 3820,
      "ப்பிர": 3821,
      "நாட்டில்": 3822,
      "சரிய": 3823,
      "டீ": 3824,
      "ாய": 3825,
      "ஆல": 3826,
      "தீர்": 3827,
      "இரண்டாவது": 3828,
      "இத்திரைப்பட": 3829,
      "மாகக்": 3830,
      "விரும்": 3831,
      "உரிமை": 3832,
      "இறுதி": 3833,
      "படைய": 3834,
      "கருவி": 3835,
      "ரம்பி": 3836,
      "அடுத்த": 3837,
      "வதும்": 3838,
      "கோட்": 3839,
      "அதில்": 3840,
      "விவ": 3841,
      "நடவடிக்கை": 3842,
      "ப்பட்டன": 3843,
      "இவற்றையும்": 3844,
      "த்தோ": 3845,
      "இலக்க": 3846,
      "தவ": 3847,
      "அதற்கு": 3848,
      "பூர்": 3849,
      "மிக்க": 3850,
      "பரப்ப": 3851,
      "லூ": 3852,
      "இசைய": 3853,
      "2005": 3854,
      "கடி": 3855,
      "எடுத்த": 3856,
      "களைப்": 3857,
      "இவரு": 3858,
      "கடல்": 3859,
      "சந்தி": 3860,
      "ழகம்": 3861,
      "குறிப்பிடத்தக்க": 3862,
      "இந்தப்": 3863,
      "கல்லூரி": 3864,
      "ிருக்கிறது": 3865,
      "மாவட்டத்தில்": 3866,
      "தென்": 3867,
      "வழியாக": 3868,
      "மின்ன": 3869,
      "பாத்திர": 3870,
      "அலை": 3871,
      "தோற்ற": 3872,
      "கடவு": 3873,
      "காங்க": 3874,
      "பன்": 3875,
      "விகி": 3876,
      "உண்டு": 3877,
      "இதற்கு": 3878,
      "சது": 3879,
      "இணைந்து": 3880,
      "ஏற்படும்": 3881,
      "தொகை": 3882,
      "குறிப்பாக": 3883,
      "்தொ": 3884,
      "ஏப்ர": 3885,
      "தியான": 3886,
      "ப்பர்": 3887,
      "வந்தது": 3888,
      "பட்டியல்": 3889,
      "அமைந்துள்ள": 3890,
      "காய": 3891,
      "மூலமாக": 3892,
      "அதிகரி": 3893,
      "வரலாற்ற": 3894,
      "சூரிய": 3895,
      "பட்டு": 3896,
      "வல்ல": 3897,
      "பிரபல": 3898,
      "சுக": 3899,
      "நூல்கள்": 3900,
      "டியாக": 3901,
      "சம்ப": 3902,
      "கூறி": 3903,
      "le": 3904,
      "ல்களை": 3905,
      "துவ": 3906,
      "அங்கு": 3907,
      "செய்க": 3908,
      "குற்ற": 3909,
      "சுழ": 3910,
      "வருகிறது": 3911,
      "ஐந்து": 3912,
      "செல": 3913,
      "பிள": 3914,
      "ுக்காக": 3915,
      "அக்டோ": 3916,
      "ஆண": 3917,
      "வைத்து": 3918,
      "பற": 3919,
      "கிரே": 3920,
      "ங்களைக்": 3921,
      "ப்புற": 3922,
      "சோழ": 3923,
      "ங்கியது": 3924,
      "பாதுகாப்பு": 3925,
      "பெறு": 3926,
      "ிக்": 3927,
      "ள்ளனர்": 3928,
      "பொருளாதார": 3929,
      "நகரம்": 3930,
      "சம்பர்": 3931,
      "ஏற்று": 3932,
      "வாய": 3933,
      "ஸ்திர": 3934,
      "சாக": 3935,
      "ன்கள்": 3936,
      "கப்ப": 3937,
      "த்தனர்": 3938,
      "கிரி": 3939,
      "தாகக்": 3940,
      "முறைகள்": 3941,
      "குடி": 3942,
      "கில்": 3943,
      "வண்ண": 3944,
      "மாகா": 3945,
      "ையாள": 3946,
      "அலுவ": 3947,
      "ப்பொ": 3948,
      "உருவாக": 3949,
      "சுவா": 3950,
      "செரு": 3951,
      "நெடு": 3952,
      "வெளியே": 3953,
      "மீட்டர்": 3954,
      "பதிப்பு": 3955,
      "ஏப்ரல்": 3956,
      "கலந்து": 3957,
      "26": 3958,
      "ட்சியின்": 3959,
      "அடிப்படையில்": 3960,
      "om": 3961,
      "த்தியா": 3962,
      "ஆரம்பி": 3963,
      "லுக்கு": 3964,
      "க்குழு": 3965,
      "நிகழ்ச்சி": 3966,
      "வடிவமை": 3967,
      "பன்னா": 3968,
      "துடுப்பாட்டக்காரர்கள்": 3969,
      "அதாவது": 3970,
      "வாத": 3971,
      "உயிர்": 3972,
      "கட்டுரை": 3973,
      "ஏற்ற": 3974,
      "கிருஷ்": 3975,
      "பிறந்த": 3976,
      "செப்ட": 3977,
      "தாவர": 3978,
      "எல்லா": 3979,
      "ேன்": 3980,
      "பிரெ": 3981,
      "பிரதி": 3982,
      "இந்தியாவில்": 3983,
      "முக்கியமான": 3984,
      "as": 3985,
      "நாடுகளில்": 3986,
      "தந்திர": 3987,
      "கிரா": 3988,
      "சீன": 3989,
      "மையை": 3990,
      "கணக்க": 3991,
      "ங்கோ": 3992,
      "குதி": 3993,
      "வளி": 3994,
      "தேர்வுத்": 3995,
      "குறு": 3996,
      "விற்ப": 3997,
      "வுகளை": 3998,
      "ப்பட்டுள்ளது": 3999,
      "மைக்": 4000,
      "தொடக்க": 4001,
      "ிலுள்ள": 4002,
      "மண்டல": 4003,
      "27": 4004,
      "பிறப்பு": 4005,
      "re": 4006,
      "விலங்க": 4007,
      "க்கப்பட்டுள்ளது": 4008,
      "28": 4009,
      "துற": 4010,
      "மொழிய": 4011,
      "கொண்டுள்ளது": 4012,
      "ண்டை": 4013,
      "ையே": 4014,
      "க்களை": 4015,
      "நவம்பர்": 4016,
      "தேர்ந்த": 4017,
      "எனவே": 4018,
      "ஆன்": 4019,
      "ருடைய": 4020,
      "வின": 4021,
      "காணப்படும்": 4022,
      "நை": 4023,
      "அணு": 4024,
      "இதழ": 4025,
      "அக்டோபர்": 4026,
      "ஞான": 4027,
      "2004": 4028,
      "ஈழ": 4029,
      "ம்பு": 4030,
      "வருட": 4031,
      "மட்டும்": 4032,
      "வொ": 4033,
      "அடையாள": 4034,
      "மென்பொரு": 4035,
      "இலங்கையின்": 4036,
      "he": 4037,
      "வைத்த": 4038,
      "நல": 4039,
      "ர்களில்": 4040,
      "இடத்தில்": 4041,
      "ழுத்த": 4042,
      "ேசு": 4043,
      "நோக்க": 4044,
      "டியோ": 4045,
      "ந்தர": 4046,
      "ஷா": 4047,
      "190": 4048,
      "தகவல": 4049,
      "வெளியிட்ட": 4050,
      "எனப்படும்": 4051,
      "சாமி": 4052,
      "காட்சி": 4053,
      "தாக்க": 4054,
      "ாளு": 4055,
      "போட்டியில்": 4056,
      "ளைய": 4057,
      "வதை": 4058,
      "பன்னாட்டு": 4059,
      "தலைவர்": 4060,
      "கலா": 4061,
      "நீண்ட": 4062,
      "நான்": 4063,
      "வீன": 4064,
      "ுகின்றனர்": 4065,
      "முயற்சி": 4066,
      "ப்புகள": 4067,
      "தோல்": 4068,
      "செப்டம்பர்": 4069,
      "அமைச்ச": 4070,
      "ங்களிலும்": 4071,
      "ஐரோப்பிய": 4072,
      "இத்தா": 4073,
      "்து": 4074,
      "பெறும்": 4075,
      "உல": 4076,
      "வெளியிட": 4077,
      "ஆண்டின்": 4078,
      "சென்று": 4079,
      "நகரில்": 4080,
      "தொலைக்கா": 4081,
      "த்தீ": 4082,
      "குள": 4083,
      "29": 4084,
      "ஒருவர்": 4085,
      "ழும்": 4086,
      "ப்பீ": 4087,
      "டிக்க": 4088,
      "ப்பதி": 4089,
      "ஹோ": 4090,
      "நூற்றாண்டு": 4091,
      "ஷன்": 4092,
      "றா": 4093,
      "த்தைச்": 4094,
      "அரசா": 4095,
      "நம்ப": 4096,
      "பத்தி": 4097,
      "கதி": 4098,
      "ய்வு": 4099,
      "செல்லும்": 4100,
      "அதிகமாக": 4101,
      "அனுமதி": 4102,
      "சேர்க்க": 4103,
      "பாடல்கள்": 4104,
      "அரி": 4105,
      "எளி": 4106,
      "ஆதார": 4107,
      "உடைய": 4108,
      "சர்வ": 4109,
      "வைத்": 4110,
      "அதிகா": 4111,
      "நடந்த": 4112,
      "ஒழு": 4113,
      "அழ": 4114,
      "பட்டிய": 4115,
      "உலகின்": 4116,
      "புவிய": 4117,
      "பயன": 4118,
      "இறப்புகள்": 4119,
      "படும்": 4120,
      "இசையமை": 4121,
      "ரக": 4122,
      "மய": 4123,
      "பம்": 4124,
      "விரை": 4125,
      "வையாக": 4126,
      "சிகிச்சை": 4127,
      "மாதம்": 4128,
      "இவர்கள": 4129,
      "க்கின்றன": 4130,
      "த்துறை": 4131,
      "தரு": 4132,
      "ஆஃப்": 4133,
      "சோதனை": 4134,
      "2011": 4135,
      "விமர்": 4136,
      "40": 4137,
      "கர்கள்": 4138,
      "சல்": 4139,
      "நாடாளு": 4140,
      "பொழுது": 4141,
      "பயன்படுத்தி": 4142,
      "ol": 4143,
      "கிமீ": 4144,
      "நாடாளுமன்ற": 4145,
      "சான்ற": 4146,
      "உதவி": 4147,
      "புலி": 4148,
      "பார்வ": 4149,
      "விலும்": 4150,
      "மார்ச்": 4151,
      "எதிராக": 4152,
      "ந்தர்": 4153,
      "பழைய": 4154,
      "எனக்": 4155,
      "எனவும்": 4156,
      "மாற்றம்": 4157,
      "100": 4158,
      "அற": 4159,
      "உயிர": 4160,
      "புள்ளி": 4161,
      "2000": 4162,
      "கணினி": 4163,
      "ப்ரவரி": 4164,
      "ட்டின்": 4165,
      "க்கப்படுகிறது": 4166,
      "லாந்து": 4167,
      "இருந்தார்": 4168,
      "றிவு": 4169,
      "குறித்த": 4170,
      "லாமிய": 4171,
      "்களும்": 4172,
      "ஏற்பட": 4173,
      "விண்": 4174,
      "ஆகியோ": 4175,
      "த்தான்": 4176,
      "க்கப்பட்டார்": 4177,
      "சிங்க": 4178,
      "189": 4179,
      "ாகக்": 4180,
      "திரைப்படம்": 4181,
      "பெர்": 4182,
      "புனி": 4183,
      "எடுத்துக்காட்ட": 4184,
      "இதனை": 4185,
      "வுடன்": 4186,
      "ைகள்": 4187,
      "ராஜா": 4188,
      "லிருந்து": 4189,
      "சுதந்திர": 4190,
      "காங்கிர": 4191,
      "us": 4192,
      "வரலாற்று": 4193,
      "வதாக": 4194,
      "என்பவர்": 4195,
      "நடித்து": 4196,
      "பார்க்கவும்": 4197,
      "போக்குவர": 4198,
      "ல்லி": 4199,
      "முற்ற": 4200,
      "நொ": 4201,
      "பேச": 4202,
      "ப்பதற்கு": 4203,
      "இங்கிலாந்து": 4204,
      "ைச்": 4205,
      "்களுக்கு": 4206,
      "தெளி": 4207,
      "பத்து": 4208,
      "த்தள": 4209,
      "குற": 4210,
      "கிருஷ்ண": 4211,
      "மட": 4212,
      "எழுதி": 4213,
      "கான்": 4214,
      "மேலா": 4215,
      "வயது": 4216,
      "கழி": 4217,
      "ப்பகுதி": 4218,
      "வகையான": 4219,
      "கங்கள்": 4220,
      "பகுதிகளில்": 4221,
      "மணம்": 4222,
      "சையில்": 4223,
      "கிலோ": 4224,
      "க்குக்": 4225,
      "முதலாவது": 4226,
      "மாற்று": 4227,
      "கும்": 4228,
      "போன்றவை": 4229,
      "தையும்": 4230,
      "ையான": 4231,
      "போன்றவற்ற": 4232,
      "நோக்கி": 4233,
      "2001": 4234,
      "கல்விய": 4235,
      "ஊட": 4236,
      "சகோ": 4237,
      "த்துவம்": 4238,
      "பிலி": 4239,
      "தடு": 4240,
      "மிட": 4241,
      "பௌ": 4242,
      "அவற்றின்": 4243,
      "எவ்": 4244,
      "யாழ்ப்பாண": 4245,
      "புரா": 4246,
      "சர்வதேச": 4247,
      "வூ": 4248,
      "சித்த": 4249,
      "வளை": 4250,
      "னான": 4251,
      "போட்டிய": 4252,
      "முடிவு": 4253,
      "உடன்": 4254,
      "சீனா": 4255,
      "நெறி": 4256,
      "மடை": 4257,
      "of": 4258,
      "2010": 4259,
      "சொந்த": 4260,
      "பெண்கள்": 4261,
      "ஷி": 4262,
      "ல்களில்": 4263,
      "முழுவதும்": 4264,
      "களால்": 4265,
      "மீன்": 4266,
      "வைக்": 4267,
      "சாதன": 4268,
      "60": 4269,
      "ம்பர": 4270,
      "வெள்ள": 4271,
      "பதிவு": 4272,
      "தங்க": 4273,
      "தமது": 4274,
      "தகவல்": 4275,
      "அவருடைய": 4276,
      "துரு": 4277,
      "இந்தக்": 4278,
      "பண்ட": 4279,
      "நீதிமன்ற": 4280,
      "வானது": 4281,
      "விஜ": 4282,
      "ட்ஸ்": 4283,
      "இடைய": 4284,
      "முன்னாள்": 4285,
      "த்திலுள்ள": 4286,
      "டிசம்பர்": 4287,
      "ஆற்றல்": 4288,
      "ர்களால்": 4289,
      "ஸி": 4290,
      "வதி": 4291,
      "பக": 4292,
      "எழுத்தாளர்": 4293,
      "வங்காள": 4294,
      "மாகாண": 4295,
      "க்கப்பட்டன": 4296,
      "ங்களைப்": 4297,
      "க்கலை": 4298,
      "ஆப்பி": 4299,
      "பிரச்ச": 4300,
      "சின்ன": 4301,
      "தேவ": 4302,
      "ிருந்தனர்": 4303,
      "பொறிய": 4304,
      "ஆதி": 4305,
      "ஸ்திரே": 4306,
      "உறுதி": 4307,
      "ஜெய": 4308,
      "விலை": 4309,
      "உறுப்பினர்கள்": 4310,
      "கணித": 4311,
      "ஓவிய": 4312,
      "நடிகை": 4313,
      "த்தைத்": 4314,
      "el": 4315,
      "தடை": 4316,
      "நடைபெற்ற": 4317,
      "ப்பாடு": 4318,
      "ப்புக்": 4319,
      "2003": 4320,
      "கதா": 4321,
      "பந்த": 4322,
      "அவருக்கு": 4323,
      "நிறுவனங்கள்": 4324,
      "வெளியிணை": 4325,
      "பேரூ": 4326,
      "வெடி": 4327,
      "மிகப்பெ": 4328,
      "il": 4329,
      "ப்பூ": 4330,
      "செய்தார்": 4331,
      "பருவ": 4332,
      "அறு": 4333,
      "பாய": 4334,
      "ப்புக்கள்": 4335,
      "தியின்": 4336,
      "தேதி": 4337,
      "தொலைக்காட்சி": 4338,
      "ur": 4339,
      "கூட்டு": 4340,
      "பயன்பட": 4341,
      "வடக்கு": 4342,
      "ரிக்": 4343,
      "அமில": 4344,
      "நேரத்தில்": 4345,
      "உயர": 4346,
      "ac": 4347,
      "பரவல": 4348,
      "க்கிர": 4349,
      "பள்ள": 4350,
      "என்க": 4351,
      "ர்களி": 4352,
      "உலகப்": 4353,
      "சக்தி": 4354,
      "குறிக்கும்": 4355,
      "தாம்": 4356,
      "எண்ணிக்கை": 4357,
      "திருத்த": 4358,
      "ஆகியோர்": 4359,
      "ளவில்": 4360,
      "ரைய": 4361,
      "க்கப்பட": 4362,
      "சாய": 4363,
      "காந்த": 4364,
      "தந்தை": 4365,
      "ஹி": 4366,
      "தலைமை": 4367,
      "ஜான்": 4368,
      "வேதிய": 4369,
      "தொடர்பான": 4370,
      "நேர்": 4371,
      "இவ்வாறு": 4372,
      "இவர்கள்": 4373,
      "ட்க": 4374,
      "ச்சே": 4375,
      "சட்டமன்றத்": 4376,
      "தவிர": 4377,
      "முள்ள": 4378,
      "ற்சிய": 4379,
      "தொழி": 4380,
      "மாகவும்": 4381,
      "குளி": 4382,
      "தன்மை": 4383,
      "ரன்": 4384,
      "டுத்துவ": 4385,
      "இயேசு": 4386,
      "மேற்பட்ட": 4387,
      "உள்ளிட்ட": 4388,
      "ஆவது": 4389,
      "தமிழர்": 4390,
      "ண்ணா": 4391,
      "பரிசு": 4392,
      "ரியல்": 4393,
      "ஜீ": 4394,
      "ப்பும்": 4395,
      "ருடன்": 4396,
      "பரிந்து": 4397,
      "நவீன": 4398,
      "த்தன": 4399,
      "மருந்த": 4400,
      "ட்சு": 4401,
      "இடம்பெற்ற": 4402,
      "போதும்": 4403,
      "ஆண்டுகள்": 4404,
      "முதன்மை": 4405,
      "ஒன்றாகும்": 4406,
      "எல்லை": 4407,
      "ரொ": 4408,
      "அதிகமான": 4409,
      "இயக்கத்தில்": 4410,
      "புனித": 4411,
      "இங்க": 4412,
      "ுகு": 4413,
      "ஞர்கள்": 4414,
      "தோடு": 4415,
      "மலே": 4416,
      "மேம்ப": 4417,
      "சந்திர": 4418,
      "ெழு": 4419,
      "எதிரான": 4420,
      "ஆதர": 4421,
      "மற்றொரு": 4422,
      "இன்று": 4423,
      "ீர்": 4424,
      "க்கர": 4425,
      "மகன்": 4426,
      "குறியீ": 4427,
      "்சி": 4428,
      "ro": 4429,
      "க்கப்": 4430,
      "இயற்ப": 4431,
      "et": 4432,
      "ஃபி": 4433,
      "பாரா": 4434,
      "சுரு": 4435,
      "முகம்": 4436,
      "ப்பாளர்": 4437,
      "அறிவு": 4438,
      "ப்புகளை": 4439,
      "பயிற்சி": 4440,
      "ியான": 4441,
      "ிறான்": 4442,
      "லால்": 4443,
      "பிரிவு": 4444,
      "யான": 4445,
      "பொதுவான": 4446,
      "ரிகள்": 4447,
      "ஆங்கிலேய": 4448,
      "சந்தை": 4449,
      "ரான்": 4450,
      "ங்களாக": 4451,
      "விளங்க": 4452,
      "விற்க": 4453,
      "ஐரோப்பா": 4454,
      "முத்து": 4455,
      "விழு": 4456,
      "தேர்ந்தெடு": 4457,
      "இஸ்": 4458,
      "ியும்": 4459,
      "வற்று": 4460,
      "தூதர": 4461,
      "இக்க": 4462,
      "உச்ச": 4463,
      "பிள்ளை": 4464,
      "இருக்கலாம்": 4465,
      "னுக்கு": 4466,
      "கோவில்": 4467,
      "ப்பகுதியில்": 4468,
      "சொற்க": 4469,
      "மதுரை": 4470,
      "த்தே": 4471,
      "பற்ற": 4472,
      "குறிப்புகள்": 4473,
      "நிலையம்": 4474,
      "மக்கள்தொ": 4475,
      "த்தலை": 4476,
      "்க்": 4477,
      "ப்பாட": 4478,
      "ளின்": 4479,
      "தெற்கு": 4480,
      "முதலாம்": 4481,
      "ஆல்": 4482,
      "ல்லா": 4483,
      "நிகழ்வுகள்": 4484,
      "பொருட்கள்": 4485,
      "தேவைய": 4486,
      "அவர்களின்": 4487,
      "தற்கும்": 4488,
      "எடு": 4489,
      "பிரத": 4490,
      "80": 4491,
      "பாண்டிய": 4492,
      "கருதப்படுகிறது": 4493,
      "வங்கி": 4494,
      "கையில்": 4495,
      "ியன்": 4496,
      "உள்ளனர்": 4497,
      "த்துணை": 4498,
      "ப்பிட": 4499,
      "மதிப்பு": 4500,
      "குடியரசு": 4501,
      "க்களின்": 4502,
      "ஏற": 4503,
      "ப்படுவது": 4504,
      "உசா": 4505,
      "தீவிர": 4506,
      "மொழியில்": 4507,
      "ம்ஸ்": 4508,
      "இரத்த": 4509,
      "ண்டோ": 4510,
      "பார்த்த": 4511,
      "மக்களின்": 4512,
      "வரையறு": 4513,
      "ப்பட்டார்": 4514,
      "இடையில்": 4515,
      "நடிகர்": 4516,
      "திறன்": 4517,
      "வையும்": 4518,
      "முறையாக": 4519,
      "மெய்ய": 4520,
      "திக": 4521,
      "ளராக": 4522,
      "திரைப்படமாகும்": 4523,
      "ஸ்டா": 4524,
      "கவன": 4525,
      "ற்றினார்": 4526,
      "ஏனெ": 4527,
      "நூற்றாண்டில்": 4528,
      "நுண்ண": 4529,
      "கொள்கை": 4530,
      "வகைகள்": 4531,
      "வீழ": 4532,
      "பகுதிகள்": 4533,
      "மாறி": 4534,
      "குறித்து": 4535,
      "2002": 4536,
      "ஆராய்ச்சி": 4537,
      "நர்": 4538,
      "கொள்": 4539,
      "ச்சொ": 4540,
      "பெயரில்": 4541,
      "இதன": 4542,
      "ணிகள்": 4543,
      "வுகளில்": 4544,
      "மரபு": 4545,
      "ப்பானிய": 4546,
      "க்குத்": 4547,
      "இத்திரைப்படத்தில்": 4548,
      "ன்றி": 4549,
      "கான": 4550,
      "ுட": 4551,
      "ing": 4552,
      "சோவிய": 4553,
      "ஸ்வர": 4554,
      "அமெரிக்காவில்": 4555,
      "மிகப்பெரிய": 4556,
      "இல்லாத": 4557,
      "அறிமுகப்படுத்த": 4558,
      "ர்தி": 4559,
      "ப்பட்டனர்": 4560,
      "இயல்": 4561,
      "பரிந்துரை": 4562,
      "கம்ப": 4563,
      "ஆவண": 4564,
      "நீள": 4565,
      "த்திரம்": 4566,
      "ஆயு": 4567,
      "பாக்கி": 4568,
      "க்குள்": 4569,
      "முது": 4570,
      "உசாத்துணை": 4571,
      "விவர": 4572,
      "எசு": 4573,
      "சிறி": 4574,
      "ின்றார்": 4575,
      "எண": 4576,
      "இடங்களில்": 4577,
      "கவிதை": 4578,
      "அடுத்து": 4579,
      "மேற்கொள்ள": 4580,
      "கொடுத்த": 4581,
      "ஆஸ்திரே": 4582,
      "கன்ன": 4583,
      "1990": 4584,
      "கிரேக்க": 4585,
      "ியலாளர்": 4586,
      "ஒருங்கி": 4587,
      "ரியில்": 4588,
      "கொண்டா": 4589,
      "பெரி": 4590,
      "தரி": 4591,
      "பயண": 4592,
      "புத்தக": 4593,
      "களுடன்": 4594,
      "வார்த்த": 4595,
      "நாம்": 4596,
      "முதலீ": 4597,
      "வந்தார்": 4598,
      "கடு": 4599,
      "ஆண்": 4600,
      "பேரா": 4601,
      "மாநிலத்தில்": 4602,
      "வாய்ந்த": 4603,
      "தேர்தல்": 4604,
      "கொண்டிருந்த": 4605,
      "அடிப்படை": 4606,
      "அதனால்": 4607,
      "அப்போது": 4608,
      "பனி": 4609,
      "ஏற்க": 4610,
      "மிருந்து": 4611,
      "இயந்திர": 4612,
      "கௌ": 4613,
      "சாதாரண": 4614,
      "ட்டும்": 4615,
      "ஒன்றிய": 4616,
      "வாகும்": 4617,
      "படம்": 4618,
      "சென்": 4619,
      "அட்ட": 4620,
      "ண்டர்": 4621,
      "தலைமைய": 4622,
      "ation": 4623,
      "திரா": 4624,
      "படைகள்": 4625,
      "சதுர": 4626,
      "பேசி": 4627,
      "திரை": 4628,
      "ஆங்கிலம்": 4629,
      "காட்டு": 4630,
      "வாச": 4631,
      "பெயரி": 4632,
      "ஒருங்கிணை": 4633,
      "டொ": 4634,
      "தங்கள": 4635,
      "முந்தைய": 4636,
      "ஜனவரி": 4637,
      "முன்னர்": 4638,
      "முதலிய": 4639,
      "விடம்": 4640,
      "ஒப்பந்தங்கள்": 4641,
      "ர்ச்சி": 4642,
      "கூறிய": 4643,
      "இருக்கின்றன": 4644,
      "நூற்றாண்டின்": 4645,
      "நாடுகள": 4646,
      "அச்சு": 4647,
      "இடையே": 4648,
      "அன்": 4649,
      "த்திற்கான": 4650,
      "ரம்பரிய": 4651,
      "சேர்ந்து": 4652,
      "வகி": 4653,
      "பலரும்": 4654,
      "எல்ல": 4655,
      "வார்கள்": 4656,
      "பத்": 4657,
      "கிள": 4658,
      "அச்ச": 4659,
      "உள": 4660,
      "வாங்க": 4661,
      "முரு": 4662,
      "ch": 4663,
      "1980": 4664,
      "பாரம்பரிய": 4665,
      "மாற்றி": 4666,
      "போதி": 4667,
      "பதவி": 4668,
      "மானி": 4669,
      "போராட்ட": 4670,
      "ரைக்": 4671,
      "யே": 4672,
      "மேன்": 4673,
      "க்கர்": 4674,
      "ட்டோ": 4675,
      "லகம்": 4676,
      "ஆண்டுகளுக்கு": 4677,
      "நிறுவனத்தின்": 4678,
      "த்தர": 4679,
      "குறிப்பு": 4680,
      "தெய்": 4681,
      "ம்ம": 4682,
      "தூதரகம்": 4683,
      "அத்துடன்": 4684,
      "அவரை": 4685,
      "st": 4686,
      "ஒன்றாக": 4687,
      "ொலி": 4688,
      "இந்தி": 4689,
      "ஆண்டுகளில்": 4690,
      "சூழ்": 4691,
      "கனடா": 4692,
      "தொழிற்": 4693,
      "ற்றை": 4694,
      "லைகள்": 4695,
      "நாட்கள்": 4696,
      "188": 4697,
      "நேரம்": 4698,
      "காண்க": 4699,
      "இருப": 4700,
      "ஆளு": 4701,
      "வதற்கான": 4702,
      "தொகுப்பு": 4703,
      "ப்படை": 4704,
      "த்தான": 4705,
      "பட்ச": 4706,
      "போக்குவரத்து": 4707,
      "சோவியத்": 4708,
      "ஸின்": 4709,
      "ெல்": 4710,
      "ப்பர": 4711,
      "வெவ்": 4712,
      "தனிய": 4713,
      "சிரியர்": 4714,
      "வைப்": 4715,
      "நாதன்": 4716,
      "உடை": 4717,
      "வதற்காக": 4718,
      "கேர": 4719,
      "ஏற்": 4720,
      "வேல": 4721,
      "குறைவான": 4722,
      "மூன்றாம்": 4723,
      "தன்னுடைய": 4724,
      "அதனை": 4725,
      "கிய": 4726,
      "வாதிகள்": 4727,
      "இருந்தன": 4728,
      "உருவாக்கிய": 4729,
      "ுகளைக்": 4730,
      "செலுத்த": 4731,
      "ங்களி": 4732,
      "எதிர்க": 4733,
      "ங்கை": 4734,
      "கணக்கெடு": 4735,
      "கொண்டிருக்கும்": 4736,
      "70": 4737,
      "்டர்": 4738,
      "ஆல்ப": 4739,
      "நாண": 4740,
      "தொலைவில்": 4741,
      "களி": 4742,
      "அரசின்": 4743,
      "பிரெஞ்சு": 4744,
      "வாசி": 4745,
      "வெளியீ": 4746,
      "ed": 4747,
      "சமு": 4748,
      "அமெரிக்காவின்": 4749,
      "உள்ளடக்கிய": 4750,
      "தட": 4751,
      "இலங்கையில்": 4752,
      "மகன": 4753,
      "ல்லிய": 4754,
      "தொடர்புடைய": 4755,
      "்டி": 4756,
      "குண": 4757,
      "மிகப்": 4758,
      "மூலக்கூ": 4759,
      "காணப்படுகின்றன": 4760,
      "கழக": 4761,
      "னல்": 4762,
      "பத்திரி": 4763,
      "உரை": 4764,
      "க்குறி": 4765,
      "திருமணம்": 4766,
      "ர்டு": 4767,
      "ஸ்தான்": 4768,
      "செயற்க": 4769,
      "காரணம்": 4770,
      "க்களில்": 4771,
      "னீ": 4772,
      "புகள்": 4773,
      "தலைநகர": 4774,
      "கொண்டார்": 4775,
      "கத": 4776,
      "உட்க": 4777,
      "ராஜ்": 4778,
      "நம்பிக்கை": 4779,
      "இல்ல": 4780,
      "சட்டம்": 4781,
      "வரா": 4782,
      "என்பன": 4783,
      "ையோ": 4784,
      "வெண்": 4785,
      "கோல்": 4786,
      "உயிரின": 4787,
      "அருகில்": 4788,
      "தாரம்": 4789,
      "ழ்க": 4790,
      "ஹை": 4791,
      "and": 4792,
      "விடும்": 4793,
      "ஸ்டர்": 4794,
      "லோக": 4795,
      "பேரூராட்சி": 4796,
      "அண்ட்": 4797,
      "உர": 4798,
      "கரை": 4799,
      "அடிப்படையாக": 4800,
      "வருகின்றன": 4801,
      "சராசரி": 4802,
      "நிலையை": 4803,
      "போட்டிகளிலும்": 4804,
      "நோயா": 4805,
      "இத்தாலிய": 4806,
      "இந்தத்": 4807,
      "சிறுக": 4808,
      "தமிழில்": 4809,
      "ad": 4810,
      "இராம": 4811,
      "நகராட்சி": 4812,
      "ாமல்": 4813,
      "தந்த": 4814,
      "un": 4815,
      "கலி": 4816,
      "பாடிய": 4817,
      "ப்புப்": 4818,
      "க்கொண்டு": 4819,
      "பின்வரு": 4820,
      "எனப்": 4821,
      "ட்டார்": 4822,
      "ந்தில்": 4823,
      "தண்ட": 4824,
      "முர": 4825,
      "சென்ன": 4826,
      "சமயம்": 4827,
      "பெரும": 4828,
      "தெற்க": 4829,
      "ஆயிர": 4830,
      "செயற்": 4831,
      "1999": 4832,
      "தனிப்பட்ட": 4833,
      "பிரே": 4834,
      "கிறித்த": 4835,
      "சுவாமி": 4836,
      "வூர்": 4837,
      "பிறந்தார்": 4838,
      "ஜூன்": 4839,
      "வர்த்தக": 4840,
      "தளம்": 4841,
      "ட்சியில்": 4842,
      "பயன்படுத்தப்படுகிறது": 4843,
      "போட்டிகளில்": 4844,
      "மாலை": 4845,
      "ுகளாக": 4846,
      "மென்": 4847,
      "அய": 4848,
      "வாக்கு": 4849,
      "லியம்": 4850,
      "திட்டம்": 4851,
      "அழைக்கப்படுகிறது": 4852,
      "உதவிய": 4853,
      "கட்டுப்படுத்த": 4854,
      "சால": 4855,
      "விட்டது": 4856,
      "தியை": 4857,
      "ராக்": 4858,
      "எண்ணிக்க": 4859,
      "ஆப்": 4860,
      "ent": 4861,
      "அர்": 4862,
      "இறுதியில்": 4863,
      "அவன்": 4864,
      "அந்": 4865,
      "றுகள்": 4866,
      "நுழை": 4867,
      "னாக": 4868,
      "கூறினார்": 4869,
      "பஞ்ச": 4870,
      "வீரர்": 4871,
      "வெளிப்படுத்த": 4872,
      "மிகுந்த": 4873,
      "நிகழ்ச்ச": 4874,
      "இயற்கை": 4875,
      "ணர்": 4876,
      "இசுலாமிய": 4877,
      "உதாரண": 4878,
      "குல": 4879,
      "கோண": 4880,
      "சிங்": 4881,
      "கொண்டிருக்க": 4882,
      "உட்பட": 4883,
      "வெவ்வேறு": 4884,
      "35": 4885,
      "வடை": 4886,
      "இன்னும்": 4887,
      "லாய": 4888,
      "ட்டுகள்": 4889,
      "பாடி": 4890,
      "போன்று": 4891,
      "II": 4892,
      "விலான": 4893,
      "மாய": 4894,
      "சபை": 4895,
      "நண்": 4896,
      "வாயு": 4897,
      "த்திற்கும்": 4898,
      "பல்கலைக்கழகம்": 4899,
      ".\"": 4900,
      "மங்க": 4901,
      "த்தன்மை": 4902,
      "அம்ச": 4903,
      "இச": 4904,
      "கட்டமை": 4905,
      "நான்கா": 4906,
      "மங்கள்": 4907,
      "ப்பூர்வ": 4908,
      "உருவாக்கப்பட்ட": 4909,
      "புற்று": 4910,
      "மூன்றாவது": 4911,
      "த்தன்": 4912,
      "நாளில்": 4913,
      "சத": 4914,
      "ப்படவில்லை": 4915,
      "முன்பு": 4916,
      "ஏழு": 4917,
      "அவர்களது": 4918,
      "வால": 4919,
      "31": 4920,
      "ச்சார": 4921,
      "கந்த": 4922,
      "முன்னேற்ற": 4923,
      "ெய்": 4924,
      "பிரிக்க": 4925,
      "உயர்ந்த": 4926,
      "தெரிய": 4927,
      "மொழிகள்": 4928,
      "வெளியிணைப்புகள்": 4929,
      "கண்டறிய": 4930,
      "காக": 4931,
      "அதன": 4932,
      "மேலாண்மை": 4933,
      "மின": 4934,
      "இன்றைய": 4935,
      "ந்துகொ": 4936,
      "1998": 4937,
      "ஆகியவற்றை": 4938,
      "செயலா": 4939,
      "விற்பனை": 4940,
      "%)": 4941,
      "ப்படுகிறார்": 4942,
      "ண்க": 4943,
      "த்துப்": 4944,
      "மேல": 4945,
      "ராம்": 4946,
      "முஸ்": 4947,
      "விருப்ப": 4948,
      "பாட்டில்": 4949,
      "அரசாங்க": 4950,
      "th": 4951,
      "ங்க்": 4952,
      "ந்தின்": 4953,
      "ரியின்": 4954,
      "காணப்படுகிறது": 4955,
      "சாத்திய": 4956,
      "கண்டறி": 4957,
      "சியம்": 4958,
      "இத்தகைய": 4959,
      "வீரர்கள்": 4960,
      "சகோதர": 4961,
      "ஏனெனில்": 4962,
      "ழல்": 4963,
      "ர்ஸ்": 4964,
      "நாத": 4965,
      "திரி": 4966,
      "களைத்": 4967,
      "கைப்பற்ற": 4968,
      "குறைவாக": 4969,
      "கடற்க": 4970,
      "நிறுத்த": 4971,
      "லாளர்கள்": 4972,
      "பாடல்கள": 4973,
      "பொறியியல்": 4974,
      "அணியின்": 4975,
      "முடியாது": 4976,
      "ியால்": 4977,
      "இதுவே": 4978,
      "நாட்டுப்": 4979,
      "பூர்வ": 4980,
      "ப்பான்": 4981,
      "பிள்": 4982,
      "பயோ": 4983,
      "கூறு": 4984,
      "பதிப்ப": 4985,
      "கருத்த": 4986,
      "186": 4987,
      "ப்பள்ளி": 4988,
      "ராகவும்": 4989,
      "எழுத்தாளர்கள்": 4990,
      "ரைப்": 4991,
      "வர்களுக்கு": 4992,
      "ஸ்கோ": 4993,
      "ஆனது": 4994,
      "செய்யப்பட்டது": 4995,
      "அழைக்கப்படும்": 4996,
      "விருதுகள்": 4997,
      "ஆசிரியர்": 4998,
      "சான்": 4999,
      "கொழும்": 5000,
      "ul": 5001,
      "பிளா": 5002,
      "மழை": 5003,
      "ரசி": 5004,
      "நகை": 5005,
      "உருவாக்கு": 5006,
      "ஒது": 5007,
      "தற்போ": 5008,
      "எடுத்துக்காட்டாக": 5009,
      "வாழ்ந்த": 5010,
      "பொருத்த": 5011,
      "ராய்": 5012,
      "புரோ": 5013,
      "சுற்ற": 5014,
      "தேவையான": 5015,
      "உரோ": 5016,
      "களுக்கும்": 5017,
      "சுற்றி": 5018,
      "விளம்பர": 5019,
      "பல்ல": 5020,
      "புதி": 5021,
      "இவருக்கு": 5022,
      "ஊடக": 5023,
      "என்றழை": 5024,
      "உப": 5025,
      "ஜூலை": 5026,
      "கிறிஸ்த": 5027,
      "பதவிய": 5028,
      "ிறாள்": 5029,
      "எக்ஸ்": 5030,
      "லைப்": 5031,
      "சுற்றுலா": 5032,
      "ஞ்": 5033,
      "நட்ச": 5034,
      "றான": 5035,
      "ஆணைய": 5036,
      "எது": 5037,
      "ியே": 5038,
      "அழக": 5039,
      "அமைப்புகள்": 5040,
      "தேர்தலில்": 5041,
      "பக்த": 5042,
      "தெலு": 5043,
      "வாய்ப்பு": 5044,
      "ன்கு": 5045,
      "இசையமைத்த": 5046,
      "187": 5047,
      "தென்னி": 5048,
      "கூடுதல": 5049,
      "நெட்": 5050,
      "விடுதலைப்": 5051,
      "மைகள்": 5052,
      "கடன்": 5053,
      "இரண்ட": 5054,
      "வர்களின்": 5055,
      "குறிக்க": 5056,
      "நெல்": 5057,
      "கணே": 5058,
      "ுகளையும்": 5059,
      "சுய": 5060,
      "சமான": 5061,
      "பங்களி": 5062,
      "விசை": 5063,
      "ஒத்த": 5064,
      "கவு": 5065,
      "ங்கொ": 5066,
      "தைக்": 5067,
      "டிக்": 5068,
      "ஞ்சல்": 5069,
      "id": 5070,
      "ஆசியா": 5071,
      "கற்க": 5072,
      "இதய": 5073,
      "ந்தன": 5074,
      "ானி": 5075,
      "ரங்க": 5076,
      "செயல்த": 5077,
      "செயல்பட": 5078,
      "ஆர்வ": 5079,
      "\",": 5080,
      "வலிய": 5081,
      "த்தளம்": 5082,
      "நிறைவே": 5083,
      "45": 5084,
      "மூர்த்தி": 5085,
      "ஆகஸ்ட்": 5086,
      "ப்பாட்டு": 5087,
      "க்கப்பட்டுள்ளன": 5088,
      "வுக்": 5089,
      "பண்டைய": 5090,
      "காந்தி": 5091,
      "1996": 5092,
      "அக்": 5093,
      "களா": 5094,
      "உதவ": 5095,
      "ுகின்ற": 5096,
      "விக்க": 5097,
      "செய்தது": 5098,
      "விகித": 5099,
      "லத்தில்": 5100,
      "போரில்": 5101,
      "கிளை": 5102,
      "லிக்க": 5103,
      "பகுதியாக": 5104,
      "பட்டது": 5105,
      "மீட்ட": 5106,
      "யார்க்": 5107,
      "பௌத்த": 5108,
      "ஆள": 5109,
      "ப்ள": 5110,
      "முன்ப": 5111,
      "அதிகம்": 5112,
      "ருக்கும்": 5113,
      "வானூ": 5114,
      "ட்ரோ": 5115,
      "நாடுகளின்": 5116,
      "மீதான": 5117,
      "அரசியல்வாதி": 5118,
      "எகி": 5119,
      "பறவை": 5120,
      "நெடுஞ்சா": 5121,
      "அடங்கும்": 5122,
      "அழுத்த": 5123,
      "காற்று": 5124,
      "ஆகியவற்றின்": 5125,
      "90": 5126,
      "ர்கா": 5127,
      "வலைய": 5128,
      "வடிவம்": 5129,
      "செல்க": 5130,
      "ஆசிய": 5131,
      "லின": 5132,
      "ப்படாத": 5133,
      "எச்": 5134,
      "்துறை": 5135,
      "ஆப": 5136,
      "இதே": 5137,
      "வசதி": 5138,
      "இல்லாமல்": 5139,
      "நெரு": 5140,
      "வேதி": 5141,
      "நடிகர்கள்": 5142,
      "ஒப்பு": 5143,
      "வீட": 5144,
      "1970": 5145,
      "பரப்பு": 5146,
      "மென்பொருள்": 5147,
      "ஜெர்மானிய": 5148,
      "ஹ்": 5149,
      "மாதிரி": 5150,
      "காண்": 5151,
      "கோட்ட": 5152,
      "நோபல்": 5153,
      "கண்": 5154,
      "வனி": 5155,
      "ஒருநாள்": 5156,
      "ியாவின்": 5157,
      "த்தொகு": 5158,
      "ரிமை": 5159,
      "சுந்தர": 5160,
      "திசை": 5161,
      "றுத்த": 5162,
      "ரியம்": 5163,
      "கோயில்கள்": 5164,
      "தற்போதைய": 5165,
      "கோள": 5166,
      "தொடங்கியது": 5167,
      "முடியாத": 5168,
      "um": 5169,
      "இண": 5170,
      "மற": 5171,
      "வரால்": 5172,
      "ங்களுடன்": 5173,
      "தத்துவ": 5174,
      "ண்டன்": 5175,
      "பட்டம்": 5176,
      "ட்டுக்": 5177,
      "எகிப்த": 5178,
      "கின்றன": 5179,
      "வரான": 5180,
      "பயணம்": 5181,
      "கடைசி": 5182,
      "ிழ": 5183,
      "கல்வெ": 5184,
      "ட்டல்": 5185,
      "க்கண": 5186,
      "வீத": 5187,
      "சனம்": 5188,
      "ia": 5189,
      "த்தியில்": 5190,
      "பாரி": 5191,
      "அனுப": 5192,
      "விஸ்": 5193,
      "நடித்தார்": 5194,
      "நினைவு": 5195,
      "வீட்டு": 5196,
      "மக்க": 5197,
      "சிதை": 5198,
      "கிட்ட": 5199,
      "திராவிட": 5200,
      "இந்தியப்": 5201,
      "185": 5202,
      "தேவி": 5203,
      "அரை": 5204,
      "மண்": 5205,
      "சப": 5206,
      "சக்கர": 5207,
      "டூ": 5208,
      "விளைவாக": 5209,
      "அவர": 5210,
      "க்கரு": 5211,
      "ிலிருந்த": 5212,
      "ிலை": 5213,
      "தீவு": 5214,
      "ாது": 5215,
      "உலகில்": 5216,
      "படிய": 5217,
      "ெடுத்த": 5218,
      "கீழே": 5219,
      "தலைவராக": 5220,
      "32": 5221,
      "சிங்கள": 5222,
      "என்றால்": 5223,
      "1960": 5224,
      "புரட்சி": 5225,
      "ப்பதற்காக": 5226,
      "வெளியிடப்பட்டது": 5227,
      "ஃபோ": 5228,
      "ir": 5229,
      "இவரின்": 5230,
      "நடைமுறை": 5231,
      "அலெ": 5232,
      "எதிர்ப்பு": 5233,
      "கற்ப": 5234,
      "த்திற்காக": 5235,
      "எலும்": 5236,
      "பெல்": 5237,
      "கடந்த": 5238,
      "விஜய": 5239,
      "இராச்சிய": 5240,
      "பந்து": 5241,
      "வாகன": 5242,
      "பதிலாக": 5243,
      "அனுப்ப": 5244,
      "மரி": 5245,
      "ுகை": 5246,
      "ஞ்சிய": 5247,
      "இறந்த": 5248,
      "1997": 5249,
      "பஞ்சா": 5250,
      "பிக்": 5251,
      "மாறிய": 5252,
      "தம்ப": 5253,
      "பெப்ரவரி": 5254,
      "வேண்டு": 5255,
      "...": 5256,
      "தற்கால": 5257,
      "எட்டு": 5258,
      "னாலும்": 5259,
      "திட்டமி": 5260,
      "த்திலேயே": 5261,
      "ஒளிய": 5262,
      "ஆக்க": 5263,
      "வீதம்": 5264,
      "iv": 5265,
      "வதால்": 5266,
      "மினி": 5267,
      "இருந்தாலும்": 5268,
      "த்தாழ": 5269,
      "ag": 5270,
      "ஏனைய": 5271,
      "ஊர்": 5272,
      "பாட்டை": 5273,
      "களுக்கான": 5274,
      "உயிரிழ": 5275,
      "டிகள்": 5276,
      "மரபண": 5277,
      "os": 5278,
      "பெண்ண": 5279,
      "மேம்": 5280,
      "நாணய": 5281,
      "திர்": 5282,
      "பேரரசு": 5283,
      "கேள்": 5284,
      "புகை": 5285,
      "em": 5286,
      "அறிவிய": 5287,
      "நூல்கள": 5288,
      "காதல்": 5289,
      "கலைஞர்": 5290,
      "வள்ள": 5291,
      "மிழ்": 5292,
      "சேமி": 5293,
      "கிடைக்க": 5294,
      "ஸில்": 5295,
      "நேச": 5296,
      "கற்ற": 5297,
      "ப்பட்டுள்ளன": 5298,
      "கண்கா": 5299,
      "இலங்கைத்": 5300,
      "மனைவி": 5301,
      "பசு": 5302,
      "க்குச்": 5303,
      "ஆதாரங்கள்": 5304,
      "ஹொ": 5305,
      "இப்பட": 5306,
      "ரிட": 5307,
      "மரண": 5308,
      "ன்னிய": 5309,
      "உலகம்": 5310,
      "சிறுகதை": 5311,
      "பாளைய": 5312,
      "க்கீ": 5313,
      "கருது": 5314,
      "கணக்கெடுப்பின்": 5315,
      "வேதியியல்": 5316,
      "குமா": 5317,
      "டியில்": 5318,
      "ப்பிரி": 5319,
      "சனவரி": 5320,
      "ஆழ": 5321,
      "்தான்": 5322,
      "லிங்க": 5323,
      "சூன்": 5324,
      "முறையை": 5325,
      "நைட்": 5326,
      "லைக்": 5327,
      "ஏறத்தாழ": 5328,
      "ப்பிடி": 5329,
      "ங்களால்": 5330,
      "மருந்து": 5331,
      "பாகி": 5332,
      "ப்பொருள்": 5333,
      "வசி": 5334,
      "வேல்": 5335,
      "வைக்க": 5336,
      "திருச்ச": 5337,
      "பயன்பாடு": 5338,
      "வெற்றிய": 5339,
      "கூடுதல்": 5340,
      "தரும்": 5341,
      "ாய்": 5342,
      "்டன்": 5343,
      "சிவன்": 5344,
      "பேச்சு": 5345,
      "உயிரணு": 5346,
      "அங்கீ": 5347,
      "1995": 5348,
      "த்தினால்": 5349,
      "ர்களாக": 5350,
      "பகி": 5351,
      "பவர்": 5352,
      "மிழ": 5353,
      "கொடுக்க": 5354,
      "முன்னோ": 5355,
      "36": 5356,
      "நடத்திய": 5357,
      "1994": 5358,
      "த்திரை": 5359,
      "திரும்ப": 5360,
      "விஷ": 5361,
      "தோல்விய": 5362,
      "வதில்": 5363,
      "வானொலி": 5364,
      "வுக": 5365,
      "பயன்படுத்தப்படும்": 5366,
      "சிந்த": 5367,
      "வயதில்": 5368,
      "வெப்பநிலை": 5369,
      "அவற்றை": 5370,
      "வானூர்தி": 5371,
      "நுக": 5372,
      "அறிகுறி": 5373,
      "வழங்கும்": 5374,
      "க்காலத்தில்": 5375,
      "கோட்டை": 5376,
      "கிடைக்கும்": 5377,
      "பூங்கா": 5378,
      "இராகம்": 5379,
      "கழகம்": 5380,
      "னைப்": 5381,
      "புவியியல்": 5382,
      "ct": 5383,
      "ிறு": 5384,
      "1991": 5385,
      "நோயாளி": 5386,
      "In": 5387,
      "ொள்ள": 5388,
      "ிலி": 5389,
      "சிற்ற": 5390,
      "வேளா": 5391,
      "க்குரிய": 5392,
      "ப்பாள": 5393,
      "லூர்": 5394,
      "திருமண": 5395,
      "யிற்று": 5396,
      "ராஜன்": 5397,
      "வுகளின்": 5398,
      "ோம்": 5399,
      "ர்த்தா": 5400,
      "39": 5401,
      "கடற்ப": 5402,
      "1989": 5403,
      "பின்வருமாறு": 5404,
      "ஸ்கா": 5405,
      "சுத்த": 5406,
      "வர்களில்": 5407,
      "காட்டிலும்": 5408,
      "லமை": 5409,
      "நியமி": 5410,
      "பென்": 5411,
      "ந்திரன்": 5412,
      "ஆத்திர": 5413,
      "விலிருந்து": 5414,
      "முஸ்லி": 5415,
      "படு": 5416,
      "கடின": 5417,
      "அட்": 5418,
      "பகுப்பா": 5419,
      "மைக்ரோ": 5420,
      "ஒட்டு": 5421,
      "தூர": 5422,
      "1984": 5423,
      "ரச": 5424,
      "ப்பம்": 5425,
      "சூலை": 5426,
      "புகழ்பெற்ற": 5427,
      "ட்சுமி": 5428,
      "புள": 5429,
      "மானம்": 5430,
      "வேளை": 5431,
      "பிரச்சினை": 5432,
      "ay": 5433,
      "ஹே": 5434,
      "இயக்கம்": 5435,
      "இருந்தால்": 5436,
      "குள்": 5437,
      "ச்சூ": 5438,
      "சிலா": 5439,
      "இருப்பது": 5440,
      "உலோக": 5441,
      "வாழ்க": 5442,
      "ிருக்கிறார்": 5443,
      "மேற்கொண்ட": 5444,
      "சரியான": 5445,
      "மாள்": 5446,
      "குழந்தைகள்": 5447,
      "னது": 5448,
      "ஸ்தான": 5449,
      "தன்னை": 5450,
      "செயற்கை": 5451,
      ".,": 5452,
      "த்தூர்": 5453,
      "ிலே": 5454,
      "நேரடியாக": 5455,
      "அரசியல்வாதிகள்": 5456,
      "பவு": 5457,
      "ழிய": 5458,
      "க்களும்": 5459,
      "கணக்கி": 5460,
      "ற்பு": 5461,
      "வழங்கப்பட்டது": 5462,
      "அதிகாரப்பூர்வ": 5463,
      "ரிடம்": 5464,
      "இரும்": 5465,
      "ென": 5466,
      "ருந்த": 5467,
      "கூகுள்": 5468,
      "பர்ட்": 5469,
      "தோன்றிய": 5470,
      "விகிதம்": 5471,
      "மாநிலத்தின்": 5472,
      "கொண்டுள்ளார்": 5473,
      "கண்டி": 5474,
      "அசோ": 5475,
      "சேர்த்து": 5476,
      "பிணை": 5477,
      "போலவே": 5478,
      "38": 5479,
      "மரா": 5480,
      "ுகளைப்": 5481,
      "ஸ்டீ": 5482,
      "சமன்": 5483,
      "மரபணு": 5484,
      "ையைச்": 5485,
      "ிற்கான": 5486,
      "ையு": 5487,
      "விலக": 5488,
      "புரிந்து": 5489,
      "படத்தில்": 5490,
      "பயன்படும்": 5491,
      "க்சா": 5492,
      "வேட்": 5493,
      "தயாரிக்க": 5494,
      "குடியேற்ற": 5495,
      "தோற்றம்": 5496,
      "பாறை": 5497,
      "ப்புத்": 5498,
      "வீச்ச": 5499,
      "சிலர்": 5500,
      "சரியாக": 5501,
      "ங்கில்": 5502,
      "நெருக்க": 5503,
      "ையைத்": 5504,
      "ஆக்சி": 5505,
      "நிகழ்த்த": 5506,
      "மக்கள்தொகை": 5507,
      "அணை": 5508,
      "மக": 5509,
      "ோன்": 5510,
      "சைவ": 5511,
      "ter": 5512,
      "சாம்ப": 5513,
      "ட்டன்": 5514,
      "ிருந்தன": 5515,
      "500": 5516,
      "மதிப்ப": 5517,
      "நேரங்களில்": 5518,
      "ph": 5519,
      "வதில்லை": 5520,
      "ட்சியை": 5521,
      "இயல்ப": 5522,
      "முன்னணி": 5523,
      "48": 5524,
      "கத்தோ": 5525,
      "ானா": 5526,
      "குமார்": 5527,
      "சிறப்பாக": 5528,
      "இசைக்குழு": 5529,
      "இக்": 5530,
      "லியல்": 5531,
      "ிருக்கலாம்": 5532,
      "என்பதால்": 5533,
      "பெருங்க": 5534,
      "ஆஸ்திரேலியா": 5535,
      "மஞ்ச": 5536,
      "அடிப்படைய": 5537,
      "்டு": 5538,
      "காலகட்ட": 5539,
      "தொடங்கி": 5540,
      "ப்பய": 5541,
      "மேள": 5542,
      "ப்புகளில்": 5543,
      "பாக்": 5544,
      "பரவலாக": 5545,
      "37": 5546,
      "திரைப்படத்தில்": 5547,
      "1992": 5548,
      "அண்ணா": 5549,
      "மலா": 5550,
      "த்தட்ட": 5551,
      "மேம்படுத்த": 5552,
      "சிவா": 5553,
      "டாது": 5554,
      "இறப்பு": 5555,
      "செயல்திற": 5556,
      "க்கல": 5557,
      "காத": 5558,
      "அடு": 5559,
      "இக்கோ": 5560,
      "பாத": 5561,
      "ியாள": 5562,
      "உருவ": 5563,
      "ஏற்பட்டது": 5564,
      "வைச்": 5565,
      "உள்ளூர்": 5566,
      "அமைந்தது": 5567,
      "பயன்படுத்தும்": 5568,
      "கட்டுப்பாட்ட": 5569,
      "பன்னாட்டுத்": 5570,
      "வெள்ளி": 5571,
      "தமிழா": 5572,
      "தயாரிப்பு": 5573,
      "ற்பி": 5574,
      "அடங்கிய": 5575,
      "ம்பே": 5576,
      "பலர்": 5577,
      "பாதை": 5578,
      "புள்ள": 5579,
      "கொண்டுள்ளன": 5580,
      "கொழு": 5581,
      "இச்ச": 5582,
      "தண்ண": 5583,
      "எஃப்": 5584,
      "குளோ": 5585,
      "இப்போது": 5586,
      "ப்படலாம்": 5587,
      "க்கடி": 5588,
      "நட்சத்திர": 5589,
      "்களைக்": 5590,
      "உருவாக்கப்பட்டது": 5591,
      "ல்ட்": 5592,
      "அனைத்தும்": 5593,
      "காரம்": 5594,
      "ப்பொருள": 5595,
      "சமுதாய": 5596,
      "இளம்": 5597,
      "திருச்சி": 5598,
      "இளைய": 5599,
      "ர்த்": 5600,
      "ினம்": 5601,
      "நார்": 5602,
      "நிலையான": 5603,
      "அழு": 5604,
      "2016": 5605,
      "ஒன்றை": 5606,
      "மையும்": 5607,
      "முன": 5608,
      "வட்டம்": 5609,
      "துவக்க": 5610,
      "வேர்": 5611,
      "ஜிய": 5612,
      "அன்ற": 5613,
      "வாதம்": 5614,
      "க்கலாம்": 5615,
      "1977": 5616,
      "அருங்கா": 5617,
      "தகு": 5618,
      "பார்வை": 5619,
      "மிக்": 5620,
      "ட்கள்": 5621,
      "இவற்றில்": 5622,
      "வரையறை": 5623,
      "ஒன்ப": 5624,
      "அமைதி": 5625,
      "மாகிய": 5626,
      "ரீதியாக": 5627,
      "ig": 5628,
      "ர்க்கு": 5629,
      "சிக்": 5630,
      "குவா": 5631,
      "உபயோ": 5632,
      "டின்": 5633,
      "ுக்கி": 5634,
      "பின்பு": 5635,
      "2014": 5636,
      "தைப்": 5637,
      "நீல": 5638,
      "உத்தர": 5639,
      "பயணி": 5640,
      "மாகப்": 5641,
      "கிறித்தவ": 5642,
      "தெலுங்கு": 5643,
      "போதிலும்": 5644,
      "ற்பகு": 5645,
      "நடன": 5646,
      "தொடங்கினார்": 5647,
      "ஆகியன": 5648,
      "அக்க": 5649,
      "அருங்காட்சிய": 5650,
      "வித்தியா": 5651,
      "நாட்கா": 5652,
      "கொல்லப்பட்டனர்": 5653,
      "விண்வெளி": 5654,
      "ுகிறார்கள்": 5655,
      "விளக்கம்": 5656,
      "பொறி": 5657,
      "வடிவமைப்பு": 5658,
      "விட்டார்": 5659,
      "றையில்": 5660,
      "அறிக்கை": 5661,
      "தானிய": 5662,
      "1வது": 5663,
      "நிதிய": 5664,
      "பழங்கு": 5665,
      "தோற்க": 5666,
      "பயன்படுத்துவ": 5667,
      "குருதி": 5668,
      "தனியார்": 5669,
      "அலக": 5670,
      "குடா": 5671,
      "காற்ற": 5672,
      "மக்களவைத்": 5673,
      "இருவரும்": 5674,
      "மலையாள": 5675,
      "துடுப்பாட்டக்காரர்": 5676,
      "ெட்": 5677,
      "காவல": 5678,
      "உண்மை": 5679,
      "சய": 5680,
      "சிம்": 5681,
      "அடையாளம்": 5682,
      "ஆதரவு": 5683,
      "இவ்வா": 5684,
      "ut": 5685,
      "ையால்": 5686,
      "ரியோ": 5687,
      "னைக்": 5688,
      "வளர்ச்சிய": 5689,
      "அடிப்படையாகக்": 5690,
      "தென்க": 5691,
      "og": 5692,
      "தெரு": 5693,
      "தெய்வ": 5694,
      "கிட்டத்தட்ட": 5695,
      "ஐந்தா": 5696,
      "கண்ணா": 5697,
      "சல": 5698,
      "புலவர்": 5699,
      "ஈடுபட்ட": 5700,
      "75": 5701,
      "ஆகியவற்றில்": 5702,
      "தாக்குதல்": 5703,
      "முக்கியத்துவம்": 5704,
      "கொள்ளும்": 5705,
      "நாயக": 5706,
      "வரலாற்றில்": 5707,
      "செயல்படுத்த": 5708,
      "திரும்பி": 5709,
      "போர்த்த": 5710,
      "ட்பட்ட": 5711,
      "அண்ட": 5712,
      "மகள்": 5713,
      "உறவு": 5714,
      "வண்டி": 5715,
      "பிப்ரவரி": 5716,
      "கொலை": 5717,
      "od": 5718,
      "பிரபலமான": 5719,
      "ர்களையும்": 5720,
      "அன": 5721,
      "முனி": 5722,
      "ரியும்": 5723,
      "ுயி": 5724,
      "தழு": 5725,
      "ஆய்வா": 5726,
      "அவர்களுக்கு": 5727,
      "ஏற்றுக்கொள்ள": 5728,
      "ப்படுத்து": 5729,
      "நிலைப்": 5730,
      "2012": 5731,
      "உடன": 5732,
      "மன்னர்": 5733,
      "புவி": 5734,
      "ிடம்": 5735,
      "சேர்த்த": 5736,
      "வற்றை": 5737,
      "கலாச்சார": 5738,
      "கொல": 5739,
      "பாடுகளை": 5740,
      "வெள்ளை": 5741,
      "புராண": 5742,
      "வையில்": 5743,
      "ர்கு": 5744,
      "செவ்": 5745,
      "1993": 5746,
      "உண்மையான": 5747,
      "சமா": 5748,
      "விகள்": 5749,
      "நீளம்": 5750,
      "ஈழத்து": 5751,
      "34": 5752,
      "க்கவும்": 5753,
      "கடவுள்": 5754,
      "மாற்றிய": 5755,
      "பிரதான": 5756,
      "போட்டிகள்": 5757,
      "இளவர": 5758,
      "ஓர": 5759,
      "புனை": 5760,
      "என்றாலும்": 5761,
      "வீடியோ": 5762,
      "பராம": 5763,
      "ra": 5764,
      "சுவர": 5765,
      "1987": 5766,
      "யூத": 5767,
      "குறிப்பிடத்தக்கது": 5768,
      "வழங்கு": 5769,
      "இலக்கியம்": 5770,
      "ொன்ற": 5771,
      "க்கூடும்": 5772,
      "பியா": 5773,
      "க்கப்படுகின்றன": 5774,
      "மையின்": 5775,
      "த்தினை": 5776,
      "குண்டு": 5777,
      "வேலி": 5778,
      "இயங்க": 5779,
      "ஆய்வுகள்": 5780,
      "கவனி": 5781,
      "மையா": 5782,
      "வழக்கு": 5783,
      "நகரின்": 5784,
      "சப்": 5785,
      "க்கின்": 5786,
      "டினார்": 5787,
      "வேறுபட்ட": 5788,
      "கட்டுரைகள்": 5789,
      "தமிழ்ப்": 5790,
      "செல்வ": 5791,
      "ின்று": 5792,
      "விழி": 5793,
      "தேர்": 5794,
      "சோதி": 5795,
      "எழுதப்பட்ட": 5796,
      "ஆட": 5797,
      "நச்சு": 5798,
      "யூனி": 5799,
      "இப்": 5800,
      "பாலி": 5801,
      "வீடு": 5802,
      "நன்கு": 5803,
      "தொடருந்து": 5804,
      "மாறாக": 5805,
      "உண்மையில்": 5806,
      "கனி": 5807,
      "இரட்டை": 5808,
      "ல்கா": 5809,
      "பின்வரும்": 5810,
      "ணன்": 5811,
      "தொன்": 5812,
      "யார்": 5813,
      "விக்கி": 5814,
      "வங்காளதேச": 5815,
      "பிசி": 5816,
      "ஸ்டி": 5817,
      "தாக்குத": 5818,
      "im": 5819,
      "ுகையில்": 5820,
      "வாங்கி": 5821,
      "விக்": 5822,
      "தாம": 5823,
      "கிளா": 5824,
      "இடது": 5825,
      "த்தீன்": 5826,
      "33": 5827,
      "ணியில்": 5828,
      "டுதல்": 5829,
      "ஜன்": 5830,
      "ப்பாளர்கள்": 5831,
      "1981": 5832,
      "சுருக்க": 5833,
      "ட்டிக்": 5834,
      "காங்கிரஸ்": 5835,
      "கோவில": 5836,
      "பாட்டின்": 5837,
      "தீர்மானி": 5838,
      "வளர்ந்த": 5839,
      "அங்கே": 5840,
      "தக்க": 5841,
      "வாடிக்க": 5842,
      "ுள்ளனர்": 5843,
      "இணைப்பு": 5844,
      "1979": 5845,
      "சண்ட": 5846,
      "இவருடைய": 5847,
      "அதிகரிக்க": 5848,
      "வெளியிடப்பட்ட": 5849,
      "பணியாற்றினார்": 5850,
      "எவ்வாறு": 5851,
      "ர்ட்ட": 5852,
      "ஸ்கி": 5853,
      "ுகொண்ட": 5854,
      "எடுத்துக்": 5855,
      "கேரள": 5856,
      "ஒழுங்கு": 5857,
      "ot": 5858,
      "வெளியேற்ற": 5859,
      "டத்தில்": 5860,
      "மரியா": 5861,
      "நாராய": 5862,
      "உள்ளார்": 5863,
      "ுக்குக்": 5864,
      "குடும்பம்": 5865,
      "ந்தும்": 5866,
      "துறைமுக": 5867,
      "விவரி": 5868,
      "ன்படி": 5869,
      "வெளியீடு": 5870,
      "கையாள": 5871,
      "ரைத்": 5872,
      "மாதிரிய": 5873,
      "அரிய": 5874,
      "வரிசையில்": 5875,
      "காணலாம்": 5876,
      "டென்": 5877,
      "ஆகத்து": 5878,
      "மொத்தம்": 5879,
      "1950": 5880,
      "கருவிகள்": 5881,
      "சட": 5882,
      "பயன்படுகிறது": 5883,
      "கணக்கெடுப்பின்படி": 5884,
      "ரையில்": 5885,
      "ராள": 5886,
      "பில்லியன்": 5887,
      "ஆத்திரே": 5888,
      "அவு": 5889,
      "அட்டை": 5890,
      "நாட்டை": 5891,
      "முடைய": 5892,
      "பண்ப": 5893,
      "ஃபெ": 5894,
      "ஆலோ": 5895,
      "பாத்": 5896,
      "த்தவர்": 5897,
      "முதலாக": 5898,
      "இல்லா": 5899,
      "ங்களைத்": 5900,
      "ஷ்ட": 5901,
      "வேத": 5902,
      "மாவட்டத்தின்": 5903,
      "சம்பந்த": 5904,
      "ரஸ்": 5905,
      "ய்ய": 5906,
      "மொழிபெயர்": 5907,
      "வாரிய": 5908,
      "வரையில்": 5909,
      "தற்கா": 5910,
      "திருக்கோ": 5911,
      "இதர": 5912,
      "்சை": 5913,
      "சாதனை": 5914,
      "அரங்க": 5915,
      "தீவுகள்": 5916,
      "ப்பெற்ற": 5917,
      "விண்டோ": 5918,
      "கொண்டிருந்தது": 5919,
      "சீர": 5920,
      "குட": 5921,
      "தோற்று": 5922,
      "முழுமையான": 5923,
      "நியூயார்க்": 5924,
      "விமர்சன": 5925,
      "சுல்த": 5926,
      "உருவாக்கும்": 5927,
      "99": 5928,
      "சண்டை": 5929,
      "வகைப்படுத்த": 5930,
      "ர்களைக்": 5931,
      ".)": 5932,
      "விட்": 5933,
      "சுந்த": 5934,
      "மனோ": 5935,
      "ப்படுத்துவ": 5936,
      "மருத்து": 5937,
      "உறுப்பு": 5938,
      "உயிரிழந்தனர்": 5939,
      "நுண்": 5940,
      "அகா": 5941,
      "அமையும்": 5942,
      "நகைச்சு": 5943,
      "வழங்கி": 5944,
      "காம்": 5945,
      "அளவிலான": 5946,
      "பிட்": 5947,
      "வருக்கு": 5948,
      "ஸ்டே": 5949,
      "ார": 5950,
      "இப்பே": 5951,
      "செய்யப்படும்": 5952,
      "2013": 5953,
      "கத்தோலிக்க": 5954,
      "இனி": 5955,
      "மக்களுக்கு": 5956,
      "நடித்துள்ளனர்": 5957,
      "சௌ": 5958,
      "்டீ": 5959,
      "மாய்": 5960,
      "இந்தோ": 5961,
      "சிறை": 5962,
      "நம்": 5963,
      "மூழ்க": 5964,
      "1971": 5965,
      "கொழும்பு": 5966,
      "மித": 5967,
      "தென்னா": 5968,
      "பயன்படுத்தப்படுகின்றன": 5969,
      "அணுக": 5970,
      "வழக்கமாக": 5971,
      "விப": 5972,
      "வெல்": 5973,
      "சேகரி": 5974,
      "1986": 5975,
      "1978": 5976,
      "உறுப்பினர்": 5977,
      "இயற்பியல்": 5978,
      "மார்க": 5979,
      "கட்டமைப்பு": 5980,
      "இயங்கு": 5981,
      "சொத்து": 5982,
      "விளையாட்ட": 5983,
      "தமிழ்நாட்டில்": 5984,
      "ாகவே": 5985,
      "ங்களுக்கும்": 5986,
      "உருசிய": 5987,
      "படையெடு": 5988,
      "47": 5989,
      "ப்பணி": 5990,
      "அமைப்பின்": 5991,
      "க்கோட்டை": 5992,
      "ரவி": 5993,
      "ென்": 5994,
      "அணிக்கு": 5995,
      "கண்காணி": 5996,
      "நூலில்": 5997,
      "கல்லூரியில்": 5998,
      "களான": 5999,
      "்களையும்": 6000,
      "உறுப்பினராக": 6001,
      "பேரரசின்": 6002,
      "ச்செய": 6003,
      "வில்லியம்": 6004,
      "தோற்கடி": 6005,
      "வராகவும்": 6006,
      "இருந்தனர்": 6007,
      "மலர்": 6008,
      "அபி": 6009,
      "கப்பல்": 6010,
      "நபர்": 6011,
      "சிற்ப": 6012,
      "ப்பால்": 6013,
      "ஆரம்பத்தில்": 6014,
      "பெரிதும்": 6015,
      "வழியில்": 6016,
      "நூலக": 6017,
      "கேட்க": 6018,
      "கட்சியின்": 6019,
      "ப்பிற்கு": 6020,
      "செருமானிய": 6021,
      "சுப்பிர": 6022,
      "த்தொடர்": 6023,
      "கவிஞர்": 6024,
      "க்கட்ட": 6025,
      "பூம": 6026,
      "மருத்துவம்": 6027,
      "ஜர்": 6028,
      "ங்கல்": 6029,
      "ணிய": 6030,
      "கால்ப": 6031,
      "அலுவலக": 6032,
      "எட்": 6033,
      "மண்ண": 6034,
      "வதன்": 6035,
      "பொருட்களை": 6036,
      "டில்": 6037,
      "ுகா": 6038,
      "படுகொ": 6039,
      "நடைபெற": 6040,
      "பார்வைய": 6041,
      "போரின்": 6042,
      "க்ட": 6043,
      "ந்த்": 6044,
      "புதின": 6045,
      "முயற்சிய": 6046,
      "ரஷ்": 6047,
      "த்துள்ளது": 6048,
      "ரோடு": 6049,
      "க்சி": 6050,
      "களைச்": 6051,
      "திறந்த": 6052,
      "ர்களிடம்": 6053,
      "ஒற்றை": 6054,
      "செய்தல்": 6055,
      "ப்பெயர்": 6056,
      "வார்த்தை": 6057,
      "முழுமையாக": 6058,
      "இவற்றின்": 6059,
      "முறையே": 6060,
      "தொடங்கிய": 6061,
      "ஆலய": 6062,
      "பின்பற்ற": 6063,
      "நேரடி": 6064,
      "லட்சுமி": 6065,
      "அடிக்கடி": 6066,
      "எழுதினார்": 6067,
      "என்கிற": 6068,
      "சமீ": 6069,
      "தனித்த": 6070,
      "பது": 6071,
      "அந்தப்": 6072,
      "டிவி": 6073,
      "அணிய": 6074,
      "அமைந்துள்ளன": 6075,
      "வெற்றிகர": 6076,
      "பிரதமர்": 6077,
      "49": 6078,
      "விண்ண": 6079,
      "ப்பன்": 6080,
      "மன்னன்": 6081,
      "கட்டிடக்கலை": 6082,
      "ஜன்னிய": 6083,
      "அவள்": 6084,
      "சேர": 6085,
      "நியோ": 6086,
      "அப்போ": 6087,
      "சுழற்சி": 6088,
      "குறுக": 6089,
      "சிறுவ": 6090,
      "1972": 6091,
      "வினர்": 6092,
      "குரல்": 6093,
      "1940": 6094,
      "மாதத்தில்": 6095,
      "எச்ச": 6096,
      "மகி": 6097,
      "பாளையம்": 6098,
      "டுவது": 6099,
      "வியின்": 6100,
      "கொண்டுள்ள": 6101,
      "கலைஞ": 6102,
      "மியா": 6103,
      "்க்கு": 6104,
      "ட்ரி": 6105,
      "சாதி": 6106,
      "காலப்": 6107,
      "நடைபெறும்": 6108,
      "கொண்டாட": 6109,
      "வாயில": 6110,
      "ஸ்டு": 6111,
      "கடவுள": 6112,
      "ஹொங்கொ": 6113,
      "பொருளிய": 6114,
      "ழ்ந்த": 6115,
      "ட்டிகள்": 6116,
      "சும்": 6117,
      "தியும்": 6118,
      "டால": 6119,
      "தனிம": 6120,
      "அமைக்கப்பட்ட": 6121,
      "அரண்": 6122,
      "வருடம்": 6123,
      "திரவ": 6124,
      "விரும்ப": 6125,
      "க்கக்": 6126,
      "வழங்கிய": 6127,
      "அவற்றில்": 6128,
      "அமைய": 6129,
      "சக": 6130,
      "ல்லை": 6131,
      "1975": 6132,
      "ப்பெய": 6133,
      "உலகளா": 6134,
      "டமிருந்து": 6135,
      "180": 6136,
      "1974": 6137,
      "ஊராட்சி": 6138,
      "ையைக்": 6139,
      "குரோ": 6140,
      "வரவே": 6141,
      "உயிரியல்": 6142,
      "ற்றல்": 6143,
      "தலைமையில்": 6144,
      "ரிக்கை": 6145,
      "மானார்": 6146,
      "காரணி": 6147,
      "வெளியில்": 6148,
      "உலகளாவிய": 6149,
      "மார்க்": 6150,
      "சங்கம்": 6151,
      "தென்னிந்திய": 6152,
      "க்கிறார்": 6153,
      "அத்த": 6154,
      "லிங்கம்": 6155,
      "ராகப்": 6156,
      "உணர்": 6157,
      "இதழ்": 6158,
      "செய்கிறது": 6159,
      "ஸா": 6160,
      "கிமு": 6161,
      "com": 6162,
      "சவு": 6163,
      "சான்றுகள்": 6164,
      "வந்தனர்": 6165,
      "இயக்குநர்": 6166,
      "1988": 6167,
      "ிருக்கின்றன": 6168,
      "சமயத்தில்": 6169,
      "அரபு": 6170,
      "வையாகும்": 6171,
      "தங்களது": 6172,
      "உரிய": 6173,
      "துல்லிய": 6174,
      "அணுக்க": 6175,
      "இலா": 6176,
      "க்கதை": 6177,
      "குறிக்கிறது": 6178,
      "கிர": 6179,
      "எடுக்க": 6180,
      "ஜார்": 6181,
      "மாற்றங்கள்": 6182,
      "த்தொட": 6183,
      "விவசாய": 6184,
      "உருவாக்கி": 6185,
      "மீன": 6186,
      "புண": 6187,
      "சுப்பிரமண": 6188,
      "உண்டா": 6189,
      "நாவல": 6190,
      "சிலி": 6191,
      "முன்னே": 6192,
      "அமைவிடம்": 6193,
      "மாவட்டத்திலுள்ள": 6194,
      "பன்ன": 6195,
      "||": 6196,
      "எலி": 6197,
      "மைப்": 6198,
      "அலெக்சா": 6199,
      "ரையும்": 6200,
      "ரியன்": 6201,
      "அதிகாரி": 6202,
      "ap": 6203,
      "சித்திர": 6204,
      "ப்புக்கு": 6205,
      "தாலும்": 6206,
      "இப்ப": 6207,
      "லேயே": 6208,
      "க்கிழ": 6209,
      "வர்களை": 6210,
      "வாக்குகள்": 6211,
      "பின்னணி": 6212,
      "இளை": 6213,
      "மார்க்க": 6214,
      "1967": 6215,
      "சுகா": 6216,
      "ையானது": 6217,
      "ஒன்றில்": 6218,
      "கற்பி": 6219,
      "நண்ப": 6220,
      "ஜம்": 6221,
      "உரிமைய": 6222,
      "பாலை": 6223,
      "காப்பு": 6224,
      "வலது": 6225,
      "1976": 6226,
      "1947": 6227,
      "பல்கலைக்கழகத்தில்": 6228,
      "ஹீ": 6229,
      "ப்படுத்தும்": 6230,
      "1985": 6231,
      "ராத": 6232,
      "நீடி": 6233,
      "ையைப்": 6234,
      "மையம்": 6235,
      "ரீதியான": 6236,
      "பக்கம்": 6237,
      "பணம்": 6238,
      "மரம்": 6239,
      "தன்மைய": 6240,
      "நீரா": 6241,
      "ிற்கும்": 6242,
      "64": 6243,
      "ூறு": 6244,
      "நகரங்கள்": 6245,
      "இந்தியக்": 6246,
      "தளத்தில்": 6247,
      "கதாபாத்திர": 6248,
      "ஆனாலும்": 6249,
      "ற்றும்": 6250,
      "தொடர்ப": 6251,
      "ந்தன்": 6252,
      "2015": 6253,
      "சிகிச்ச": 6254,
      "வாரி": 6255,
      "கழு": 6256,
      "எந்தவொரு": 6257,
      "ஒப்பந்தம்": 6258,
      "ச்சிற": 6259,
      "கதிர்": 6260,
      "்ச்": 6261,
      "கொடுத்து": 6262,
      "பரவிய": 6263,
      "அமெரிக்கப்": 6264,
      "ஆண்கள்": 6265,
      "கடுமையான": 6266,
      "பத்தா": 6267,
      "த்துச்": 6268,
      "அவசிய": 6269,
      "இருப்பதால்": 6270,
      "விதை": 6271,
      "படங்கள்": 6272,
      "ஒழுங்க": 6273,
      "அண்": 6274,
      "லாது": 6275,
      "அணுகு": 6276,
      "அடைந்த": 6277,
      "ist": 6278,
      "அவரின்": 6279,
      "பாதிக்கப்பட்ட": 6280,
      "கவர்": 6281,
      "புல்": 6282,
      "வேள": 6283,
      "துறையில்": 6284,
      "மேற்": 6285,
      "ராமன்": 6286,
      "ஆக்": 6287,
      "மால்": 6288,
      "தூண்ட": 6289,
      "அத": 6290,
      "ையிலிருந்து": 6291,
      "அசை": 6292,
      "சனை": 6293,
      "கைது": 6294,
      "கார்ட": 6295,
      "அறிவித்தது": 6296,
      "விலிய": 6297,
      "பெரும்பான்": 6298,
      "op": 6299,
      "ூரில்": 6300,
      "சென்றார்": 6301,
      "ஓட்டங்கள்": 6302,
      "கேள்வி": 6303,
      "ினா": 6304,
      "திருவிழா": 6305,
      "கருதி": 6306,
      "1945": 6307,
      "விரும்பி": 6308,
      "ri": 6309,
      "பாப்": 6310,
      "நிர்வ": 6311,
      "1982": 6312,
      "முறைமை": 6313,
      "இந்தச்": 6314,
      "டைந்த": 6315,
      "ஆப்பிரிக்கா": 6316,
      "பெயர்கள்": 6317,
      "அருள்": 6318,
      "உருவான": 6319,
      "சனின்": 6320,
      "65": 6321,
      "ப்படுத்தப்பட்ட": 6322,
      "1969": 6323,
      "பிரதிநிதி": 6324,
      "ப்பதிவு": 6325,
      "நிர்வகி": 6326,
      "ெர்": 6327,
      "ட்டியில்": 6328,
      "வெகு": 6329,
      "வெளியான": 6330,
      "வளைய": 6331,
      "ச்சேரி": 6332,
      "கதைகள்": 6333,
      "44": 6334,
      "தழ": 6335,
      "கட்டட": 6336,
      "விவசா": 6337,
      "ஜெர்மன": 6338,
      "த்தினர்": 6339,
      "ஆயுத": 6340,
      "மக்": 6341,
      "தொகுதிகள்": 6342,
      "கூறப்படுகிறது": 6343,
      "ஆவர்": 6344,
      "மேலே": 6345,
      "ஆர": 6346,
      "ஷே": 6347,
      "ண்டம்": 6348,
      "ஆகவும்": 6349,
      "1983": 6350,
      "த்தலைவர்": 6351,
      "காலங்களில்": 6352,
      "கணேசன்": 6353,
      "ஒலிய": 6354,
      "ியாளர்கள்": 6355,
      "மிகச்": 6356,
      "செர்": 6357,
      "்களைப்": 6358,
      "இன்றும்": 6359,
      "தஞ்சா": 6360,
      "அளவுக்கு": 6361,
      "பத்திரிகை": 6362,
      "செய்வது": 6363,
      "மக்களவை": 6364,
      "நிறைவு": 6365,
      "மங்கோ": 6366,
      "பாணி": 6367,
      "ற்கா": 6368,
      "கட்டப்பட்ட": 6369,
      "எப்போ": 6370,
      "பொன்ன": 6371,
      "மின்சார": 6372,
      "மதிப்பீ": 6373,
      "சமீப": 6374,
      "ஃபார்": 6375,
      "கப்": 6376,
      "பான்": 6377,
      "த்திட்ட": 6378,
      "செயல்முறை": 6379,
      "மாணவர்கள்": 6380,
      "மங்கலம்": 6381,
      "பொறுத்து": 6382,
      "விண்டோஸ்": 6383,
      "க்கத்": 6384,
      "அறியப்பட்ட": 6385,
      "செய்தனர்": 6386,
      "நிகழ்ந்த": 6387,
      "நடித்திருந்தனர்": 6388,
      "oc": 6389,
      "ஆரோ": 6390,
      "இரவு": 6391,
      "சீர்த": 6392,
      "பங்கே": 6393,
      "உரையா": 6394,
      "க்காமல்": 6395,
      "இயக்கிய": 6396,
      "தொடக்கத்தில்": 6397,
      "கிட": 6398,
      "1973": 6399,
      "கியூ": 6400,
      "the": 6401,
      "ஜு": 6402,
      "பிரிட்டி": 6403,
      "விலங்கு": 6404,
      "எழுத்தாள": 6405,
      "பாடுகள": 6406,
      "வெளிப்புற": 6407,
      "கல்வியறிவு": 6408,
      "ஃபே": 6409,
      "பன": 6410,
      "ந்துள்ளது": 6411,
      "வடிவில்": 6412,
      "நான்காவது": 6413,
      "வேட்பா": 6414,
      "அறை": 6415,
      "பாரசீ": 6416,
      "பவர்கள்": 6417,
      "நிலப்பர": 6418,
      "கருநாடக": 6419,
      "இன்னொரு": 6420,
      "அப்பா": 6421,
      "நடத்தி": 6422,
      "இப்பேரூ": 6423,
      "ப்ட்": 6424,
      "நூறு": 6425,
      "சேவைகள்": 6426,
      "பதிப்பகம்": 6427,
      "என்பதுடன்": 6428,
      "எதுவும்": 6429,
      "42": 6430,
      "ப்பதில்": 6431,
      "சிறிது": 6432,
      "The": 6433,
      "சூர்": 6434,
      "மத்தி": 6435,
      "ன்றும்": 6436,
      "பிற்கா": 6437,
      "பணியாற்றிய": 6438,
      "1962": 6439,
      "டாக்டர்": 6440,
      "லாள": 6441,
      "வீச்சு": 6442,
      "எப்படி": 6443,
      "கவனம்": 6444,
      "தமிழாக்கம்": 6445,
      "பலி": 6446,
      "அறுவை": 6447,
      "ab": 6448,
      "போர்ட்": 6449,
      "றுப்பு": 6450,
      "சூழல்": 6451,
      "மலேசியா": 6452,
      "வலியு": 6453,
      "சித": 6454,
      "ட்சம்": 6455,
      "அறிந்த": 6456,
      "நிகழ்வு": 6457,
      "மொழியாக": 6458,
      "ங்கே": 6459,
      "கூடுதலாக": 6460,
      "கத்தில்": 6461,
      "பயன்படுத்து": 6462,
      "்சு": 6463,
      "ர்களுடன்": 6464,
      "நாடகம்": 6465,
      "ஆலயம்": 6466,
      "செலவு": 6467,
      "பிரான்சு": 6468,
      "நம்பிக்க": 6469,
      "உண்ட": 6470,
      "ீட்டு": 6471,
      "ங்கர்": 6472,
      "அருகே": 6473,
      "ீன்": 6474,
      "குவி": 6475,
      "த்திற்குப்": 6476,
      "லன்": 6477,
      "ப்பைக்": 6478,
      "தொடரில்": 6479,
      "நடைபெற்றது": 6480,
      "தகவல்கள்": 6481,
      "லையும்": 6482,
      "ூட": 6483,
      "வெளியிட்டார்": 6484,
      "கிருஷ்ணன்": 6485,
      "ஆப்பிரிக்க": 6486,
      "தொழிற்சாலை": 6487,
      "பேருந்து": 6488,
      "கோட்பாடு": 6489,
      "குறுகிய": 6490,
      "பகுதியை": 6491,
      "ர்கோ": 6492,
      "1948": 6493,
      "ஆயினும்": 6494,
      "இவற்று": 6495,
      "இரண்டும்": 6496,
      "விளையாடிய": 6497,
      "நன்ன": 6498,
      "கோடி": 6499,
      "படுகிறது": 6500,
      "நாகரி": 6501,
      "தூர்": 6502,
      "முதன்மையான": 6503,
      "மேற்பர": 6504,
      "தரம்": 6505,
      "ச்சர்": 6506,
      "பொன்": 6507,
      "பெயரை": 6508,
      "நிர்ண": 6509,
      "கார்பன்": 6510,
      "வாயில்": 6511,
      "ஐய": 6512,
      "ஒத்து": 6513,
      "ிட்டு": 6514,
      "ிலா": 6515,
      "மைல்": 6516,
      "ப்பதற்கான": 6517,
      "வித்": 6518,
      "நுண்ணுயி": 6519,
      "எலும்பு": 6520,
      "ப்பெரு": 6521,
      "உண்ண": 6522,
      "1965": 6523,
      "க்கணக்கான": 6524,
      "சர்க்க": 6525,
      "விசார": 6526,
      "முரண்": 6527,
      "ுகிற": 6528,
      "காசி": 6529,
      "னாதி": 6530,
      "1968": 6531,
      "ரம்பு": 6532,
      "நிலைகள்": 6533,
      "திரைய": 6534,
      "துணி": 6535,
      "ண்டுகள்": 6536,
      "சாய்": 6537,
      "பெற்றவர்கள்": 6538,
      "1944": 6539,
      "எதிர்கால": 6540,
      "46": 6541,
      "இவரை": 6542,
      "ந்தோ": 6543,
      "திலிருந்து": 6544,
      "St": 6545,
      "திருப்ப": 6546,
      "தெளிவாக": 6547,
      "எண்ணெய்": 6548,
      "ஈர": 6549,
      "வருகிறார்": 6550,
      "வரையிலான": 6551,
      "மளி": 6552,
      "ச்சத்து": 6553,
      "அவள": 6554,
      "உதாரணமாக": 6555,
      "நெறிமுறை": 6556,
      "நிலம்": 6557,
      "தசை": 6558,
      "வாலய": 6559,
      "அப்": 6560,
      "வருமான": 6561,
      "1930": 6562,
      "பேரரச": 6563,
      "ஒப்பி": 6564,
      "வளவு": 6565,
      "தளபதி": 6566,
      "இஸ்லாமிய": 6567,
      "மனம்": 6568,
      "போன": 6569,
      "குழந்த": 6570,
      "னவே": 6571,
      "ப்புகளும்": 6572,
      "கோவி": 6573,
      "திருக்கு": 6574,
      "ce": 6575,
      "ப்படுத்தி": 6576,
      "பணிய": 6577,
      "பண்பாட்டு": 6578,
      "றாக": 6579,
      "நீரில்": 6580,
      "வர்களாக": 6581,
      "வருகின்றனர்": 6582,
      "விவரிக்க": 6583,
      "தோட்ட": 6584,
      "செய்யப்படுகிறது": 6585,
      "புரத": 6586,
      "பட்டியலில்": 6587,
      "தகுதி": 6588,
      "பரா": 6589,
      "ஆந்திர": 6590,
      "காவல்": 6591,
      "கணின": 6592,
      "லீக்": 6593,
      "ஆட்ச": 6594,
      "க்குறை": 6595,
      "சிர": 6596,
      "பூமி": 6597,
      "குறியீடு": 6598,
      "ப்பதாக": 6599,
      "னிக்": 6600,
      "குளிர்": 6601,
      "மிரு": 6602,
      "ற்பட்ட": 6603,
      "மத்தியில்": 6604,
      "வசிக்க": 6605,
      "ரைகள்": 6606,
      "சாம்": 6607,
      "முதல்த": 6608,
      "வியலாளர்": 6609,
      "யாழ்ப்பாணம்": 6610,
      "(\"": 6611,
      "ஸை": 6612,
      "இயங்கும்": 6613,
      "கட்டுப்பாட்டு": 6614,
      "150": 6615,
      "பாரதி": 6616,
      "சக்": 6617,
      "ந்தம்": 6618,
      "பிள்ள": 6619,
      "வரே": 6620,
      "மூத்த": 6621,
      "கமாக": 6622,
      "அறிக்க": 6623,
      "நிலைக்கு": 6624,
      "முனைவர்": 6625,
      "நிறைந்த": 6626,
      "இலக்கண": 6627,
      "விநியோ": 6628,
      "ர்க்கும்": 6629,
      "இழு": 6630,
      "ளிகள்": 6631,
      "டைம்": 6632,
      "நிமிட": 6633,
      "எடுத்துக்காட்டு": 6634,
      "மஞ்சள்": 6635,
      "95": 6636,
      "தடுக்க": 6637,
      "உருவானது": 6638,
      "பிரிவுகள்": 6639,
      "க்கொள்க": 6640,
      "பயன்பாட்டு": 6641,
      "கிலோமீட்டர்": 6642,
      "தரா": 6643,
      "சினி": 6644,
      "சோதன": 6645,
      "தொலைபேசி": 6646,
      "தெரிவு": 6647,
      "வித்து": 6648,
      "வளர்ச்ச": 6649,
      "ரத்": 6650,
      "ஸ்டன்": 6651,
      "மிகக்": 6652,
      "பத்ம": 6653,
      "ற்பகுதியில்": 6654,
      "கின்றனர்": 6655,
      "டையில்": 6656,
      "என்பவரால்": 6657,
      "க்காத": 6658,
      "அடிமை": 6659,
      "னுடைய": 6660,
      "பரிமாற்ற": 6661,
      "சரண": 6662,
      "செய்திகள்": 6663,
      "300": 6664,
      "ிருத்த": 6665,
      "இயற்றிய": 6666,
      "விளையாட": 6667,
      "பிரான்சி": 6668,
      "வழிவகு": 6669,
      "மைக்ரோசா": 6670,
      "பிரிவுகள": 6671,
      "மருத்துவமனை": 6672,
      "வல்லு": 6673,
      "த்திரி": 6674,
      "உதவும்": 6675,
      "வண்ணம்": 6676,
      "பிரதம": 6677,
      "குடியரசுத்": 6678,
      "ுடனும்": 6679,
      "கத்தின்": 6680,
      "மந்திர": 6681,
      "வர்களும்": 6682,
      "செங்கு": 6683,
      "Ch": 6684,
      "செய்யப்பட்டு": 6685,
      "முகா": 6686,
      "இங்கே": 6687,
      "ஆக்கிர": 6688,
      "''": 6689,
      "குறிப்பிட்டு": 6690,
      "புராணம்": 6691,
      "சொற்கள்": 6692,
      "ஏராள": 6693,
      "ட்ரா": 6694,
      "நீரி": 6695,
      "அந்தக்": 6696,
      "ரண": 6697,
      "குர": 6698,
      "இலவச": 6699,
      "வருக்கும்": 6700,
      "பாடசாலை": 6701,
      "நியூசிலா": 6702,
      "அமீ": 6703,
      "தின்": 6704,
      "தைத்": 6705,
      "க்காடு": 6706,
      "செயலி": 6707,
      "ல்களின்": 6708,
      "ிற்காக": 6709,
      "வனை": 6710,
      "ோள்": 6711,
      "சிறப்பான": 6712,
      "இணைந்த": 6713,
      "பூச்சி": 6714,
      "ஒன்றியம்": 6715,
      "க்கியது": 6716,
      "திருநெல்": 6717,
      "சிந்தனை": 6718,
      "இப்போ": 6719,
      "எடை": 6720,
      "க்ட்": 6721,
      "படுவ": 6722,
      "காம": 6723,
      "பராமரி": 6724,
      "்தா": 6725,
      "துறைய": 6726,
      "பிழை": 6727,
      "றிஞர்": 6728,
      "அனைத்துலக": 6729,
      "தர்ம": 6730,
      "தொழில்நுட்பம்": 6731,
      "எளிய": 6732,
      "வளாக": 6733,
      "விதமான": 6734,
      "போரி": 6735,
      "ர்களுக்கும்": 6736,
      "ர்டி": 6737,
      "சத்": 6738,
      "ப்படம்": 6739,
      "ங்களுக்கான": 6740,
      "அம்மன்": 6741,
      "உரிமைகள்": 6742,
      "தஞ்சாவூர்": 6743,
      "98": 6744,
      "செயலாளர்": 6745,
      "என்பதாகும்": 6746,
      "க்காது": 6747,
      "அதிர்": 6748,
      "வருவாய்": 6749,
      "ேயான": 6750,
      "இருப்பதாக": 6751,
      "உறை": 6752,
      "டபிள்": 6753,
      "கேட்ட": 6754,
      "மகாரா": 6755,
      "குற்றம்": 6756,
      "ஆறா": 6757,
      "நற்": 6758,
      "ானியா": 6759,
      "த்துள்ளார்": 6760,
      "இதுவரை": 6761,
      "எழுது": 6762,
      "மின்றி": 6763,
      "இவன்": 6764,
      "ஸ்டோ": 6765,
      "ஃபா": 6766,
      "அஞ்ச": 6767,
      "வுன்": 6768,
      "ப்படுகின்ற": 6769,
      "ஆங்கிலத்தில்": 6770,
      "குடியே": 6771,
      "தடி": 6772,
      "வாள": 6773,
      "ழிவு": 6774,
      "மகிழ": 6775,
      "முகலாய": 6776,
      "ம்மா": 6777,
      "ியோ": 6778,
      "களாகும்": 6779,
      "சுட்ட": 6780,
      "பகுதிகளை": 6781,
      "இறுதியாக": 6782,
      "புத்தூர்": 6783,
      "ரவ": 6784,
      "சார்பு": 6785,
      "அணுக்கரு": 6786,
      "av": 6787,
      "நரம்பு": 6788,
      "வாரம்": 6789,
      "சேலம்": 6790,
      "விளைவு": 6791,
      "IP": 6792,
      "க்டோ": 6793,
      "விநாய": 6794,
      "ப்படுகின்றனர்": 6795,
      "ers": 6796,
      "அயர்": 6797,
      "க்கத்தில்": 6798,
      "அலி": 6799,
      "டான்": 6800,
      "்கோ": 6801,
      "ச்சியாக": 6802,
      "1964": 6803,
      "காண்பி": 6804,
      "வேளாண்மை": 6805,
      "லானது": 6806,
      "துண": 6807,
      "1963": 6808,
      "குழாய": 6809,
      "விதமாக": 6810,
      "ஏற்கனவே": 6811,
      "ையாளர்": 6812,
      "சீக்கிய": 6813,
      "அனைவரும்": 6814,
      "ல்ஸ்": 6815,
      "்கி": 6816,
      "நோய்கள்": 6817,
      "ஆடை": 6818,
      "வியட்": 6819,
      "மொழிகளில்": 6820,
      "முடிவுகள்": 6821,
      "சிவாஜி": 6822,
      "தந்தைய": 6823,
      "ீரல்": 6824,
      "தொகுதியில்": 6825,
      "பற்றியும்": 6826,
      "விரிவு": 6827,
      "இழை": 6828,
      "மாசு": 6829,
      "மின்னோ": 6830,
      "மனிதன": 6831,
      "வற": 6832,
      "ந்தொ": 6833,
      "ிலோ": 6834,
      "உள்நாட்டு": 6835,
      "ற்சியா": 6836,
      "1956": 6837,
      "ப்படுவதில்லை": 6838,
      "இதழ்கள்": 6839,
      "சற்று": 6840,
      "பற்று": 6841,
      "றவு": 6842,
      "ையர்": 6843,
      "உட்ப": 6844,
      "விபர": 6845,
      "தாள": 6846,
      "நிற்க": 6847,
      "மயமா": 6848,
      "ச்சொல்": 6849,
      "ஆப்க": 6850,
      "ஆத": 6851,
      "கட்டாய": 6852,
      "ங்கால": 6853,
      "நெடுஞ்சாலை": 6854,
      "லிங்": 6855,
      "கூறுகிறது": 6856,
      "கட்டுமான": 6857,
      "55": 6858,
      "மால": 6859,
      "னுக்கும்": 6860,
      "1959": 6861,
      "வழக்கம்": 6862,
      "புறம்": 6863,
      "வாழ்ந்து": 6864,
      "ஜேம்ஸ்": 6865,
      "விளங்குகிறது": 6866,
      "உழை": 6867,
      "வழங்குவ": 6868,
      "மக்களி": 6869,
      "கடந்து": 6870,
      "கையெழு": 6871,
      "சிக்கலான": 6872,
      "கைப்பற்றிய": 6873,
      "IS": 6874,
      "ீழ": 6875,
      "முதலமை": 6876,
      "புலிகள்": 6877,
      "1000": 6878,
      "ெய": 6879,
      "ொண்ட": 6880,
      "பேசு": 6881,
      "மையால்": 6882,
      "நடவடிக்க": 6883,
      "ப்பதன்": 6884,
      "விளைவுகள்": 6885,
      "ஆக்கிரமி": 6886,
      "ஏர்": 6887,
      "டிரா": 6888,
      "க்கொள்": 6889,
      "மக்களால்": 6890,
      "நிர்வாகம்": 6891,
      "திமுக": 6892,
      "ுக்குப்": 6893,
      "வயதி": 6894,
      "சொற்கள": 6895,
      "வெளியானது": 6896,
      "ன்றால்": 6897,
      "சாகி": 6898,
      "தண்டனை": 6899,
      "அமி": 6900,
      "ம்கள்": 6901,
      "மின்க": 6902,
      "இடையிலான": 6903,
      "பசி": 6904,
      "த்துக்கும்": 6905,
      "கிளி": 6906,
      "பேட்": 6907,
      "இரும்பு": 6908,
      "அழுத்தம்": 6909,
      "கரும்": 6910,
      "லஸ்": 6911,
      "பேச்ச": 6912,
      "மரப": 6913,
      "நடத்தை": 6914,
      "1957": 6915,
      "சிவப்பு": 6916,
      "ப்படுத்தல்": 6917,
      "1966": 6918,
      "நாயக்க": 6919,
      "வுகளும்": 6920,
      "இலிருந்து": 6921,
      "லியோ": 6922,
      "ஒன்பது": 6923,
      "ஏரி": 6924,
      "தில்லி": 6925,
      "முதல்தர": 6926,
      "ow": 6927,
      "முறையின்": 6928,
      "முடிவுக்கு": 6929,
      "தொல்ல": 6930,
      "வேண்டுமெ": 6931,
      "தியா": 6932,
      "விளக்கு": 6933,
      "நோக்கிய": 6934,
      "சூப்பர்": 6935,
      "1958": 6936,
      "உருவாகும்": 6937,
      "):": 6938,
      "நகரத்தில்": 6939,
      "பணிகள்": 6940,
      "பணிபுரி": 6941,
      "பேசும்": 6942,
      "பிரிட்டிஷ்": 6943,
      "மனிதன்": 6944,
      "மாறும்": 6945,
      "ங்களான": 6946,
      "எலக": 6947,
      "கிரீ": 6948,
      "85": 6949,
      "சாரி": 6950,
      "வாழ்வு": 6951,
      "காட்டி": 6952,
      "உப்பு": 6953,
      "டிஸ்": 6954,
      "காஞ்சி": 6955,
      "அரசி": 6956,
      "நகைச்சுவை": 6957,
      "மேடை": 6958,
      "பொருளாதாரம்": 6959,
      "நதி": 6960,
      "ிரம்": 6961,
      "லியில்": 6962,
      "ாகிய": 6963,
      "களுள்": 6964,
      "புரு": 6965,
      "அளவை": 6966,
      "ஆதரி": 6967,
      "கருவிய": 6968,
      "1952": 6969,
      "அறிமுகம்": 6970,
      "ஊக்கு": 6971,
      "லங்கள்": 6972,
      "மேலாக": 6973,
      "மடங்கு": 6974,
      "\")": 6975,
      "ராவ்": 6976,
      "டெல்": 6977,
      "ஸ்வரர்": 6978,
      "பட்டி": 6979,
      "தொல்கா": 6980,
      "கோப்பை": 6981,
      "வழிமுறை": 6982,
      "\".": 6983,
      "அன்ன": 6984,
      "தட்ட": 6985,
      "தலைவர்கள்": 6986,
      "விலுள்ள": 6987,
      "வழங்குகிறது": 6988,
      "செய்யப்பட்டார்": 6989,
      "க்கின்றது": 6990,
      "அறிந்து": 6991,
      "பயன்படுத்திய": 6992,
      "சுற்றுச்சூ": 6993,
      "பேரரசர்": 6994,
      "பகுப்பாய்வு": 6995,
      "43": 6996,
      "ஆற": 6997,
      "ழில்": 6998,
      "வனின்": 6999,
      "க்கத்தை": 7000,
      "அமைப்பை": 7001,
      "டனும்": 7002,
      "78": 7003,
      "de": 7004,
      "வோர்": 7005,
      "ப்ஸ்": 7006,
      "போக": 7007,
      "ிருப்பது": 7008,
      "இடங்கள்": 7009,
      "நகரா": 7010,
      "டேவிட்": 7011,
      "ஆராய்ச்ச": 7012,
      "வேண்ட": 7013,
      "கிடைத்தது": 7014,
      "வேலு": 7015,
      "உற்பத்திய": 7016,
      "ak": 7017,
      "ப்புகளின்": 7018,
      "டியம்": 7019,
      "மலைய": 7020,
      "ப்பொழுது": 7021,
      "கொலம்ப": 7022,
      "வரையும்": 7023,
      "இவற்றை": 7024,
      "ஜின்": 7025,
      "ருக்கான": 7026,
      "க்களையும்": 7027,
      "வழக்கமான": 7028,
      "59": 7029,
      "காத்த": 7030,
      "க்கப்பட்டனர்": 7031,
      "யுத்த": 7032,
      "எத்த": 7033,
      "ிலு": 7034,
      "பெங்கள": 7035,
      "வரம்": 7036,
      "ட்டுப்": 7037,
      "பிரதேசம்": 7038,
      "படுகொலை": 7039,
      "லிலும்": 7040,
      "வலுவ": 7041,
      "இறந்து": 7042,
      "விலங்குகள்": 7043,
      "ஆயிரம்": 7044,
      "அனுபவ": 7045,
      "அடுக்கு": 7046,
      "சிட்": 7047,
      "குடியர": 7048,
      "க்கொண்டார்": 7049,
      "இசைக்": 7050,
      "காட": 7051,
      "ச்சியம்": 7052,
      "கோயம்": 7053,
      "கர்த்தா": 7054,
      "பிரிவில்": 7055,
      "1954": 7056,
      "தோற்றுவி": 7057,
      "ியைத்": 7058,
      "வதற்கும்": 7059,
      "ப்பட்டுள்ள": 7060,
      "ட்டியது": 7061,
      "எழுதியுள்ளார்": 7062,
      "ப்பட்டி": 7063,
      "ியாளர்": 7064,
      "கூற்று": 7065,
      "எதிர்த்து": 7066,
      "ஃப்ட்": 7067,
      "வளர்ந்து": 7068,
      "ூட்ட": 7069,
      "காஷ்": 7070,
      "கூறும்": 7071,
      "திட்டங்கள்": 7072,
      "பச்சை": 7073,
      "ாகி": 7074,
      "நகரங்களும்": 7075,
      "பயன்படுத்தப்பட்டது": 7076,
      "என்பதைக்": 7077,
      "ஏற்படுகிறது": 7078,
      "துவங்க": 7079,
      "ரைச்": 7080,
      "இயற்ற": 7081,
      "பண்பாடு": 7082,
      "பட்டியலி": 7083,
      "கொண்டதாக": 7084,
      "முடிவில்": 7085,
      "வருகின்றது": 7086,
      "வேகமாக": 7087,
      "நடவடிக்கைகள்": 7088,
      "ெல்லாம்": 7089,
      "கடற்படை": 7090,
      "இப்படி": 7091,
      "ணர்வு": 7092,
      "என்றழைக்கப்படும்": 7093,
      "மாணி": 7094,
      "ற்கள்": 7095,
      "ச்சல்": 7096,
      "சிலை": 7097,
      "பெருமை": 7098,
      "பரப்பளவு": 7099,
      "1961": 7100,
      "பெற்றுள்ளது": 7101,
      "அவர்களை": 7102,
      "சென்னையில்": 7103,
      "எப்போதும்": 7104,
      "நர்கள்": 7105,
      "வுட்": 7106,
      "இனம்": 7107,
      "ச்சியான": 7108,
      "போட்டியிலும்": 7109,
      "அச்சி": 7110,
      "அலகு": 7111,
      "விசு": 7112,
      "அறிவித்தார்": 7113,
      "யானை": 7114,
      "எலக்ட்": 7115,
      "நல்லூர்": 7116,
      "சதவீத": 7117,
      "ஓய்வு": 7118,
      "கம்யூனி": 7119,
      "கூறுகிறார்": 7120,
      "ஒவ்வொ": 7121,
      "இயல்பு": 7122,
      "நெட்வொ": 7123,
      "காலகட்டத்தில்": 7124,
      "ஏராளமான": 7125,
      "காப்பா": 7126,
      "நாதர்": 7127,
      "வட்டத்தில்": 7128,
      "1941": 7129,
      "ரோஜா": 7130,
      "நிலைகளில்": 7131,
      "ஹார்": 7132,
      "கோடை": 7133,
      "க்கோள": 7134,
      "தீய": 7135,
      "தமிழ்நாட்டு": 7136,
      "வலைத்தள": 7137,
      "பாக்கித்தான்": 7138,
      "உசாத்துணைகள்": 7139,
      "77": 7140,
      "ஊட்ட": 7141,
      "ருதி": 7142,
      "வென்": 7143,
      "காங்கிரசு": 7144,
      "58": 7145,
      "வசூ": 7146,
      "பாடகர்": 7147,
      "போர்னியா": 7148,
      "தோன்றும்": 7149,
      "அல்லாத": 7150,
      "இப்பேரூராட்சி": 7151,
      "ப்பானது": 7152,
      "விவிலிய": 7153,
      "இரயில்": 7154,
      "பரம்ப": 7155,
      "வணை": 7156,
      "ஸ்ச": 7157,
      "அரசன்": 7158,
      "கொண்டிருப்ப": 7159,
      "வரிச": 7160,
      "தம": 7161,
      "வினால்": 7162,
      "உயரம்": 7163,
      "பள்ளியில்": 7164,
      "எசுப்பானிய": 7165,
      "மங்கோலிய": 7166,
      "()": 7167,
      "கொண்டிருக்கிறது": 7168,
      "நோக்கம்": 7169,
      "வழங்கியது": 7170,
      "்த்து": 7171,
      "திறன": 7172,
      "பயன்பாட": 7173,
      "ஊடு": 7174,
      "விண்க": 7175,
      "காப்ப": 7176,
      "போதுமான": 7177,
      "தமிழர்கள்": 7178,
      "தலைய": 7179,
      "ஐரோப்பாவில்": 7180,
      "புக்": 7181,
      "திசைய": 7182,
      "இலத்தீன்": 7183,
      "ரோஸ்": 7184,
      "பாக்டீ": 7185,
      "ஆற்றின்": 7186,
      "அரசாங்கம்": 7187,
      "கின்றது": 7188,
      "பின": 7189,
      "லான்": 7190,
      "மெக்சி": 7191,
      "தென": 7192,
      "தீர்த்த": 7193,
      "முக்கியமாக": 7194,
      "மனைவிய": 7195,
      "புதிதாக": 7196,
      "லைத்": 7197,
      "நாவல்": 7198,
      "ர்களான": 7199,
      "போன்றவற்றை": 7200,
      "என்றார்": 7201,
      "பேரி": 7202,
      "ங்டன்": 7203,
      "தணி": 7204,
      "காட்சிய": 7205,
      "ப்புச்": 7206,
      "கைகள்": 7207,
      "குறைந்தது": 7208,
      "தவிர்க்க": 7209,
      "ஞ்ஞான": 7210,
      "400": 7211,
      "ொன்று": 7212,
      "உணர்வு": 7213,
      "பாகிஸ்தான்": 7214,
      "தாங்க": 7215,
      "ட்பு": 7216,
      "பாலின": 7217,
      "சிங்கப்பூர்": 7218,
      "வீழ்ச்சி": 7219,
      "டான": 7220,
      "பத்திர": 7221,
      "ங்களுள்": 7222,
      "க்கிக்": 7223,
      "சண்": 7224,
      "செயற்ப": 7225,
      "கர்நாடக": 7226,
      "நரம்ப": 7227,
      "ப்பைப்": 7228,
      "விசைய": 7229,
      "முக்கோ": 7230,
      "வெண்ண": 7231,
      "நிறுவப்பட்டது": 7232,
      "மில்லிய": 7233,
      "தென்கிழ": 7234,
      "வுக்கும்": 7235,
      "1939": 7236,
      "சமயங்களில்": 7237,
      "அவ்வாறு": 7238,
      "41": 7239,
      "1942": 7240,
      "ஆட்சிய": 7241,
      "தனக்கு": 7242,
      "தொழிலாளர்": 7243,
      "நிறைவேற்ற": 7244,
      "முஸ்லிம்": 7245,
      "தள்ள": 7246,
      "மித்": 7247,
      "பொருளை": 7248,
      "தொடர்ச்சியாக": 7249,
      "உருவாக்கினார்": 7250,
      "களுக்காக": 7251,
      "தொற்று": 7252,
      "உயர்த்த": 7253,
      "வளர்க்க": 7254,
      "நடிகைகள்": 7255,
      "களிலிருந்து": 7256,
      "அவற்று": 7257,
      "தமிழீழ": 7258,
      "பரிசோதனை": 7259,
      "ியாகு": 7260,
      "வெளியிட்டது": 7261,
      "ேஷ்": 7262,
      "கிளர்": 7263,
      "ang": 7264,
      "ந்துகொள்ள": 7265,
      "அடுக்க": 7266,
      "ஊர்களும்": 7267,
      "நன்ற": 7268,
      "திணை": 7269,
      "வெங்க": 7270,
      "தேவைப்படும்": 7271,
      "பறவைகள்": 7272,
      "அப்த": 7273,
      "ஐதர": 7274,
      "தரை": 7275,
      "2019": 7276,
      "ity": 7277,
      "நீதிமன்றம்": 7278,
      "சங்கில": 7279,
      "தப்பி": 7280,
      "ுதல்": 7281,
      "்தி": 7282,
      "வினா": 7283,
      "வெறு": 7284,
      "நெதர்": 7285,
      "மாறியது": 7286,
      "விழ": 7287,
      "க்குடி": 7288,
      "மைக்கே": 7289,
      "கோவை": 7290,
      "மூளை": 7291,
      "பைல்": 7292,
      "1946": 7293,
      "நிகழும்": 7294,
      "மருந்துகள்": 7295,
      "68": 7296,
      "க்கின்றனர்": 7297,
      "முடிந்தது": 7298,
      "முருகன்": 7299,
      "க்கணி": 7300,
      "த்தானிய": 7301,
      "க்ள": 7302,
      "வேகம்": 7303,
      "அமைக்கப்பட்டது": 7304,
      "முனைய": 7305,
      "ஸ்க்": 7306,
      "ரூபாய்": 7307,
      "ஆஸ்திரேலிய": 7308,
      "ெடுத்து": 7309,
      "திசு": 7310,
      "பயனர்": 7311,
      "திருநெல்வேலி": 7312,
      "ங்காய்": 7313,
      "காந்தா": 7314,
      "ஹூ": 7315,
      "ரிஸ்": 7316,
      "திரைப்படங்களில்": 7317,
      "கல்யா": 7318,
      "மேற்குப்": 7319,
      "விஸ்வ": 7320,
      "பச்ச": 7321,
      "துப்பா": 7322,
      "வழங்கப்படும்": 7323,
      "சாலையில்": 7324,
      "கல்வெட்டு": 7325,
      "அப்ப": 7326,
      "அத்தியா": 7327,
      "மகளி": 7328,
      "1949": 7329,
      "பயன்பாட்ட": 7330,
      "விமானம்": 7331,
      "மின்னணு": 7332,
      "மாகவே": 7333,
      "ஃபீ": 7334,
      "ிருத": 7335,
      "ியாவில்": 7336,
      "%,": 7337,
      "ஊரில்": 7338,
      "க்காலம்": 7339,
      "பெற்றோ": 7340,
      "வம்ச": 7341,
      "நுகர்வ": 7342,
      "மருத்துவர்": 7343,
      "க்கட்டு": 7344,
      "பிரம்ம": 7345,
      "வளரும்": 7346,
      "அரசுத்தலைவர்": 7347,
      "நிரந்தர": 7348,
      "ஏற்றுக்": 7349,
      "அன்ப": 7350,
      "டப்பட்டது": 7351,
      "ூரி": 7352,
      "கொண்டனர்": 7353,
      "விலேயே": 7354,
      "துணைத்": 7355,
      "தங்கிய": 7356,
      "ராணி": 7357,
      "நாம": 7358,
      "கொடி": 7359,
      "மும்பை": 7360,
      "அளித்த": 7361,
      "விஷ்": 7362,
      "லாஸ்": 7363,
      "கேட்டு": 7364,
      "தூய": 7365,
      "பிரான்சின்": 7366,
      "கன்னியாகு": 7367,
      "ஹொங்கொங்": 7368,
      "எனலாம்": 7369,
      "வெளிப்பட": 7370,
      "ந்திரா": 7371,
      "பீட்டர்": 7372,
      "மில்லை": 7373,
      "வைர": 7374,
      "கரீ": 7375,
      "தோறும்": 7376,
      "சொன்ன": 7377,
      "உடலில்": 7378,
      "கிடைத்த": 7379,
      "அகல": 7380,
      "எரு": 7381,
      "மாட": 7382,
      "ப்பிள்ளை": 7383,
      "ஆகியவற்று": 7384,
      "க்கட": 7385,
      "ட்டத்தில்": 7386,
      "இயலும்": 7387,
      "தெரியா": 7388,
      "மதிப்பி": 7389,
      "மல்ல": 7390,
      "ப்படியான": 7391,
      "மன்றம்": 7392,
      "ப்பையும்": 7393,
      "விட்ச": 7394,
      "பாண்ட": 7395,
      "நிறம்": 7396,
      "மழ": 7397,
      "மாகத்": 7398,
      "பொருளியல்": 7399,
      "ச்சுவ": 7400,
      "டெட்": 7401,
      "சிவபெரு": 7402,
      "காரை": 7403,
      "புலம்": 7404,
      "மாநிலம்": 7405,
      "மண்டலம்": 7406,
      "தெரிவித்தார்": 7407,
      "ிணை": 7408,
      "தாக்கம்": 7409,
      "ுகளால்": 7410,
      "இருந்தும்": 7411,
      "னன்": 7412,
      "வெர்": 7413,
      "மயில": 7414,
      "வேறுபாடு": 7415,
      "பாகு": 7416,
      "பொறுத்த": 7417,
      "அளவிற்கு": 7418,
      "ஸ்தி": 7419,
      "இறைவன்": 7420,
      "இலக்கணம்": 7421,
      "ையார்": 7422,
      "செயல்படும்": 7423,
      "கால்பந்து": 7424,
      "NA": 7425,
      "ம்க": 7426,
      "த்தோடு": 7427,
      "களவில்": 7428,
      "எனப்படுகிறது": 7429,
      "ங்களைச்": 7430,
      "அறியப்படுகிறது": 7431,
      "Th": 7432,
      "ஷோ": 7433,
      "என்பர்": 7434,
      "அமைப்பில்": 7435,
      "கொள்ளலாம்": 7436,
      "தமிழகத்தில்": 7437,
      "அலுவலகம்": 7438,
      "பாண்டியன்": 7439,
      "வர்க்க": 7440,
      "சேகர": 7441,
      "மேற்கத்திய": 7442,
      "கடத்த": 7443,
      "முடிந்த": 7444,
      "த்தொகை": 7445,
      "ஆரம்பகால": 7446,
      "சதவி": 7447,
      "தழ்": 7448,
      "டுவதற்கு": 7449,
      "மத்": 7450,
      "ரர்": 7451,
      "செய்வதற்கு": 7452,
      "இனங்கள்": 7453,
      "செருமன": 7454,
      "தண்ணீர்": 7455,
      "51": 7456,
      "ஊழிய": 7457,
      "ஏழா": 7458,
      "ஒற்ற": 7459,
      "பாலா": 7460,
      "கூர்": 7461,
      "லியின்": 7462,
      "பொருளின்": 7463,
      "US": 7464,
      "ியலில்": 7465,
      "சார்ந்து": 7466,
      "1953": 7467,
      "நீதிபதி": 7468,
      "தஞ்ச": 7469,
      "சாரா": 7470,
      "தலைவன்": 7471,
      "க்களுக்கு": 7472,
      "பழக்க": 7473,
      "கூட்டணி": 7474,
      "இடைவெளி": 7475,
      "உட்பட்ட": 7476,
      "இசையில்": 7477,
      "யாக": 7478,
      "துரை": 7479,
      "காலை": 7480,
      "அவனது": 7481,
      "ப்போர்": 7482,
      "இங்குள்ள": 7483,
      "நெடுஞ்சாலைகள்": 7484,
      "ip": 7485,
      "விச": 7486,
      "67": 7487,
      "அம்ப": 7488,
      "திசம்பர்": 7489,
      "முட்டை": 7490,
      "சுற்றிய": 7491,
      "கிங்": 7492,
      "கோரி": 7493,
      "இவ்வகை": 7494,
      "யுனை": 7495,
      "அமிலம்": 7496,
      "பாக்கித்தானிய": 7497,
      "யன்": 7498,
      "விஞ்ஞான": 7499,
      "போலி": 7500,
      "கொண்டவை": 7501,
      "வீட்ட": 7502,
      "ine": 7503,
      "தலைமையிலான": 7504,
      "னியம்": 7505,
      "நாட்களில்": 7506,
      "படிக்க": 7507,
      "குறைந்து": 7508,
      "இவ்வூ": 7509,
      "விரைவாக": 7510,
      "அடிப்படையிலான": 7511,
      "ஜார்ஜ்": 7512,
      "நகரு": 7513,
      "அதிகபட்ச": 7514,
      "எதிர்பார்க்க": 7515,
      "பொருட்கள": 7516,
      "பொறுப்பு": 7517,
      "நியா": 7518,
      "நின்று": 7519,
      "ீர": 7520,
      "ப்பார்": 7521,
      "நன்மை": 7522,
      "செங்க": 7523,
      "வெட்டி": 7524,
      "னியன்": 7525,
      "எண்கள்": 7526,
      "புற்றுநோய்": 7527,
      "அங்கீகரி": 7528,
      "அப்து": 7529,
      "செம்": 7530,
      "நூலகம்": 7531,
      "நகரத்தின்": 7532,
      "உளவியல்": 7533,
      "கற்று": 7534,
      "ச்சின்": 7535,
      "ஆகவே": 7536,
      "பாடல்களை": 7537,
      "அமெரிக்கக்": 7538,
      "டெக்": 7539,
      "செல்வாக்கு": 7540,
      "நிரூ": 7541,
      "டால்": 7542,
      "பவை": 7543,
      "வெற்ற": 7544,
      "சீர்": 7545,
      "மோர்": 7546,
      "1955": 7547,
      "குடியிரு": 7548,
      "வலையமை": 7549,
      "டச்சு": 7550,
      "மதம்": 7551,
      "88": 7552,
      "ங்களாகும்": 7553,
      "ஒருவராக": 7554,
      "தேவன்": 7555,
      "மக்களை": 7556,
      "பண்புகள்": 7557,
      "தேடி": 7558,
      "வட்டார": 7559,
      "தூய்": 7560,
      "விட்டால்": 7561,
      "பெண்களின்": 7562,
      "ஜெர்மனி": 7563,
      "ian": 7564,
      "வுகளுக்கு": 7565,
      "ாட்சி": 7566,
      "வாக்கம்": 7567,
      "வுட": 7568,
      "என்பதும்": 7569,
      "தாகவே": 7570,
      "கலைஞர்கள்": 7571,
      "அணிக்காக": 7572,
      "னான்": 7573,
      "யுக": 7574,
      "என்பவற்ற": 7575,
      "ப்பகுதிய": 7576,
      "எளிதில்": 7577,
      "நடந்து": 7578,
      "ரிச்ச": 7579,
      "காச": 7580,
      "தொடக்கம்": 7581,
      "இராச்சியம்": 7582,
      "துவாக": 7583,
      "சேத": 7584,
      "அர்த்த": 7585,
      "நூலின்": 7586,
      "பழமையான": 7587,
      "ஒலிம்பி": 7588,
      "வகுப்பு": 7589,
      "ற்றம்": 7590,
      "நடிக": 7591,
      "சதவிகி": 7592,
      "66": 7593,
      "சிந்து": 7594,
      "வழக்கில்": 7595,
      "An": 7596,
      "ஒப்பிட": 7597,
      "லுக்கான": 7598,
      "ினாலும்": 7599,
      "மெய": 7600,
      "நிறைய": 7601,
      "பரந்த": 7602,
      "பெருமாள்": 7603,
      "1943": 7604,
      "வீட்டில்": 7605,
      "முதலி": 7606,
      "மீள": 7607,
      "வங்காளதேசத்": 7608,
      "ஆர்க": 7609,
      "ராபர்ட்": 7610,
      "வேட்ட": 7611,
      "வேண்டி": 7612,
      "வைத்தார்": 7613,
      "1920": 7614,
      "நோக்கு": 7615,
      "உணர்ச்சி": 7616,
      "மனிதர்கள்": 7617,
      "குதிரை": 7618,
      "கும்ப": 7619,
      "வாக்கா": 7620,
      "முதலான": 7621,
      "முடிகிறது": 7622,
      "கவிதைகள்": 7623,
      "ய்யா": 7624,
      "தாஸ்": 7625,
      "என்றே": 7626,
      "படுகின்றன": 7627,
      "ஜென்": 7628,
      "காட்டும்": 7629,
      "அமைச்சர்": 7630,
      "லமைப்பு": 7631,
      "பெயர்ந்த": 7632,
      "வலு": 7633,
      "புதுப்பி": 7634,
      "விரைவில்": 7635,
      "தடுப்பு": 7636,
      "ஒட்டுமொத்த": 7637,
      "கூடும்": 7638,
      "மாறுபட்ட": 7639,
      "இயக்குனர்": 7640,
      "வெளியேறி": 7641,
      "ஃப": 7642,
      "க்கால்": 7643,
      "ுகளுடன்": 7644,
      "நீங்கள்": 7645,
      "உருசியா": 7646,
      "பிரிட்ட": 7647,
      "1951": 7648,
      "ஆர்வம்": 7649,
      "அறிஞர்": 7650,
      "சர்ச்சை": 7651,
      "முடியவில்லை": 7652,
      "இங்கிலாந்தின்": 7653,
      "பிளாக்": 7654,
      "சுந்தரம்": 7655,
      "ுகிறான்": 7656,
      "வளம்": 7657,
      "வகைப்பாடு": 7658,
      "மொழியின்": 7659,
      "விற்பனைய": 7660,
      "இவர்களில்": 7661,
      "ஆரிய": 7662,
      "க்காட்ட": 7663,
      "தொலைவிலும்": 7664,
      "குழுவின்": 7665,
      "விசாரணை": 7666,
      "ஆணை": 7667,
      "க்குட்பட்ட": 7668,
      "பொம்": 7669,
      "மூர்": 7670,
      "காலத்தின்": 7671,
      "கண்ணாடி": 7672,
      "பண்டி": 7673,
      "த்துக்கான": 7674,
      "தாழ்": 7675,
      "இடைப்பட்ட": 7676,
      "உயரத்தில்": 7677,
      "மௌ": 7678,
      "த்தூ": 7679,
      "இணைக்கும்": 7680,
      "அடர்த்தி": 7681,
      "துருக்கிய": 7682,
      "மலேசிய": 7683,
      "அறிகுறிகள்": 7684,
      "சான": 7685,
      "ச்சந்திரன்": 7686,
      "சேவைய": 7687,
      "க்குகள்": 7688,
      "ப்பியல்": 7689,
      "ையிலும்": 7690,
      "பார்த்து": 7691,
      "கனடிய": 7692,
      "குழுக்கள்": 7693,
      "அதிகாரம்": 7694,
      "பேராசிரியர்": 7695,
      "மேற்கில்": 7696,
      "நேபா": 7697,
      "தொகுதிய": 7698,
      "சிறுநீ": 7699,
      "சராசரியாக": 7700,
      "இலை": 7701,
      "பிரபு": 7702,
      "புலவர்கள்": 7703,
      "உதவுகிறது": 7704,
      "மந்த": 7705,
      "செறி": 7706,
      "தானே": 7707,
      "பகுதியாகும்": 7708,
      "கரிம": 7709,
      "மேளகர்த்தா": 7710,
      "அஞ்சல்": 7711,
      "லக்": 7712,
      "ருவ": 7713,
      "ங்களுக்காக": 7714,
      "ளிக்க": 7715,
      "இடத்தை": 7716,
      "சொற்": 7717,
      "தகவல்களை": 7718,
      "வீழ்த்த": 7719,
      "தலின்": 7720,
      "இருபது": 7721,
      "ிகள்": 7722,
      "ண்ணி": 7723,
      "பொருட்டு": 7724,
      "்ச்சிய": 7725,
      "இராகத்தில்": 7726,
      "முழ": 7727,
      "மேரி": 7728,
      "பெற்றவர்": 7729,
      "செயல்பாட": 7730,
      "ant": 7731,
      "ர்ட்ஸ்": 7732,
      "அட்டவணை": 7733,
      "சத்திய": 7734,
      "ராணுவ": 7735,
      "வரம்ப": 7736,
      "எல்லாம்": 7737,
      "ess": 7738,
      "ஆட்டோ": 7739,
      "அன்பு": 7740,
      "நாத்": 7741,
      "உடனடியாக": 7742,
      "ஆடி": 7743,
      "ard": 7744,
      "செயல்திறன்": 7745,
      "வழிய": 7746,
      "உருவாக்கம்": 7747,
      "அருகில": 7748,
      "ஏற்படுத்தும்": 7749,
      "விநாயகர்": 7750,
      "லைன்": 7751,
      "சேவ": 7752,
      "வருகை": 7753,
      "வந்தன": 7754,
      "தமிழ்நாட்டின்": 7755,
      "பண்பு": 7756,
      "விரிவான": 7757,
      "கோயம்புத்தூர்": 7758,
      "அண்ண": 7759,
      "டுகளை": 7760,
      "ட்டது": 7761,
      "திடீ": 7762,
      "சுட்டி": 7763,
      "வைக்கப்பட்ட": 7764,
      "இருக்கின்றது": 7765,
      "முத்த": 7766,
      "வைகள்": 7767,
      "சுகாதார": 7768,
      "ினான்": 7769,
      "உள்ளே": 7770,
      "கோப்பு": 7771,
      "கோபுர": 7772,
      "கருதப்படும்": 7773,
      "தோராய": 7774,
      "வதிலும்": 7775,
      "பாராட்ட": 7776,
      "96": 7777,
      "சாரம்": 7778,
      "பிரீ": 7779,
      "சீனி": 7780,
      "கொண்டுவர": 7781,
      "நிறுவி": 7782,
      "டப்பட்டுள்ளது": 7783,
      "கிராம்": 7784,
      "மகளிர்": 7785,
      "குந்த": 7786,
      "குறிப்பிடுகிறது": 7787,
      "கடற்கரை": 7788,
      "இவற்றுள்": 7789,
      "56": 7790,
      "த்துத்": 7791,
      "சேர்ம": 7792,
      "எடுத்தார்": 7793,
      "முல்லை": 7794,
      "விருத்தி": 7795,
      "செயல்பாடு": 7796,
      "1937": 7797,
      "வென்றார்": 7798,
      "72": 7799,
      "ியலாளர்கள்": 7800,
      "ர்களைப்": 7801,
      "கணக்கில்": 7802,
      "ஆவார்கள்": 7803,
      "க்கெ": 7804,
      "என்பதன்": 7805,
      "படத்தின்": 7806,
      "வடிவங்கள்": 7807,
      "அவ்வ": 7808,
      "பிளே": 7809,
      "ஊக்குவி": 7810,
      "காலநிலை": 7811,
      "2018": 7812,
      "மாற்றியமை": 7813,
      "ூடாக": 7814,
      "களே": 7815,
      "க்கும்போது": 7816,
      "தற்குக்": 7817,
      "மிகச்சிற": 7818,
      "வளர்த்த": 7819,
      "பாரத": 7820,
      "எளிதாக": 7821,
      "முற்றிலும்": 7822,
      "ுடனான": 7823,
      "ஒற்று": 7824,
      "மகே": 7825,
      "லலி": 7826,
      "மாந்த": 7827,
      "உடன்ப": 7828,
      "லாக்": 7829,
      "பகுதியின்": 7830,
      "ஈர்": 7831,
      "ஈரோடு": 7832,
      "கட்சிய": 7833,
      "க்கன்": 7834,
      "ற்றில்": 7835,
      "ராதி": 7836,
      "உணர": 7837,
      "கிழக்கில்": 7838,
      "ரெட்": 7839,
      "கூட்டமைப்பு": 7840,
      "வலைத்தளம்": 7841,
      "ai": 7842,
      "தய": 7843,
      "க்குறைய": 7844,
      "பெருங்கட": 7845,
      "ப்படியாக": 7846,
      "தென்ப": 7847,
      "வெளிநாட்டு": 7848,
      "தரைய": 7849,
      "ிருந்தாலும்": 7850,
      "சார்பில்": 7851,
      "விளைவி": 7852,
      "பெற்றுள்ளன": 7853,
      "கக்": 7854,
      "ோல்": 7855,
      "கிபி": 7856,
      "மோகன்": 7857,
      "உணர்ந்த": 7858,
      "சன்ன": 7859,
      "மடி": 7860,
      "தலைமுறை": 7861,
      "எடுக்கப்பட்ட": 7862,
      "சஸ்": 7863,
      "சொல்லும்": 7864,
      "அழகு": 7865,
      "நடுவ": 7866,
      "மெண்ட்": 7867,
      "என்பதற்கு": 7868,
      "க்களைக்": 7869,
      "மலையில்": 7870,
      "சங்கர்": 7871,
      "பங்கேற்ற": 7872,
      "இங்கிலாந்தில்": 7873,
      "ஆகியோரின்": 7874,
      "உத்தி": 7875,
      "மஸ்": 7876,
      "க்கிகள்": 7877,
      "பரவ": 7878,
      "மூலதன": 7879,
      "ருக்குப்": 7880,
      "அளிக்க": 7881,
      "கன்னியாகுமரி": 7882,
      "வறு": 7883,
      "வெளியிட்டு": 7884,
      "இருபதாம்": 7885,
      "விஷய": 7886,
      "நம": 7887,
      "கேம்": 7888,
      "இணைக்கப்பட்ட": 7889,
      "கலிபோர்னியா": 7890,
      "76": 7891,
      "ஆராய்": 7892,
      "ஜான": 7893,
      "நிரு": 7894,
      "பாஸ்": 7895,
      "சிஸ்": 7896,
      "கோர்": 7897,
      "ell": 7898,
      "52": 7899,
      "கருணா": 7900,
      "பெயர்க்க": 7901,
      "2017": 7902,
      "கடும்": 7903,
      "இராஜ": 7904,
      "துறைகளில்": 7905,
      "இத்திரைப்படம்": 7906,
      "ஆல்பம்": 7907,
      "ையையும்": 7908,
      "நிகழ்ச்சியில்": 7909,
      "நான்காம்": 7910,
      "தொல்லியல்": 7911,
      "உவ": 7912,
      "ஆக்சை": 7913,
      "நீக்க": 7914,
      "பயன்படுத்தப்பட்ட": 7915,
      "வெளிவந்தது": 7916,
      "வேற்று": 7917,
      "என்பதில்": 7918,
      "ுவின்": 7919,
      "தொடர்பாக": 7920,
      "இந்தோனே": 7921,
      "குன்ற": 7922,
      "ங்களிலிருந்து": 7923,
      "படங்களில்": 7924,
      "சீர்திருத்த": 7925,
      "ப்பாளராக": 7926,
      "நுண": 7927,
      "இசைத்தொகு": 7928,
      "முறையான": 7929,
      "திரைக்கதை": 7930,
      "01": 7931,
      "பயணிகள்": 7932,
      "அதிகாரபூர்வ": 7933,
      "அகர": 7934,
      "சால்": 7935,
      "வாணி": 7936,
      "அவர்களால்": 7937,
      "ப்படுவதால்": 7938,
      "ஞா": 7939,
      "விடுவ": 7940,
      "முனையில்": 7941,
      "இலக்கு": 7942,
      "பாடும்": 7943,
      "அமெரிக்கத்": 7944,
      "படைப்புகள்": 7945,
      "லூயி": 7946,
      "்கிறது": 7947,
      "திண்": 7948,
      "விடய": 7949,
      "கட்டுப்பாடு": 7950,
      "தாவரங்கள்": 7951,
      "பெருமளவில்": 7952,
      "கொழுப்பு": 7953,
      "தற்காலி": 7954,
      "மைக்கேல்": 7955,
      "நிலா": 7956,
      "ுவதற்கு": 7957,
      "நிலையங்கள்": 7958,
      "இராகங்கள்": 7959,
      "சந்தர்": 7960,
      "டார்": 7961,
      "தடைய": 7962,
      "குண்ட": 7963,
      "தாங்கி": 7964,
      "கிடைய": 7965,
      "விளங்கிய": 7966,
      "கேட்": 7967,
      "பள்ளத்தா": 7968,
      "சமைய": 7969,
      "எனத்": 7970,
      "ec": 7971,
      "ஆட்சியின்": 7972,
      "உலா": 7973,
      "கொன்ற": 7974,
      "என்பதே": 7975,
      "முன்னரே": 7976,
      "மாநகராட்சி": 7977,
      "த்திறன்": 7978,
      "பிடித்த": 7979,
      "தெரிகிறது": 7980,
      "ந்தாட்ட": 7981,
      "குடும்பத்தில்": 7982,
      "இட்": 7983,
      "ஜப்பானிய": 7984,
      "மனு": 7985,
      "டியின்": 7986,
      "ப்பெருக்க": 7987,
      "வெளியிணைப்புக்கள்": 7988,
      "முதலீட்ட": 7989,
      "நகரை": 7990,
      "பெருமளவு": 7991,
      "per": 7992,
      "காவிரி": 7993,
      "பிராம": 7994,
      "ஒன்றான": 7995,
      "வளிமண்டல": 7996,
      "தெற்கே": 7997,
      "புகைப்பட": 7998,
      "லாகும்": 7999,
      "வளிய": 8000,
      "ப்பாகும்": 8001,
      "சித்தா": 8002,
      "்களாக": 8003,
      "பொருள்கள்": 8004,
      "மில": 8005,
      "வேற": 8006,
      "தொடர்ச்சியான": 8007,
      "தரவுத்தள": 8008,
      "தவறான": 8009,
      "AP": 8010,
      "எய": 8011,
      "்க்கா": 8012,
      "தொகையில்": 8013,
      "விடுகிறது": 8014,
      "86": 8015,
      "ud": 8016,
      "ஆற்று": 8017,
      "ஷெ": 8018,
      "ையுடன்": 8019,
      "2021": 8020,
      "வரையான": 8021,
      "all": 8022,
      "1936": 8023,
      "1938": 8024,
      "சோழன்": 8025,
      "உபயோகி": 8026,
      "பதில்": 8027,
      "வகம்": 8028,
      "பாலு": 8029,
      "இந்துக்": 8030,
      "ட்ஜ்": 8031,
      "டியூ": 8032,
      "பெற்றனர்": 8033,
      "இறந்தார்": 8034,
      "பாக்கித்தானியத்": 8035,
      "ாளில்": 8036,
      "கடலில்": 8037,
      "ஏற்பாடு": 8038,
      "வேளையில்": 8039,
      "எஞ்சிய": 8040,
      "னுடன்": 8041,
      "ொலை": 8042,
      "க்கங்கள்": 8043,
      "ையாகும்": 8044,
      "எதிரி": 8045,
      "மாற்றப்பட்டது": 8046,
      "தயாரிப்பாளர்": 8047,
      "நெருங்கிய": 8048,
      "புளோ": 8049,
      "பன்றி": 8050,
      "கொல்க": 8051,
      "ஸ்து": 8052,
      "பாக்ஸ்": 8053,
      "முக்கோண": 8054,
      "கார்த்தி": 8055,
      "தம்பி": 8056,
      "கலந்த": 8057,
      "சமூகம்": 8058,
      "காட்டுகிறது": 8059,
      "சொல்லி": 8060,
      "வுகளைக்": 8061,
      "ஜனதா": 8062,
      "ஓட்டங்களை": 8063,
      "க்குதல்": 8064,
      "அரே": 8065,
      "சிறீ": 8066,
      "முறையும்": 8067,
      "பயிர்": 8068,
      "க்கொள்ளும்": 8069,
      "நிகழ்ச்சிகள்": 8070,
      "இயேசுவின்": 8071,
      "ப்ரோ": 8072,
      "ஆண்டி": 8073,
      "நானூறு": 8074,
      "79": 8075,
      "எந்திர": 8076,
      "யெ": 8077,
      "சிட்டி": 8078,
      "பயன்படுகின்றன": 8079,
      "மின்த": 8080,
      "ஆணையம்": 8081,
      "ப்பழ": 8082,
      "பிந்தைய": 8083,
      "சிஸ்ட": 8084,
      "ப்பாடுகள்": 8085,
      "மெகா": 8086,
      "தாகத்": 8087,
      "வழியே": 8088,
      "அறிஞ": 8089,
      "ர்வுகள்": 8090,
      "வென்றது": 8091,
      "போர்த்துக்க": 8092,
      "மதிய": 8093,
      "கோணம்": 8094,
      "அறிஞர்கள்": 8095,
      "அழைக்கப்பட்ட": 8096,
      "பொருட்களின்": 8097,
      "அக்காலத்தில்": 8098,
      "ண்டே": 8099,
      "ub": 8100,
      "ப்பதை": 8101,
      "போய்": 8102,
      "தொடங்கப்பட்டது": 8103,
      "கேரளா": 8104,
      "லுடன்": 8105,
      "குரூ": 8106,
      "வெல்ல": 8107,
      "ரியை": 8108,
      "விட்டன": 8109,
      "வணிகம்": 8110,
      "திபெ": 8111,
      "விடை": 8112,
      "தனியாக": 8113,
      "மையைக்": 8114,
      "கொண்டே": 8115,
      "ஏற்பட்டு": 8116,
      "மோசமான": 8117,
      "தலங்கள்": 8118,
      "வையே": 8119,
      "இடி": 8120,
      "நய": 8121,
      "ிறேன்": 8122,
      "முகவரி": 8123,
      "நுரைய": 8124,
      "அவர்களுடைய": 8125,
      "போராட்டம்": 8126,
      "தோல்வி": 8127,
      "ஏன்": 8128,
      "கையும்": 8129,
      "யல்": 8130,
      "தொரு": 8131,
      "மடைந்த": 8132,
      "நாட்காட்டி": 8133,
      "சுல்தான": 8134,
      "qu": 8135,
      "ஆனார்": 8136,
      "ப்ரா": 8137,
      "வினைய": 8138,
      "த்துறையில்": 8139,
      "மைக்கு": 8140,
      "மேய": 8141,
      "காணப்பட்ட": 8142,
      "வாழ்க்கைக்": 8143,
      "ஈடுபட்டு": 8144,
      "வழு": 8145,
      "ோட்ட": 8146,
      "காலத்திற்கு": 8147,
      "பிரித்து": 8148,
      "அறிவிக்கப்பட்டது": 8149,
      "சுரங்கள்": 8150,
      "திருக்குற": 8151,
      "வள்": 8152,
      "நிறுத்தி": 8153,
      "மூலக்கூற": 8154,
      "ht": 8155,
      "ஒழி": 8156,
      "மறைய": 8157,
      "தாயார்": 8158,
      "அழற்சி": 8159,
      "உயரமான": 8160,
      "முகம்மது": 8161,
      "ம்பா": 8162,
      "ையாகவும்": 8163,
      "tr": 8164,
      "ரக்": 8165,
      "ற்றது": 8166,
      "நோர்": 8167,
      "பொதுத்": 8168,
      "பகுதிகளிலும்": 8169,
      "பரிச": 8170,
      "சுரங்க": 8171,
      "விளங்கியது": 8172,
      "வேறுபாடுகள்": 8173,
      "ப்பொறி": 8174,
      "விவரங்கள்": 8175,
      "எட்டா": 8176,
      "கொரியா": 8177,
      "தாசன்": 8178,
      "ினார்கள்": 8179,
      "முயன்ற": 8180,
      "நிறுவிய": 8181,
      "ஜெர்மன்": 8182,
      "உள்நாட்டுப்": 8183,
      "இத்தாலி": 8184,
      "பார்வையாள": 8185,
      "தமிழ்ச்": 8186,
      "பிரிந்து": 8187,
      "திருத்தந்தை": 8188,
      "மெய்யியல்": 8189,
      "சடங்க": 8190,
      "தென்னாப்பி": 8191,
      "ியர்": 8192,
      "போற்ற": 8193,
      "ுகளிலும்": 8194,
      "ின்றார்கள்": 8195,
      "ஸ்டார்": 8196,
      "நடிப்பு": 8197,
      "ஒன்றிணை": 8198,
      "மீட்டர்கள்": 8199,
      "பாக்டீரியா": 8200,
      "டிஜி": 8201,
      "சொல்க": 8202,
      "கையின்": 8203,
      "பொலி": 8204,
      "நூலை": 8205,
      "கடன": 8206,
      "நிறுவப்பட்ட": 8207,
      "அழைக்கப்பட்டது": 8208,
      "ath": 8209,
      "பழங்குடிய": 8210,
      "வாடிக்கையாள": 8211,
      "உறி": 8212,
      "சித்": 8213,
      "தேவார": 8214,
      "விலகி": 8215,
      "லுக்கும்": 8216,
      "உயிரிய": 8217,
      "ிலிருந்தும்": 8218,
      "ob": 8219,
      "அபாய": 8220,
      "உத்த": 8221,
      "வதம்": 8222,
      "நாளி": 8223,
      "எழுந்த": 8224,
      "தீர்க்க": 8225,
      "ஜென": 8226,
      "ஸ்தா": 8227,
      "நிரல்": 8228,
      "பாலியல்": 8229,
      "மாளி": 8230,
      "ராதா": 8231,
      "ஒருமுறை": 8232,
      "லிக்": 8233,
      "பேசிய": 8234,
      "கொண்டிருந்தார்": 8235,
      "செய்யலாம்": 8236,
      "தீர்வு": 8237,
      "ல்களுக்கு": 8238,
      "இந்திரா": 8239,
      "ுரிமை": 8240,
      "க்கச்": 8241,
      "துன்ப": 8242,
      "மூள": 8243,
      "பக்தி": 8244,
      "திட": 8245,
      "மனையில்": 8246,
      "னைகள்": 8247,
      "க்கோள்": 8248,
      "அணியில்": 8249,
      "பிரான்ஸ்": 8250,
      "அடைந்து": 8251,
      "விற்கும்": 8252,
      "கருப்பை": 8253,
      "பார்க்கும்": 8254,
      "எரிமலை": 8255,
      "என்பதையும்": 8256,
      "மீன்கள்": 8257,
      "தனித்துவ": 8258,
      "மொழியை": 8259,
      "பயன்பாட்டில்": 8260,
      "ஆறுகள்": 8261,
      "மந்தி": 8262,
      "குளம்": 8263,
      "மொபைல்": 8264,
      "ல்களும்": 8265,
      "குறிப்பிடுகிறார்": 8266,
      "ஆகியவற்றைக்": 8267,
      "படுத்தி": 8268,
      "சந்தையில்": 8269,
      "விரைவு": 8270,
      "தேர்ந்தெடுக்கப்பட்டார்": 8271,
      "முன்பே": 8272,
      "சமிக்": 8273,
      "வென்று": 8274,
      "ட்ரிக்": 8275,
      "சேர்ந்தார்": 8276,
      "ப்பொருட": 8277,
      "புலிகளின்": 8278,
      "சுற்றுச்சூழல்": 8279,
      "ரகு": 8280,
      "கோப்ப": 8281,
      "கோலா": 8282,
      "இலகு": 8283,
      "முறைகளை": 8284,
      "பெறப்பட்ட": 8285,
      "ராமசாமி": 8286,
      "ங்களுக்குப்": 8287,
      "நரசி": 8288,
      "மென்பொருள": 8289,
      "னாதிபதி": 8290,
      "நிரூபி": 8291,
      "நீட்டி": 8292,
      "இந்நூல்": 8293,
      "வசதிகள்": 8294,
      "ok": 8295,
      "பங்கா": 8296,
      "லண்டன்": 8297,
      "டைந்தது": 8298,
      "தூத்துக்கு": 8299,
      "எர்": 8300,
      "மத்தின்": 8301,
      "மிகை": 8302,
      "தொடு": 8303,
      "தேனும்": 8304,
      "நேரு": 8305,
      "இணைத்து": 8306,
      "வழங்கப்படுகிறது": 8307,
      "நடித்துள்ள": 8308,
      "சமிக்ஞ": 8309,
      "ரோம்": 8310,
      "ப்பினை": 8311,
      "ப்பைத்": 8312,
      "கொள்ளவில்லை": 8313,
      "இரை": 8314,
      "1918": 8315,
      "அவசர": 8316,
      "னாய்": 8317,
      "டெர்": 8318,
      "களுக்குப்": 8319,
      "லலிதா": 8320,
      "சப்பானிய": 8321,
      "வெட்டு": 8322,
      "பொற": 8323,
      "வாகவும்": 8324,
      "குறைவு": 8325,
      "கட்டளை": 8326,
      "வடிவத்தில்": 8327,
      "மண்டப": 8328,
      "சீனாவில்": 8329,
      "கணக்கிட": 8330,
      "53": 8331,
      "லாந்தில்": 8332,
      "ர்களுக்கான": 8333,
      "அமைக்க": 8334,
      "ஆத்திரேலிய": 8335,
      "நியூசிலாந்து": 8336,
      "Al": 8337,
      "ஒடு": 8338,
      "கழ": 8339,
      "ண்டில்": 8340,
      "நாடுகளுக்கு": 8341,
      "அழைக்கப்படுகின்றன": 8342,
      "வலையமைப்பு": 8343,
      "செல்கிறது": 8344,
      "செக்": 8345,
      "லாந்தின்": 8346,
      "வைக்கும்": 8347,
      "பொழி": 8348,
      "அமைத்து": 8349,
      "திருகோண": 8350,
      "படப்பிடி": 8351,
      "வடக்கே": 8352,
      "அடைந்தது": 8353,
      "சூழலில்": 8354,
      "அறக்கட்ட": 8355,
      "டிரை": 8356,
      "வாட": 8357,
      "னைத்": 8358,
      "யுனி": 8359,
      "ஹம்": 8360,
      "்தல்": 8361,
      "தாது": 8362,
      "மாதங்கள்": 8363,
      "கையை": 8364,
      "ரானது": 8365,
      "மாக்": 8366,
      "பெருக்க": 8367,
      "செயல்பாடுகள்": 8368,
      "ஆண்டுகளாக": 8369,
      "கட்டிய": 8370,
      "உடல்நல": 8371,
      "அலுவலர்": 8372,
      "சித்தரி": 8373,
      "சூழ்நிலை": 8374,
      "ஆட்சியில்": 8375,
      "வத": 8376,
      "ப்புடன்": 8377,
      "பிராந்திய": 8378,
      "1935": 8379,
      "இயக்குன": 8380,
      "புளூ": 8381,
      "கமான": 8382,
      "யை": 8383,
      "தேனி": 8384,
      "தலைநகர்": 8385,
      "மேற்கோள்": 8386,
      "த்தியோ": 8387,
      "விளையாடினார்": 8388,
      "நாட்டுப்புற": 8389,
      "உள்ளடக்க": 8390,
      "நொதி": 8391,
      "லாக்க": 8392,
      "சித்தி": 8393,
      "ளிக்கும்": 8394,
      "வழங்கப்பட்ட": 8395,
      "இவ்வாறான": 8396,
      "லைய": 8397,
      "முறிய": 8398,
      "நூல்களை": 8399,
      "த்திலிருந்த": 8400,
      "வந்துள்ளது": 8401,
      "குமார": 8402,
      "te": 8403,
      "கூட்டா": 8404,
      "தொடரின்": 8405,
      "திரைப்படத்": 8406,
      "வற்றில்": 8407,
      "இந்தியன்": 8408,
      "முடிவடை": 8409,
      "கிடையாது": 8410,
      "ஊடாக": 8411,
      "சூறா": 8412,
      "சூரியன்": 8413,
      "for": 8414,
      "இப்பகுதி": 8415,
      "ஹால்": 8416,
      "ாகத்": 8417,
      "துடுப்பாட்டம்": 8418,
      "அரசியலமைப்பு": 8419,
      "தலுக்கு": 8420,
      "கென்": 8421,
      "முறையாகும்": 8422,
      "ov": 8423,
      "பதில": 8424,
      "பூசை": 8425,
      "குழாய்": 8426,
      "க்கூடியது": 8427,
      "மாணவர்": 8428,
      "வலிமை": 8429,
      "ஆத்திரேலியா": 8430,
      "கத்": 8431,
      "யின": 8432,
      "்களால்": 8433,
      "மக்களும்": 8434,
      "உருவாக்கியது": 8435,
      "சாம்பியன்": 8436,
      "புள்ளிய": 8437,
      "ுக்கிடையே": 8438,
      "வெற்றிகரமாக": 8439,
      "இதற்கான": 8440,
      "கிரிக்க": 8441,
      "அகற்ற": 8442,
      "சுற்றுப்பய": 8443,
      "இலாப": 8444,
      "லார்": 8445,
      "தொகைய": 8446,
      "ற்கள": 8447,
      "ரைடு": 8448,
      "மீனா": 8449,
      "இயற்": 8450,
      "ஸ்டை": 8451,
      "ங்கார": 8452,
      "தெரிந்த": 8453,
      "தென்னிந்த": 8454,
      "--": 8455,
      "கின்": 8456,
      "காசு": 8457,
      "ங்களே": 8458,
      "கூடாது": 8459,
      "பயன்படுத்துகின்றன": 8460,
      "சிக்கல்": 8461,
      "நாராயண": 8462,
      "எக்": 8463,
      "சுவை": 8464,
      "1933": 8465,
      "புத்தகம்": 8466,
      "நடத்தப்பட்ட": 8467,
      "ive": 8468,
      "அடிய": 8469,
      "ப்பார்கள்": 8470,
      "கூடை": 8471,
      "கருத்தில்": 8472,
      "த்தாலும்": 8473,
      "அளிக்கும்": 8474,
      "பிரான்சிய": 8475,
      "சுருக்கம்": 8476,
      "பிரதிநிதித்துவ": 8477,
      "கையா": 8478,
      "வெண": 8479,
      "நீரை": 8480,
      "மையானது": 8481,
      "செய்யப்படுகின்றன": 8482,
      "அந்தத்": 8483,
      "ட்சியாக": 8484,
      "மீள்": 8485,
      "ெழுத்து": 8486,
      "ஷனல்": 8487,
      "மைதான": 8488,
      "நீரின்": 8489,
      "டாம்": 8490,
      "கட்டண": 8491,
      "சந்தே": 8492,
      "அச": 8493,
      "தார்": 8494,
      "தலில்": 8495,
      "ரமா": 8496,
      "ீட்ட": 8497,
      "பாபு": 8498,
      "காளி": 8499,
      "ற்கும்": 8500,
      "வைட்ட": 8501,
      "என்பதோடு": 8502,
      "வீடுகள்": 8503,
      "கொடுக்கப்பட்ட": 8504,
      "குறியீட்டு": 8505,
      "ப்பதால்": 8506,
      "பிற்பகுதியில்": 8507,
      "விருதை": 8508,
      "வெப்பம்": 8509,
      "அதிகரிக்கும்": 8510,
      "கழிவு": 8511,
      "விஸ்வநாதன்": 8512,
      "எதிர்க்க": 8513,
      "எடுத்துச்": 8514,
      "எழுத்துக்கள்": 8515,
      "களாகப்": 8516,
      "க்கான்": 8517,
      "கருப்பு": 8518,
      "க்கூட": 8519,
      "புகு": 8520,
      "உற்பத்தியா": 8521,
      "தாரா": 8522,
      "ட்ர": 8523,
      "ுகளுக்கும்": 8524,
      "சாதக": 8525,
      "தலைவி": 8526,
      "வானியலாளர்": 8527,
      "பயன்பாடுகள்": 8528,
      "உட்கொள்ள": 8529,
      "திருச்சபை": 8530,
      "பகுப்பாய்": 8531,
      "ஆழ்": 8532,
      "இட்டு": 8533,
      "சனி": 8534,
      "ங்கின்": 8535,
      "கோபால": 8536,
      "ச்சாரம்": 8537,
      "கட்டிடங்கள்": 8538,
      "இறுதிப்": 8539,
      "தரையிற": 8540,
      "கிறார்": 8541,
      "வெட்ட": 8542,
      "இருக்கு": 8543,
      "விடுவி": 8544,
      "கிராமங்கள்": 8545,
      "இதழில்": 8546,
      ");": 8547,
      "தட்டு": 8548,
      "தேட": 8549,
      "லிகள்": 8550,
      "காணப்படுகின்றது": 8551,
      "பேரூரா": 8552,
      "ஐந்தாவது": 8553,
      "600": 8554,
      "71": 8555,
      "பட்": 8556,
      "புரூ": 8557,
      "கசிய": 8558,
      "றையின்": 8559,
      "அதிமுக": 8560,
      "தலைப்பில்": 8561,
      "நிலைமை": 8562,
      "நகரங்களில்": 8563,
      "மட்டக்கள": 8564,
      "செயற்பாட்ட": 8565,
      "நாளை": 8566,
      "மேற்கே": 8567,
      "நிலைப்பள்ளி": 8568,
      "நடைமுறையில்": 8569,
      "படுத்திய": 8570,
      "அதிகாரிகள்": 8571,
      "பாரசீக": 8572,
      "ஆப்கானி": 8573,
      "AT": 8574,
      "CD": 8575,
      "பக்": 8576,
      "வாசன்": 8577,
      "ரைன்": 8578,
      "முதன்முதலில்": 8579,
      "ate": 8580,
      "வண்ணா": 8581,
      "ஒருங்கிணைந்த": 8582,
      "ஒலிம்பிக்": 8583,
      "54": 8584,
      "இப்பகுதியில்": 8585,
      "என்பவை": 8586,
      "நடந்தது": 8587,
      "அழகிய": 8588,
      "தானியங்கி": 8589,
      "சைக்": 8590,
      "ருவி": 8591,
      "ரித": 8592,
      "பாண்டி": 8593,
      "கடினமான": 8594,
      "கமல்": 8595,
      "நூல்களில்": 8596,
      "சோன்": 8597,
      "நடக்கும்": 8598,
      "தூது": 8599,
      "இம்மொழி": 8600,
      "பிலிம்பே": 8601,
      "திகழ்க": 8602,
      "வெண்பா": 8603,
      "விவசாயி": 8604,
      "89": 8605,
      "லுள்ள": 8606,
      "நெஞ்ச": 8607,
      "பருத்தி": 8608,
      "பஞ்சாப்": 8609,
      "திருச்சிரா": 8610,
      "ஓடி": 8611,
      "ப்ளி": 8612,
      "வர்ட்": 8613,
      "இயலாத": 8614,
      "திறமை": 8615,
      "கிழக்கே": 8616,
      "கிடைக்கிறது": 8617,
      "நைட்ர": 8618,
      "ப்படுத்துதல்": 8619,
      "கம்பி": 8620,
      "தொடர்ந்த": 8621,
      "இணைப்புக்கள்": 8622,
      "வழிபாடு": 8623,
      "கனிம": 8624,
      "நிர்ணயி": 8625,
      "துளை": 8626,
      "காது": 8627,
      "புதை": 8628,
      "வுள்ள": 8629,
      "வைண": 8630,
      "இந்திர": 8631,
      "நிழ": 8632,
      "பெற்றோர்": 8633,
      "மட்டுமல்": 8634,
      "ுகொள்ள": 8635,
      "கட்சிகள்": 8636,
      "இவர்களின்": 8637,
      "போட்டியிட்ட": 8638,
      "பதவியில்": 8639,
      "இத்": 8640,
      "உமிழ்": 8641,
      "நலம்": 8642,
      "மாட்ட": 8643,
      "தூக்க": 8644,
      "செயல்பாட்டு": 8645,
      "தானி": 8646,
      "கூட்டமை": 8647,
      "யோக": 8648,
      "ஐயர்": 8649,
      "ஜின": 8650,
      "ஹில்": 8651,
      "மீர்": 8652,
      "வனம்": 8653,
      "நிராக": 8654,
      "தவற": 8655,
      "கடவுளின்": 8656,
      "முயற்சிகள்": 8657,
      "சுதந்திரம்": 8658,
      "பிற்காலத்தில்": 8659,
      "Un": 8660,
      "பழு": 8661,
      "நாசி": 8662,
      "தொல்": 8663,
      "வேட": 8664,
      "பேஸ்": 8665,
      "நிபுண": 8666,
      "நானோ": 8667,
      "மியர்": 8668,
      "திருச்சப": 8669,
      "ஆதாரம்": 8670,
      "ஒன்": 8671,
      "நின்ற": 8672,
      "ுகிறாள்": 8673,
      "1929": 8674,
      "அறியப்படும்": 8675,
      "ill": 8676,
      "கொண்டிருக்கின்றன": 8677,
      "அருங்காட்சியகம்": 8678,
      "இதுவும்": 8679,
      "விருந்த": 8680,
      "வர்களால்": 8681,
      "ah": 8682,
      "பதிய": 8683,
      "ற்றின்": 8684,
      "மிர்": 8685,
      "கட்டத்தில்": 8686,
      "வழங்கினார்": 8687,
      "பண்ணை": 8688,
      "நியமிக்கப்பட்டார்": 8689,
      "அண்மையில்": 8690,
      "காந்தாரம்": 8691,
      "வியை": 8692,
      "கராக": 8693,
      "நூற்று": 8694,
      "குழப்ப": 8695,
      "உறுதிப்படுத்த": 8696,
      "இயற்பியலாளர்": 8697,
      "நாடுகளிலும்": 8698,
      "பற்றா": 8699,
      "முதி": 8700,
      "தேவர்": 8701,
      "தேங்காய்": 8702,
      "ட்டிங்": 8703,
      "பாகம்": 8704,
      "கிழக்குப்": 8705,
      "அமைந்திருக்கும்": 8706,
      "சான்றி": 8707,
      "Re": 8708,
      "if": 8709,
      "விவாத": 8710,
      "பாலம்": 8711,
      "த்மா": 8712,
      "அழைத்து": 8713,
      "குழுவில்": 8714,
      "வாழ்க்கையில்": 8715,
      "இண்ட": 8716,
      "இன்ப": 8717,
      "சவ": 8718,
      "நந்த": 8719,
      "இருத்தல்": 8720,
      "ப்பாதை": 8721,
      "தேசம்": 8722,
      "கைப்பற்றி": 8723,
      "விழாவில்": 8724,
      "ஆரோக்கிய": 8725,
      "Ar": 8726,
      "யும்": 8727,
      "செயல்பட்டு": 8728,
      "பயிற்சிய": 8729,
      "பன்னிர": 8730,
      "ib": 8731,
      "ஃபை": 8732,
      "னஸ்": 8733,
      "புன்ன": 8734,
      "மெக்": 8735,
      "சமர": 8736,
      "மோட்டார்": 8737,
      "ராஜே": 8738,
      "செருமனி": 8739,
      "பிறந்தவர்": 8740,
      "மேம்பாட்டு": 8741,
      "மதிப்பீடு": 8742,
      "இடு": 8743,
      "சாக்": 8744,
      "பஸ்": 8745,
      "அதிபர்": 8746,
      "பணியாள": 8747,
      "த்தினம்": 8748,
      "பேராசிரிய": 8749,
      "விழிப்பு": 8750,
      "சபா": 8751,
      "சகா": 8752,
      "தளர்": 8753,
      "நமது": 8754,
      "ாம்": 8755,
      "முப்ப": 8756,
      "மாண்ட": 8757,
      "வைத்துக்": 8758,
      "பேண": 8759,
      "திருப்பு": 8760,
      "நோய்த்த": 8761,
      "வராவார்": 8762,
      "சிறுகதைகள்": 8763,
      "ேர்": 8764,
      "சாட்ட": 8765,
      "மெல்": 8766,
      "புகழ": 8767,
      "பீட": 8768,
      "அம்மா": 8769,
      "1934": 8770,
      "பரப்பும்": 8771,
      "ினுள்": 8772,
      "சிறையில்": 8773,
      "அகில": 8774,
      "அரசர்கள்": 8775,
      "கூடுதலான": 8776,
      "ஆய்வாளர்கள்": 8777,
      "120": 8778,
      "83": 8779,
      "பகை": 8780,
      "படியாக": 8781,
      "அரசர்": 8782,
      "வாகக்": 8783,
      "திருவள்ள": 8784,
      "சமண": 8785,
      "யிரி": 8786,
      "அனுப்பி": 8787,
      "மியூ": 8788,
      "இவன": 8789,
      "ஏதேனும்": 8790,
      "ர்கால": 8791,
      "வாள்": 8792,
      "மெல்ல": 8793,
      "காரணிகள்": 8794,
      "உடலின்": 8795,
      "மண்டபம்": 8796,
      "ஆனந்த": 8797,
      "கப்பல்கள்": 8798,
      "இராச்சியத்தின்": 8799,
      "இளையராஜா": 8800,
      "ப்பதில்லை": 8801,
      "பாசி": 8802,
      "மாக்க": 8803,
      "ையாகக்": 8804,
      "கழித்து": 8805,
      "வரையறுக்கப்பட்ட": 8806,
      "விக்கிப்பீ": 8807,
      "92": 8808,
      "AS": 8809,
      "அமு": 8810,
      "ஈரான": 8811,
      "ஹவு": 8812,
      "விடா": 8813,
      "ினைக்": 8814,
      "ரியாக": 8815,
      "புரிந்த": 8816,
      "செய்கின்றன": 8817,
      "காலி": 8818,
      "மெர்": 8819,
      "பயன்படுத்தலாம்": 8820,
      "பாரதிய": 8821,
      "அம்சங்கள்": 8822,
      "பூமியின்": 8823,
      "பிபிசி": 8824,
      "வான்ப": 8825,
      "சட்டத்தின்": 8826,
      "தானு": 8827,
      "இடம்பெற்றது": 8828,
      "பற்றிக்": 8829,
      "பசிபிக்": 8830,
      "விதிகள்": 8831,
      "மையைப்": 8832,
      "பிரிக்கா": 8833,
      "பொதுமக்கள்": 8834,
      "தூண்டு": 8835,
      "சாயன": 8836,
      "குறிப்புதவி": 8837,
      "தண்ணீ": 8838,
      "அசி": 8839,
      "ஒத்தி": 8840,
      "கொங்கு": 8841,
      "கலப்பு": 8842,
      "மரங்கள்": 8843,
      "நீர்ம": 8844,
      "தேசியக்": 8845,
      "art": 8846,
      "செல்லு": 8847,
      "அரண்மனை": 8848,
      "ஏழை": 8849,
      "பண்டா": 8850,
      "வாலி": 8851,
      "நாட்களுக்கு": 8852,
      "திரைப்படப்": 8853,
      "சீட": 8854,
      "ஏற்படுவ": 8855,
      "யிர்": 8856,
      "அருணா": 8857,
      "கடைசிய": 8858,
      "திரும்பிய": 8859,
      "கங்கை": 8860,
      "தொடர்பில்": 8861,
      "வடக்கில்": 8862,
      "அவ்வா": 8863,
      "இறைய": 8864,
      "இணையத்தளம்": 8865,
      "உபகர": 8866,
      "வேன்": 8867,
      "செயல்பட்ட": 8868,
      "பாலூ": 8869,
      "பின்னாளில்": 8870,
      "அனி": 8871,
      "ரயில்": 8872,
      "தவிர்த்து": 8873,
      "நோய்க்கு": 8874,
      "பல்கலைக்": 8875,
      "சென்றது": 8876,
      "முதலீடு": 8877,
      "சினிமா": 8878,
      "எட்ட": 8879,
      "காரி": 8880,
      "ரைட்": 8881,
      "திரைப்படத்தின்": 8882,
      "மின்னழுத்த": 8883,
      "நடித்துள்ளார்": 8884,
      "சீனாவின்": 8885,
      "கிறிஸ்தவ": 8886,
      "செயல்படுகிறது": 8887,
      "உன்": 8888,
      "பண்ண": 8889,
      "சுவிட்ச": 8890,
      "சிங்கம்": 8891,
      "அடிக்குறி": 8892,
      "பிடித்து": 8893,
      "க்சு": 8894,
      "னிடம்": 8895,
      "இடத்தையும்": 8896,
      "சூட்ட": 8897,
      "திறந்து": 8898,
      "திகழ்": 8899,
      "ஆட்டம்": 8900,
      "துர": 8901,
      "விளி": 8902,
      "ஆகையால்": 8903,
      "மானு": 8904,
      "இருக்கிறார்": 8905,
      "பிரித்தானியா": 8906,
      "சம்பந்தர்": 8907,
      "பறி": 8908,
      "விற": 8909,
      "ண்டின்": 8910,
      "தியே": 8911,
      "வீதி": 8912,
      "இடர்": 8913,
      "முழுவது": 8914,
      "அனைத்தையும்": 8915,
      "ஹாசன்": 8916,
      "தோன்றி": 8917,
      "வேட்டையா": 8918,
      "CC": 8919,
      "அன்னை": 8920,
      "மையமாக": 8921,
      "பெற்றன": 8922,
      "நோக்கில்": 8923,
      "எகிப்திய": 8924,
      "அன்றைய": 8925,
      "வலியுறுத்த": 8926,
      "57": 8927,
      "பாவ": 8928,
      "1925": 8929,
      "திருவண்ணா": 8930,
      "பதிப்பி": 8931,
      "முன்னதாக": 8932,
      "உட்புற": 8933,
      "கிராமத்தில்": 8934,
      "பள்ளிகள்": 8935,
      "ரஷ்யா": 8936,
      "அப்போதைய": 8937,
      "கொல்கத்தா": 8938,
      "62": 8939,
      "சலி": 8940,
      "ுகின்றார்": 8941,
      "வெறும்": 8942,
      "தியோ": 8943,
      "160": 8944,
      "தோன்றியது": 8945,
      "தேர்ந்தெடுக்கப்பட்ட": 8946,
      "அஸ்": 8947,
      "இடத்தைப்": 8948,
      "குறைபாடு": 8949,
      "ஈடுபட": 8950,
      "இன்றிய": 8951,
      "காகி": 8952,
      "நடுவண்": 8953,
      "97": 8954,
      "னியின்": 8955,
      "காட்": 8956,
      "வாழி": 8957,
      "உதவியுடன்": 8958,
      "க்டர்": 8959,
      "சலே": 8960,
      "டனான": 8961,
      "ப்ரி": 8962,
      "குப்த": 8963,
      "இயங்கி": 8964,
      "கூறுகள்": 8965,
      "குற்றச்சா": 8966,
      "கருதுகின்றனர்": 8967,
      "சங்கிலி": 8968,
      "விஷ்ணு": 8969,
      "தூத்துக்குடி": 8970,
      "ric": 8971,
      "கினி": 8972,
      "ஜை": 8973,
      "வார்ட": 8974,
      "வீசி": 8975,
      "ஆண்டுக்கு": 8976,
      "புவியின்": 8977,
      "மூலக்கூறு": 8978,
      "தற்காலத்தில்": 8979,
      "இயல்பான": 8980,
      "மொழிபெயர்ப்பு": 8981,
      "மத்திமம்": 8982,
      "ஓட்டு": 8983,
      "சஞ்சி": 8984,
      "வைத்திய": 8985,
      "லிவர்": 8986,
      "ட்சை": 8987,
      "உருவக": 8988,
      "வருவாய": 8989,
      "உலகெ": 8990,
      "மோச": 8991,
      "புகைய": 8992,
      "இணையதளம்": 8993,
      "பருவத்தில்": 8994,
      "ஓட": 8995,
      "ஹர்": 8996,
      "சாத்": 8997,
      "ம்பட்டி": 8998,
      "அவசியம்": 8999,
      "தைவதம்": 9000,
      "ஆண்டும்": 9001,
      "வகைகளில்": 9002,
      "மூலமும்": 9003,
      "சிறப்புப்": 9004,
      "அழிந்து": 9005,
      "பந்தய": 9006,
      "அறிமுகப்படுத்தப்பட்டது": 9007,
      "அயோ": 9008,
      "றே": 9009,
      "முறைகளில்": 9010,
      "நகரப்": 9011,
      "இனப்பெருக்க": 9012,
      "ஏற்றுமதி": 9013,
      "அதன்ப": 9014,
      "ஏவுக": 9015,
      "வையா": 9016,
      "மேக்": 9017,
      "டைமை": 9018,
      "டியான": 9019,
      "ப்பிகள்": 9020,
      "வழிபாட்டு": 9021,
      "உள்ளடக்கம்": 9022,
      "கதாப்பா": 9023,
      "ஆலோசனை": 9024,
      "மைக்ரோசாப்ட்": 9025,
      "con": 9026,
      "உலோ": 9027,
      "எப்": 9028,
      "சவ்": 9029,
      "பெனி": 9030,
      "சுட": 9031,
      "அமைகிறது": 9032,
      "ஸ்டெ": 9033,
      "படிப்படியாக": 9034,
      "அணிகள்": 9035,
      "ஹார்ட்": 9036,
      "கதிரிய": 9037,
      "மாகாணத்தில்": 9038,
      "எண்ணிக்கையில்": 9039,
      "63": 9040,
      "ொட": 9041,
      "வியலாளர்கள்": 9042,
      "தமிழ்க்": 9043,
      "கட்டப்பட்டது": 9044,
      "பிலிம்பேர்": 9045,
      "82": 9046,
      "எடி": 9047,
      "வதே": 9048,
      "போக்க": 9049,
      "கரம்": 9050,
      "ind": 9051,
      "க்காரர்": 9052,
      "நோயின்": 9053,
      "துறையின்": 9054,
      "எவ்வளவு": 9055,
      "ect": 9056,
      "சக்க": 9057,
      "வதாகவும்": 9058,
      "திண்டு": 9059,
      "போன்": 9060,
      "மிதி": 9061,
      "தோழி": 9062,
      "தீவில்": 9063,
      "கணக்கு": 9064,
      "டாலர்": 9065,
      "முடிவெ": 9066,
      "பொருள்படும்": 9067,
      "கல்லூரிகள்": 9068,
      "நன்றாக": 9069,
      "ஓம்": 9070,
      "1924": 9071,
      "பியூ": 9072,
      "ஏறக்குறைய": 9073,
      "கடுமையாக": 9074,
      "பெரும்பான்மையான": 9075,
      "up": 9076,
      "ங்கர": 9077,
      "ர்தல்": 9078,
      "வீழ்": 9079,
      "உலகக்": 9080,
      "உதவியா": 9081,
      "பக்கத்தில்": 9082,
      "பொருத்தமான": 9083,
      "குடியரசின்": 9084,
      "துப்பாக்கி": 9085,
      "ஜப்பான்": 9086,
      "விக்கிர": 9087,
      "நிறுவனத்தில்": 9088,
      "சேர்ந்தவர்": 9089,
      "க்கொண்டது": 9090,
      "டபிள்யூ": 9091,
      "வெண்க": 9092,
      "கோரிக்கை": 9093,
      "நிச்ச": 9094,
      "நிதிகள்": 9095,
      "ராகும்": 9096,
      "காணும்": 9097,
      "மாகாணம்": 9098,
      "பிரதிபலி": 9099,
      "69": 9100,
      "சவா": 9101,
      "குழி": 9102,
      "ம்பரம்": 9103,
      "கரையில்": 9104,
      "பெறுகிறது": 9105,
      "சங்கப்": 9106,
      "இழப்பு": 9107,
      "கொடுத்தார்": 9108,
      "த்தல": 9109,
      "காவிய": 9110,
      "தாழ": 9111,
      "டியை": 9112,
      "நாடாக": 9113,
      "ிருந்தால்": 9114,
      "முகமது": 9115,
      "ஏற்படுத்தியது": 9116,
      "துருவ": 9117,
      "நாதபுரம்": 9118,
      "ஸன்": 9119,
      "ப்யூ": 9120,
      "ண்டனில்": 9121,
      "குறும்": 9122,
      "1928": 9123,
      "பேருந்த": 9124,
      "அமைகின்றன": 9125,
      "கன்னட": 9126,
      "சக்கரத்தின்": 9127,
      "அப்படி": 9128,
      "டாக்": 9129,
      "காலா": 9130,
      "ஸ்லா": 9131,
      "ர்களிடையே": 9132,
      "மத்த": 9133,
      "சிரி": 9134,
      "ட்ச்": 9135,
      "கன்னி": 9136,
      "தன்னா": 9137,
      "வதாகும்": 9138,
      "விரிவாக்க": 9139,
      "வுகளையும்": 9140,
      "எரிபொருள்": 9141,
      "அப்துல்": 9142,
      "அப்பட": 9143,
      "னூர்": 9144,
      "வாசல்": 9145,
      "சிதம்ப": 9146,
      "1917": 9147,
      "நேர்கா": 9148,
      "வானியல்": 9149,
      "அதிகப்படியான": 9150,
      "பெருங்கு": 9151,
      "மனிதர்": 9152,
      "பொருளாக": 9153,
      "இழந்த": 9154,
      "மின்கா": 9155,
      "பகிர்": 9156,
      "கட்டுப்பாட்டில்": 9157,
      "முனிவர்": 9158,
      "சுவர்": 9159,
      "மெல்லிய": 9160,
      "இயலாது": 9161,
      "ப்படுத்திய": 9162,
      "ஹென்றி": 9163,
      "ஆளுந": 9164,
      "அருகிலுள்ள": 9165,
      "ge": 9166,
      "ூரு": 9167,
      "வாட்": 9168,
      "தொண்டை": 9169,
      "கிரெ": 9170,
      "கைவிட": 9171,
      "ஒன்றும்": 9172,
      "கொடுக்கும்": 9173,
      "அதிகரித்து": 9174,
      "கற்பனை": 9175,
      "சுல்தான்": 9176,
      "அத்தகைய": 9177,
      "1922": 9178,
      "ஸ்ட்ரீ": 9179,
      "விஜய்": 9180,
      "சபையின்": 9181,
      "டைம்ஸ்": 9182,
      "ஒன்றின்": 9183,
      "அளித்து": 9184,
      "அறிமுகமானார்": 9185,
      "ஜாக": 9186,
      "தங்களின்": 9187,
      "எனில்": 9188,
      "அளவிட": 9189,
      "முடிச்சு": 9190,
      "ப்பினார்": 9191,
      "கூறலாம்": 9192,
      "மருத்துவக்": 9193,
      "மறுத்து": 9194,
      "விமர்ச": 9195,
      "உயிரினங்கள்": 9196,
      "அவற்றுள்": 9197,
      "நேர்காண": 9198,
      "ஓய்": 9199,
      "ூல்": 9200,
      "விக்டோ": 9201,
      "கோவா": 9202,
      "பரின்": 9203,
      "பழம்": 9204,
      "இடைமுக": 9205,
      "திருச்சிராப்பள்ளி": 9206,
      "ட்ஜம்": 9207,
      "நிக்கோ": 9208,
      "சார்பாக": 9209,
      "வன்முறை": 9210,
      "1931": 9211,
      "சிக்கல்கள்": 9212,
      "தொழிலாள": 9213,
      "ஆதரவளி": 9214,
      "கவலை": 9215,
      "ஹு": 9216,
      "ுமே": 9217,
      "போஸ்": 9218,
      "சாதிய": 9219,
      "சியின்": 9220,
      "திருப்பூர்": 9221,
      "ியைச்": 9222,
      "தமிழகத்தின்": 9223,
      "இதனையும்": 9224,
      "பஞ்சமம்": 9225,
      "படியும்": 9226,
      "to": 9227,
      "ரிஷ": 9228,
      "ற்கால": 9229,
      "வைக்கப்பட்டது": 9230,
      "டைந்து": 9231,
      "மட்டத்தில்": 9232,
      "தொழிலதி": 9233,
      "முடியாமல்": 9234,
      "தெளிவு": 9235,
      "இடையேயான": 9236,
      "டென்னி": 9237,
      "உருவாக்குகிறது": 9238,
      "நினைவாக": 9239,
      "முதலீட்டு": 9240,
      "திருகோணமலை": 9241,
      "Sh": 9242,
      "அநே": 9243,
      "நிறுவனங்களின்": 9244,
      "அடையும்": 9245,
      "அடர்த்த": 9246,
      "ஆற்றலை": 9247,
      "டேட்டா": 9248,
      "வியாபார": 9249,
      "கால்நடை": 9250,
      "நெடுஞ்ச": 9251,
      "ஆன்மீ": 9252,
      "வேலூர்": 9253,
      "ஸ்டுடியோ": 9254,
      "ik": 9255,
      "நன்": 9256,
      "லொ": 9257,
      "ஹரி": 9258,
      "போகும்": 9259,
      "காலப்பகுதியில்": 9260,
      "தளங்கள்": 9261,
      "தோன்றினார்": 9262,
      "செலுத்தும்": 9263,
      "சிறிதள": 9264,
      "ஒட்ட": 9265,
      "வசன": 9266,
      "ல்டு": 9267,
      "போதே": 9268,
      "செய்யா": 9269,
      "வரிகள்": 9270,
      "்ச்சல்": 9271,
      "தலங்களில்": 9272,
      "பருவம்": 9273,
      "எளிமையான": 9274,
      "மேம்பட்ட": 9275,
      "84": 9276,
      "அண்மை": 9277,
      "எடைய": 9278,
      "சுவீ": 9279,
      "தூரம்": 9280,
      "மடைந்தனர்": 9281,
      "தெற்கில்": 9282,
      "',": 9283,
      "புழ": 9284,
      "1919": 9285,
      "பயின்றார்": 9286,
      "முதற்": 9287,
      "ரோன்": 9288,
      "ஆண்டுதோறும்": 9289,
      "பட்டா": 9290,
      "தனிநபர்": 9291,
      "படைகளை": 9292,
      "ஒளிபரப்ப": 9293,
      "பக்கங்கள்": 9294,
      "ஜோன்": 9295,
      "தெளிவான": 9296,
      "செப்": 9297,
      "ினதும்": 9298,
      "்களுடன்": 9299,
      "சியன்": 9300,
      "இவ்வூர்": 9301,
      "அக்கால": 9302,
      "டையும்": 9303,
      "பிக்ச": 9304,
      "இருந்ததால்": 9305,
      "இசைத்": 9306,
      "1932": 9307,
      "சதவீதம்": 9308,
      "பாண": 9309,
      "நாய்": 9310,
      "ஞ்சியம்": 9311,
      "பொதுச்": 9312,
      "யிட்": 9313,
      "இராணுவம்": 9314,
      "காந்த்": 9315,
      "முதலமைச்ச": 9316,
      "ஆர்த": 9317,
      "இவரே": 9318,
      "எறி": 9319,
      "லாசிரியர்": 9320,
      "நாடி": 9321,
      "எனக்கு": 9322,
      "பிரஸ்": 9323,
      "கட்டிடம்": 9324,
      "ical": 9325,
      "சுழற்சிய": 9326,
      "ஒன்றியத்தின்": 9327,
      "மின்னோட்ட": 9328,
      "பரம்பல்": 9329,
      "விக்கிப்பீடியா": 9330,
      "ஜரா": 9331,
      "தங்கம்": 9332,
      "பிஸ்": 9333,
      "நிபந்த": 9334,
      "est": 9335,
      "இயக்குந": 9336,
      "வேளைகளில்": 9337,
      "உமா": 9338,
      "வாங்கு": 9339,
      "1914": 9340,
      "நிலைக்": 9341,
      "தலைநகரம்": 9342,
      "2020": 9343,
      "ேற்றம்": 9344,
      "சிறுவர்": 9345,
      "குறுந்தொ": 9346,
      "தந்தையின்": 9347,
      "சுப்பிரமணியம்": 9348,
      "வாக்காளர்": 9349,
      "oh": 9350,
      "ுகோ": 9351,
      "காலனி": 9352,
      "வருவது": 9353,
      "க்கோடு": 9354,
      "புத்தர்": 9355,
      "வாழ்கின்றனர்": 9356,
      "முறியடி": 9357,
      "குறிப்புதவிகள்": 9358,
      "CO": 9359,
      "னியல்": 9360,
      "ட்டியின்": 9361,
      "முட": 9362,
      "பாட்": 9363,
      "தேன்": 9364,
      "பொதி": 9365,
      "கோப": 9366,
      "மென": 9367,
      "போன்றே": 9368,
      "எதிர்த்த": 9369,
      "பாதிப்பு": 9370,
      "ஆட்டமிழ": 9371,
      "தாக்குதலை": 9372,
      "நம்பப்படுகிறது": 9373,
      "பாயும்": 9374,
      "பேரூராட்சிகள்": 9375,
      "74": 9376,
      "பெட்டி": 9377,
      "மேலோ": 9378,
      "சாமு": 9379,
      "நிலத்தில்": 9380,
      "நடனம்": 9381,
      "மொழிக்": 9382,
      "திட்டத்தின்": 9383,
      "தொடங்கினர்": 9384,
      "இத்தீ": 9385,
      "விவாதி": 9386,
      "மாநாடு": 9387,
      "தொடங்கின": 9388,
      "முன்பாக": 9389,
      "தொல்காப்பிய": 9390,
      "pl": 9391,
      "காய்": 9392,
      "காட்டிய": 9393,
      "போர்டு": 9394,
      "1900": 9395,
      "க்கூடாது": 9396,
      "வளர்ப்பு": 9397,
      "தொழில்துறை": 9398,
      "சகோதரர்": 9399,
      "ன்பு": 9400,
      "1921": 9401,
      "வியலில்": 9402,
      "இரட்ட": 9403,
      "இரகசிய": 9404,
      "பிரம்மா": 9405,
      "இவ்வ": 9406,
      "திட்டத்தை": 9407,
      "வாழ்நாள்": 9408,
      "ஆரம்பமானது": 9409,
      "நடத்தினார்": 9410,
      "சமீபத்திய": 9411,
      "வியட்நாம்": 9412,
      "ொளி": 9413,
      "விசய": 9414,
      "1926": 9415,
      "பேரில்": 9416,
      "மையையும்": 9417,
      "சியே": 9418,
      "சூத்திர": 9419,
      "விட்டனர்": 9420,
      "பணியாற்றி": 9421,
      "ஆசிரியர்கள்": 9422,
      "ஆதிக்கம்": 9423,
      "61": 9424,
      "93": 9425,
      "ஸ்பெ": 9426,
      "தேவாரம்": 9427,
      "கட்டுப்பாட": 9428,
      "கிழக்கி": 9429,
      "சியாவின்": 9430,
      "பயனர்கள்": 9431,
      "பாகிஸ்தான": 9432,
      "ஆல்க": 9433,
      "வயிற்று": 9434,
      "மிரா": 9435,
      "தென்ன": 9436,
      "கலீ": 9437,
      "கிறிஸ்து": 9438,
      "ஜப்பான": 9439,
      "தன்னி": 9440,
      "பாம்ப": 9441,
      "போதிய": 9442,
      "ப்பாய்": 9443,
      "ேயும்": 9444,
      "க்கூடியதாக": 9445,
      "கொள்கைகள்": 9446,
      "படையினர்": 9447,
      "ஏற்படலாம்": 9448,
      "அயனி": 9449,
      "நெதர்லாந்து": 9450,
      "கதைய": 9451,
      "றல்": 9452,
      "வையின்": 9453,
      "வதையும்": 9454,
      "க்கவில்லை": 9455,
      "பிணைய": 9456,
      "ப்புரம்": 9457,
      "தலைவராகவும்": 9458,
      "பழங்குடி": 9459,
      "ஓரளவு": 9460,
      "வைட்டமின்": 9461,
      "இப்பு": 9462,
      "உடு": 9463,
      "காலமானார்": 9464,
      "னார்கள்": 9465,
      "வரிசைய": 9466,
      "ுக்கோ": 9467,
      "சங்கர": 9468,
      "வரையிலும்": 9469,
      "அங்கிருந்து": 9470,
      "சுழல்": 9471,
      "அமர்": 9472,
      "கரா": 9473,
      "தல்கள்": 9474,
      "லவ்": 9475,
      "துகள": 9476,
      "கொன்று": 9477,
      "பிரசு": 9478,
      "வருடா": 9479,
      "ர்க்கை": 9480,
      "ஸ்கார்": 9481,
      "வதைக்": 9482,
      "சந்தர்ப்ப": 9483,
      "FC": 9484,
      "காள": 9485,
      "வாளர்": 9486,
      "தேசி": 9487,
      "அமெரிக்கன்": 9488,
      "கைப்பற்றினார்": 9489,
      "னையும்": 9490,
      "திகதி": 9491,
      "மார": 9492,
      "தாக்கி": 9493,
      "மெதுவாக": 9494,
      "்குறி": 9495,
      "கேப்": 9496,
      "வல்லி": 9497,
      "ஜெர்மனியின்": 9498,
      "உட்படுத்த": 9499,
      "கூடைப்ப": 9500,
      "73": 9501,
      "94": 9502,
      "உழ": 9503,
      "காதல": 9504,
      "பெத்": 9505,
      "தாக்கிய": 9506,
      "ஒருவன்": 9507,
      "உணர்த்த": 9508,
      "இடைக்கால": 9509,
      "பியர்": 9510,
      "பொறுப்ப": 9511,
      "கூறியது": 9512,
      "அட்லா": 9513,
      "திருக்கோயில்": 9514,
      "டிஜிட்டல்": 9515,
      "கய": 9516,
      "ண்கள்": 9517,
      "க்கத்தின்": 9518,
      "சுட்டு": 9519,
      "தோழ": 9520,
      "உறுதிய": 9521,
      "லுமி": 9522,
      "இவ்வு": 9523,
      "புறக்கணி": 9524,
      "ஹெச்": 9525,
      "பல்கலைக்கழகத்தின்": 9526,
      "தாக்கத்தை": 9527,
      "III": 9528,
      "ரஷ்ய": 9529,
      "சிறுநீரக": 9530,
      "கள்ள": 9531,
      "முளை": 9532,
      "சமமான": 9533,
      "ுக்கே": 9534,
      "மரன்": 9535,
      "ப்பெற": 9536,
      "ans": 9537,
      "படையின": 9538,
      "ஐந்தாம்": 9539,
      "மரியாதை": 9540,
      "சங்கீ": 9541,
      "விளைவுகளை": 9542,
      "கிருஷ்ணா": 9543,
      "தெரியவில்லை": 9544,
      "ந்துகொண்ட": 9545,
      "திண்டுக்கல்": 9546,
      "ஆபிரிக்க": 9547,
      "முசு": 9548,
      "முறு": 9549,
      "காணப்பட்டது": 9550,
      "மாற்றாக": 9551,
      "பணியில்": 9552,
      "திறனை": 9553,
      "பதின்": 9554,
      "சிதம்பரம்": 9555,
      "அதற்கான": 9556,
      "படுத்துவ": 9557,
      "க்குள்ள": 9558,
      "தேவாலய": 9559,
      "பகுத்த": 9560,
      "தரப்பட்ட": 9561,
      "உணர்வ": 9562,
      "குறிப்பிட்டார்": 9563,
      "்தொடர்": 9564,
      "பயனுள்ள": 9565,
      "விவசாயம்": 9566,
      "மின்காந்த": 9567,
      "NT": 9568,
      "மியின்": 9569,
      "ராஸ்": 9570,
      "கொண்டவர்": 9571,
      "கலைப்": 9572,
      "உட்பட்டது": 9573,
      "திருவண்ணாமலை": 9574,
      "தங்களை": 9575,
      "வண்ட": 9576,
      "ாடு": 9577,
      "திசையில்": 9578,
      "முறி": 9579,
      "செம்ப": 9580,
      "காரணங்கள்": 9581,
      "விளையாடி": 9582,
      "குறிப்பிடப்படுகிறது": 9583,
      "எதிர்மின்": 9584,
      "வுக்குப்": 9585,
      "250": 9586,
      "சேவைகளை": 9587,
      "வசித்து": 9588,
      "ஆக்சிசன": 9589,
      "ஆதரிக்க": 9590,
      "pro": 9591,
      "கங்க": 9592,
      "மல்லி": 9593,
      "பிளவு": 9594,
      "கோள்": 9595,
      "என்பவரின்": 9596,
      "பரே": 9597,
      "ண்டிக்": 9598,
      "க்கப்படவில்லை": 9599,
      "ஏனென்றால்": 9600,
      "பிரேசில்": 9601,
      "மனோரமா": 9602,
      "தோராயமாக": 9603,
      "சுவிட்சர்": 9604,
      "ரையை": 9605,
      "ன்ட்": 9606,
      "ப்பற்றி": 9607,
      "கோபுரம்": 9608,
      "நிலைத்த": 9609,
      "ுகளைத்": 9610,
      "ஜெய்ச": 9611,
      "அக்கா": 9612,
      "வர்மன்": 9613,
      "்களுக்கும்": 9614,
      "தொடங்கும்": 9615,
      "குறைக்க": 9616,
      "கலவை": 9617,
      "இசைக்கரு": 9618,
      "தொகுதிக்கும்": 9619,
      "ஏற்படுத்திய": 9620,
      "விண்மீன்": 9621,
      "பயன்படுகின்றது": 9622,
      "உம்": 9623,
      "ட்டே": 9624,
      "்களிலும்": 9625,
      "நீரோ": 9626,
      "ப்படுவதற்கு": 9627,
      "புதுக்கோட்டை": 9628,
      "இசுரே": 9629,
      "சகோதரி": 9630,
      "சதவிகித": 9631,
      "ஊக்க": 9632,
      "ப்பதற்கும்": 9633,
      "ப்பாடல்": 9634,
      "நெப்போ": 9635,
      "காரணத்தால்": 9636,
      "உற்பத்தியில்": 9637,
      "சுற்றுப்": 9638,
      "கிராமம்": 9639,
      "கௌரவ": 9640,
      "சேமிப்பு": 9641,
      "வேளாண்": 9642,
      "சாம்பியன்ஷி": 9643,
      "பலா": 9644,
      "லப்": 9645,
      "வாலா": 9646,
      "மாகி": 9647,
      "ங்குடி": 9648,
      "மாவட்டங்கள்": 9649,
      "பெறவில்லை": 9650,
      "சோழர்": 9651,
      "நம்பிய": 9652,
      "முன்னோடி": 9653,
      "ஐபி": 9654,
      "ஜியா": 9655,
      "நந்தி": 9656,
      "மவு": 9657,
      "இருப்பு": 9658,
      "ஸ்மா": 9659,
      "1927": 9660,
      "்களுக்கான": 9661,
      "படைப்பிரி": 9662,
      "போலந்து": 9663,
      "ஆரம்பிக்கப்பட்டது": 9664,
      "பார்வையில்": 9665,
      "யாழ்ப்பாணத்தில்": 9666,
      "மப்": 9667,
      "ம்மன்": 9668,
      "ப்பல": 9669,
      "பெட்ரோ": 9670,
      "சோம": 9671,
      "ஒன்றுக்கு": 9672,
      "மரணம்": 9673,
      "உடற்": 9674,
      "மேற்கொண்டு": 9675,
      "ஈடுபாடு": 9676,
      "விதத்தில்": 9677,
      "ஆரம்பித்தார்": 9678,
      "அகாதமி": 9679,
      "இளைஞ": 9680,
      "வலுவான": 9681,
      "படுத்து": 9682,
      "ப்புகளுக்கு": 9683,
      "முன்க": 9684,
      "பயன்படுத்துகிறது": 9685,
      "ஆய்வில்": 9686,
      "அதைத்": 9687,
      "நுகர்வோர்": 9688,
      "இதி": 9689,
      "உற்": 9690,
      "க்காகவும்": 9691,
      "களாகவும்": 9692,
      "வரம்பு": 9693,
      "ம்பூ": 9694,
      "மீத": 9695,
      "பெற்றுக்": 9696,
      "அருள": 9697,
      "இழைய": 9698,
      "விளையாட்டுக்கள்": 9699,
      "பாத்திரத்தில்": 9700,
      "கிழக்கிந்திய": 9701,
      "அத்": 9702,
      "மங்கள": 9703,
      "வாங்கிய": 9704,
      "சிடி": 9705,
      "வேரி": 9706,
      "நிலவ": 9707,
      "கோழி": 9708,
      "சின்னம்": 9709,
      "பைர": 9710,
      "இவர்களுக்கு": 9711,
      "எசுப்பான": 9712,
      "ர்ட்டின்": 9713,
      "SI": 9714,
      "ஒட்டி": 9715,
      "தினம்": 9716,
      "ர்கிறது": 9717,
      "நிலையாக": 9718,
      "மேற்கி": 9719,
      "பரிணா": 9720,
      "பழங்கால": 9721,
      "ப்பொருட்கள்": 9722,
      "olog": 9723,
      "நிராகரி": 9724,
      "ie": 9725,
      "டவுன்": 9726,
      "தையில்": 9727,
      "புரியும்": 9728,
      "வருமானம்": 9729,
      "ஸ்ட்ட": 9730,
      "பிராட்": 9731,
      "சிரியர்கள்": 9732,
      "மணிய": 9733,
      "ஹாலி": 9734,
      "கல்லீரல்": 9735,
      "போன்றவற்றில்": 9736,
      "அட்டவண": 9737,
      "உபயோக": 9738,
[...]
